[PAD]
[UNK]
[CLS]
[SEP]
[MASK]
!
"
#
$
%
&
'
(
)
*
+
,
-
.
/
0
1
2
3
4
5
6
7
8
9
:
;
<
=
>
?
@
[
\
]
^
_
`
a
b
c
d
e
f
g
h
i
j
k
l
m
n
o
p
q
r
s
t
u
v
w
x
y
z
{
~
¡
£
¦
¨
ª
«
®
¯
°
º
œ
ȡ
ȥ
ˠ
α
β
γ
δ
ε
ζ
η
ι
κ
ρ
σ
τ
υ
χ
ω
ϳ
х
׺
ݳ
–
—
’
“
”
‡
…
‰
′
″
€
##r
##i
##a
##l
##e
##q
##u
##s
##t
##o
##n
##w
##y
##c
##k
##g
##m
##p
##d
##v
##b
##f
##h
##0
##8
##7
##2
##9
##3
##1
##6
##j
##x
##4
##z
##5
##€
##α
##°
##ε
##υ
##œ
##ζ
##γ
th
the
##er
##in
##at
##es
##on
##en
##or
##ed
##ou
##nd
##an
##ing
to
##al
of
##re
in
##it
##ar
and
##as
##is
##ic
##om
##ion
##le
##ent
##ll
be
it
re
##ot
is
##ve
that
##ly
##ow
##st
##ut
you
on
##id
##et
st
wh
##ct
ha
for
##se
##ur
pr
##ld
##ay
##ch
##ver
##ce
was
##ig
##ir
he
an
we
##im
##ation
##am
##th
are
##ad
as
##ol
##ith
sh
##ter
##op
##il
they
with
not
de
##ess
##est
ne
se
##od
##ke
##ment
con
fr
##ers
##ill
have
##ul
##ere
do
at
ch
go
com
##ould
or
##ate
su
##igh
##ant
##ge
##ain
li
pro
ex
kn
##and
there
but
##ac
##us
##pp
##ies
ye
know
tr
##ist
by
al
##ust
##ab
##ity
##os
so
ab
##ore
from
##ort
##mp
uh
##ome
##ive
##ight
##ost
le
me
wor
##out
##gh
this
##if
##ally
##ard
all
can
##iv
##all
##ie
##ap
##ud
##un
en
##ect
man
sp
##art
##um
##our
his
no
pl
ar
has
##ough
##el
ma
one
had
##qu
##au
like
out
were
don
##ast
un
##end
##oc
about
##em
sa
##ok
pe
cl
will
if
##tr
##ff
##ous
what
ad
their
would
##ice
##act
bec
up
##ink
te
just
tim
any
##ound
##one
##ind
my
more
##ong
##ib
gr
some
##ial
ag
##ish
##ah
comp
##ions
##ated
us
##iz
res
##oun
##ack
##her
them
ac
br
##ure
##ople
##gr
people
##ther
##ip
##ance
per
work
year
##ak
get
##ause
##ine
##age
##orm
##ag
she
who
cr
when
yeah
did
##ide
##ans
think
well
lo
am
imp
been
##ven
because
inc
##ings
time
qu
##ich
new
off
##ame
exp
rep
fe
##ence
##ays
ever
than
##ite
##ace
##ach
##able
##ations
other
her
over
##ue
inter
##ose
ser
##form
##are
int
dr
##ire
mu
co
its
dis
##ub
how
##ery
##itt
tw
##ree
sc
##hing
##ult
##oy
only
app
##ary
##ors
##00
##wn
bu
most
##ign
##own
good
po
##ber
19
could
ta
part
him
la
act
##pt
##enc
which
##ade
every
##ia
your
pre
##ec
##ass
##ical
str
said
##uct
##reat
##ments
##lic
ve
cent
##ied
see
acc
##ens
##ase
##ild
now
##av
comm
ro
rec
ind
gu
bo
very
right
##int
##ount
want
##fer
##ved
af
many
need
##ro
mar
des
##ates
##vel
really
##ep
##ang
into
should
##ory
two
und
car
lot
sm
serv
ass
##ond
##ian
##ile
##ition
here
fir
##ty
##ents
bl
may
##so
never
um
bet
much
these
##og
does
then
col
even
##omet
under
##ving
##oss
look
also
##ks
##anc
our
after
##ord
years
##lect
fin
##uc
##iss
thr
progr
cons
where
somet
##tain
leg
mon
mo
back
dec
##ail
##ices
prob
##ater
got
##ious
##ict
fl
fo
though
going
##eral
##ities
sy
inv
##cess
way
##ick
##te
old
rel
##les
program
##amp
long
##sel
par
sec
##vern
make
reg
dif
down
too
inform
##its
contr
##king
op
##ons
eff
high
##iver
made
fu
first
cost
pres
##ft
##ning
##we
govern
##mm
rem
##iew
##ry
pol
jo
##ual
##land
##oth
##thing
##ath
prov
##fore
information
ke
##ible
through
##ury
hel
##ouse
##way
requ
state
##fe
take
##lud
##gan
law
pub
great
##ful
those
##ting
still
##erm
##ily
##ational
ev
##ys
##ked
coun
help
##urn
didn
sch
used
hu
something
bel
##other
##ittle
bus
##ific
little
things
oh
supp
before
##ise
##ular
wr
##lem
##ility
cour
say
stud
gen
##ject
##stem
report
##ange
##get
add
##ative
system
##ating
id
mean
##ather
##als
sub
sl
use
call
city
includ
government
legal
house
##ts
find
emp
pers
disc
vis
##ually
ll
fam
##atch
##ood
day
war
own
ob
being
sur
dep
##uring
##ards
##ited
##ave
differ
##orn
##ways
##ures
again
loc
##mb
pay
bas
hand
show
such
small
ph
around
place
cap
##sp
kind
##ered
##olog
fed
interest
##ix
##ient
el
att
stand
mod
##ress
real
##air
red
ru
##oup
world
tal
##ics
agenc
##oney
found
inst
last
end
199
home
lar
##ene
prod
ed
##sc
plan
public
always
##ra
##ues
##eric
set
val
##ives
pop
min
resp
##self
ear
americ
##ves
##ants
organ
##lish
town
##ock
##con
##ug
##led
money
art
problem
three
countr
federal
est
same
century
##ew
import
##az
rest
while
start
##day
##cent
care
def
ho
##ower
tak
far
both
##ying
##ear
happ
##ident
stre
organiz
person
##red
sin
child
##ists
##ool
rev
big
##ri
thing
nor
prop
num
let
del
ca
best
seem
met
services
##ody
##osed
dem
sou
char
cor
##yp
effect
##ern
sim
##ines
##ek
##ably
bar
life
read
##ted
put
school
come
fact
##ets
anything
cont
build
case
few
eas
belie
play
form
##iness
med
perform
##ork
better
spec
each
less
might
cle
hard
##ces
point
during
post
lead
hum
av
econ
##io
##chn
##ween
thought
econom
between
cur
aud
sk
different
national
service
sure
comple
incre
main
fund
##llow
##atter
##ution
since
##velop
must
em
wom
chang
book
##ten
##istr
important
det
iss
tour
##ren
##iet
gl
another
techn
##xt
sign
##ized
compan
ret
tax
eng
##ars
##ior
##urch
##ism
bene
##ently
percent
result
##be
##ee
mil
##vent
##ided
aut
watch
##loy
develop
manage
partic
away
##res
consid
conc
business
mark
design
ins
##ids
##cept
feel
##lly
rule
went
##ier
##hip
hist
muse
island
soc
cer
##irect
##ope
visit
area
aff
benef
##ute
fun
doesn
why
country
run
keep
product
##ilt
temp
##ata
##ash
##ever
##uss
ent
##ize
##der
sit
near
##ao
turn
##ins
head
view
open
guess
four
states
##ital
times
process
##ired
ide
##gest
##ason
##tern
quest
direct
##alth
hot
water
wal
##rew
room
##ward
commun
##str
control
##aw
##ically
##ling
once
sen
employ
air
200
management
trans
##err
adm
mr
yes
nothing
allow
cover
number
financ
anal
left
mill
sever
large
mail
jon
adv
##ission
invest
##til
data
test
bud
week
##ger
sw
men
##ters
##co
##ural
##ined
##ains
typ
pal
##pl
##que
account
maj
conf
##orts
expl
without
done
prof
tell
##body
exper
museum
month
appro
##ately
##kes
##ality
children
##ats
da
pret
night
follow
doing
##cc
bad
white
##ides
prot
##read
##ected
##gress
land
mus
##ron
programs
five
gao
tra
probably
##ends
port
enough
hour
##ees
poss
##ians
##ble
top
##cr
job
cre
##ology
major
built
camp
elect
##ared
000
secur
south
president
intern
clint
north
next
ann
require
##man
church
group
##stand
##ley
give
along
##ought
ref
pain
suc
youn
##ale
clinton
class
pass
office
polit
priv
##wh
fri
##less
##opp
took
ris
equ
##ric
##ner
##ton
came
kids
stat
18
several
20
collect
seen
called
change
grow
able
until
mor
##joy
##ral
against
fac
##iven
##ead
today
news
##ness
nat
audit
pretty
tre
congress
enjoy
review
##ank
crit
opp
##ell
##ced
##ases
support
##ages
everything
certain
term
##ially
name
power
rece
ap
beh
sect
lsc
pract
##ote
arch
##augh
family
contin
curr
ra
market
cond
inf
financial
##ional
polic
##up
security
var
##ned
##br
##aper
##ience
wanted
##ime
agencies
##erg
known
##ames
happen
##ision
bill
##ump
american
street
second
huh
summ
##ived
##ified
impro
gener
however
##hn
pat
costs
##els
##ph
auth
mov
level
oper
agency
terr
project
free
cal
course
##ither
stay
##lement
general
performance
understand
##uck
ext
meet
trad
john
sal
believe
ok
invol
often
analys
else
##aring
##uff
##ey
local
##ensive
past
repres
hal
##ering
##ivers
##ds
ste
gre
popular
##most
miss
##old
live
won
##ased
##rop
##ised
having
avail
##upp
offic
six
##ark
##uction
matter
##li
##ients
##ops
clear
order
getting
##ivid
##used
side
days
low
saving
examp
##side
##ether
budget
ey
deliver
story
problems
capital
black
mag
##idd
provide
center
least
##ency
thir
study
doll
estim
san
##ember
lim
health
arr
sta
vill
wa
isn
##ending
vol
har
##eng
arm
##ained
exec
win
success
##ention
depart
almost
women
based
##erc
list
##inc
try
everyone
##erv
says
##ibility
10
quite
activ
##ument
fig
##ulation
cut
young
million
united
spe
site
ago
##aph
##ured
asked
rul
##ability
road
##imes
cho
exc
reason
wasn
whole
##over
cult
ten
beach
##ateg
##ances
15
##ench
gard
beg
actually
represent
prom
orig
looked
food
saw
##inal
occ
making
##aut
##aster
wind
##iving
available
addition
analysis
half
sing
mount
nice
building
makes
non
discuss
wall
##ored
told
hous
comput
history
among
company
idea
pa
lawy
pie
##iting
respons
##lf
individ
whether
yet
changes
tupp
bre
love
rather
##arr
##ources
tuppence
attr
tomm
aw
fut
pos
tommy
maybe
##rist
including
rom
##aces
jap
bur
##line
acr
deal
indust
trying
jud
##idence
sug
japan
##hod
sup
ce
ir
execut
social
##ipp
individual
ident
question
author
tot
full
pur
##acy
resear
distr
research
working
##ended
complete
court
benefits
west
##ife
true
sound
king
present
##uation
##ont
within
fil
okay
needed
hold
##omm
##ina
someone
##ences
##sh
##ret
manag
##lished
bit
either
sun
##fu
beaut
##ert
usually
technology
organizations
private
hor
sat
stuff
later
##ove
##na
che
early
17
##ield
heard
enter
train
future
tex
accord
agree
oth
##aking
others
##ison
imm
temple
sol
brit
buy
issues
##ged
income
seems
##aim
tow
travel
method
york
##ination
kill
eg
##att
access
postal
regul
##oke
christ
wond
signific
##lev
fish
outside
across
using
estab
poor
example
final
rate
short
remember
needs
ple
lab
##ane
amount
interesting
##pr
talking
hill
quality
modern
##aps
lear
results
##utes
face
given
##hold
hund
hundred
##ief
env
systems
become
address
##ued
##ense
drug
gir
##ories
12
admin
##ott
include
meas
worth
special
possible
##by
easy
jew
close
effective
##ister
standards
coup
staff
vi
miles
##atic
diff
ep
##ru
hus
##iod
east
doc
init
park
##iety
looking
sometimes
attract
im
fav
##enty
ant
team
knew
period
##bo
##oci
##ortun
drew
value
##ready
already
held
economic
particular
paper
colle
corp
##par
16
suggest
pot
coast
due
##icult
mind
toget
abs
##ape
policy
##atory
alth
together
mom
##ows
squ
talk
simp
ge
death
associ
##work
started
reach
french
dist
compet
##ny
pen
dest
although
##itions
music
record
enc
profess
bal
##ials
daan
difficult
cann
consider
##uce
##iding
hours
##band
significant
##ried
foc
taken
step
civ
envir
constr
##fully
esp
##sw
current
fall
door
sty
fel
##0s
dom
##ush
sil
move
##ising
##where
improve
net
environ
god
model
ground
couldn
particip
##ocr
eur
department
##gle
shows
grand
descr
deb
months
##mbers
contain
computer
tur
count
##ica
##aint
human
fail
##ilar
##vious
assist
##ished
line
members
boy
ren
repub
infl
fine
woman
##unch
husband
commission
behind
##graph
approach
protect
according
exist
arg
risk
girl
himself
##aur
dollars
educ
sn
sort
sent
##ov
##itting
##hol
republic
areas
##ming
organization
walk
movie
beautif
increase
##ening
environment
necess
studies
summer
##ilities
##ature
##app
##selves
administr
sell
implement
dou
##ume
claim
required
pu
tradition
thous
specific
rich
cases
thousand
strateg
return
##rin
scre
##ms
determ
answ
considered
lost
age
anyone
foot
civil
mem
planning
political
friend
europe
requirements
became
##itive
wouldn
ones
eight
famous
concern
##ius
light
eval
companies
impact
alco
fre
object
dev
ach
##irc
##orp
cannot
rules
##aves
community
haven
justice
employees
alcohol
texas
gave
development
sho
##son
##ogn
defin
resources
bring
exact
grant
##rect
total
regard
works
workers
hun
##lin
appear
##amed
cred
demand
single
ital
##ropri
delivery
press
##oad
fight
##itted
collection
leave
##ama
similar
british
accept
const
cast
felt
fle
ele
desp
favor
achie
river
rout
turned
##bor
fur
##ony
##rem
anc
eyes
fore
personal
##ator
##thern
##ify
pick
lou
univers
takes
espec
##itch
couple
wrong
type
especially
##yn
stop
##ball
##omp
quick
restaur
begin
##ake
ill
##tion
##omes
##uced
wife
##ese
subject
##aft
expect
entire
##vers
strong
mur
soon
recogn
vict
related
sir
goes
activities
self
gold
poll
wonder
sea
##ium
##atives
du
teach
assess
circ
##urs
##of
##ened
histor
tv
famil
mult
hear
houses
price
comments
lit
longer
##ival
##bs
comes
14
adrin
##yc
##ges
proposed
likely
taking
involved
##ypt
offer
treat
30
college
midd
began
beautiful
nation
##asing
aren
provided
obs
board
themselves
##ators
figure
issue
base
america
wood
appropri
population
##temp
cath
##ourn
proper
aid
drink
reports
hall
mal
standard
parents
middle
huge
france
living
jul
instead
morning
table
section
##hib
charact
visitors
##ze
refer
democr
coming
roy
roman
worked
##ential
dead
##umb
reporting
ii
viol
flo
##den
village
mad
heart
industry
198
minutes
##uses
bir
chec
##use
poir
contract
above
intervent
sense
##fect
relig
poirot
##ique
evidence
key
##bert
attorn
tried
central
emerg
##ring
shr
##ik
norm
speak
recomm
late
friends
executive
##istic
means
cust
##icient
##ob
##isions
repl
rock
archit
labor
further
hope
common
fair
milit
opt
lawyers
expensive
bed
er
architect
experience
sett
questions
fif
##fact
##oring
economy
palace
vir
detail
##val
##aced
sold
##aged
struct
front
lake
brought
ask
received
11
perh
mrs
exactly
##ots
conn
influ
twenty
##epend
perhaps
##opped
purp
describ
ban
surpr
hands
13
entr
div
sex
jer
neg
journ
ens
avo
##let
##aign
##ledge
chall
leaders
hur
bush
ran
books
vo
field
ancient
campaign
scr
contrib
inside
100
funding
places
changed
destr
mot
third
lived
party
recent
opportun
trust
##ler
bon
independ
hotel
surr
weather
suff
happened
unf
##opping
##amb
foreign
##reme
gets
gone
reform
pict
allowed
style
completely
##ization
##ann
corpor
happy
fort
##ires
spend
##ss
event
rates
displ
egypt
break
mass
plans
green
district
square
##airs
neigh
son
saint
moment
washing
##ols
##gn
investment
germ
wide
kept
chap
hon
pan
drive
##oll
trou
piece
lower
span
words
mos
din
##ades
perfect
mer
##ai
##erous
julius
##isc
household
rid
epa
fire
jun
anim
designed
##iqu
james
exce
located
buildings
expected
attention
original
itself
applic
peace
express
decision
ways
##ores
created
decided
higher
request
seven
##imin
##urance
knowledge
##rupt
plant
acqu
chines
##ips
saying
dam
mother
following
prep
paid
##ites
chinese
##arch
##ky
##isl
necessary
unc
sav
military
##osp
geor
recently
washington
##iled
game
royal
hit
dog
culture
insp
trade
##lo
##issions
##eter
funds
batt
action
trees
custom
##estern
select
2000
princ
color
attack
pack
valley
moved
chance
clean
cop
stone
english
##osing
mess
taxes
groups
vot
##venue
prefer
princip
range
secret
seemed
sand
##ograph
lack
situation
##he
exam
soft
cat
legisl
intr
##med
broad
##ike
eat
whate
practices
whatever
spending
##ction
relations
gall
##ouch
education
##ns
item
prior
##olution
artic
bey
except
super
serious
fill
altern
surround
apart
##akes
swe
complex
gun
gree
comb
##apers
##ronic
shops
separ
spent
draw
##itely
scen
views
##ification
clients
fa
deep
included
doct
##lus
cold
creat
finally
##ios
##for
##ental
emb
lang
phys
countries
annual
ord
focus
ju
save
crow
training
character
##itten
##aught
##head
committ
credit
##thorp
western
##izing
medic
##hic
word
guy
benefit
engine
streets
##bur
prim
##ams
aver
force
growth
fell
mater
reported
##port
heav
paint
ingle
efforts
supposed
cause
corn
assistance
traditional
garden
##ims
card
laws
cele
##zz
islands
body
mich
provides
auditors
notice
##uries
mary
inglethorp
isra
impress
israel
retire
extr
former
died
##igr
##ource
slow
despite
cook
celebr
share
conduct
vers
prices
throughout
##xic
scul
beyond
##ises
wants
university
none
##ipment
quar
sculpt
wish
station
anyway
correct
##ded
tomb
additional
##hood
den
sant
##go
link
##oint
tourist
exhib
adj
dor
russ
paris
natural
document
older
feat
##aries
critical
ven
farm
increased
km
mach
various
##ware
remains
ti
##ana
pred
position
thinking
internet
##uary
manu
covered
dav
establish
narr
##idents
remain
blood
##oph
##ength
cand
nobody
initi
maintain
##ude
50
##arily
dark
society
dall
respect
reflect
equipment
subst
season
doub
instit
##ological
size
comment
sle
role
##set
interested
imag
manufact
myself
voice
bank
##oon
written
americans
indic
vote
emissions
dallas
destroy
tar
##itor
##uth
##vert
communic
langu
upon
demon
father
led
bab
gardens
page
china
running
##to
region
discover
shopping
##ights
##rec
crime
sad
##esh
below
di
wee
install
movies
answer
tourists
wealth
cross
patients
definitely
proced
everybody
increasing
spanish
lives
construction
quickly
deg
alone
##more
brown
##orr
round
wild
##iction
affect
fix
published
bay
rights
slate
origin
##ole
attemp
sites
mand
25
developed
##een
toward
inn
insurance
international
##ocks
hosp
japanese
regulatory
surv
##oses
accounting
continue
floor
glass
pleas
##oming
established
encour
entities
generally
evalu
goals
effects
tend
sky
rain
named
quiet
clim
##estic
phot
german
##ode
restr
certainly
horse
##egr
includes
##uments
weeks
largest
pull
earth
emergency
web
learn
opin
phil
leading
cit
dress
##xim
jes
##asons
##ift
choice
looks
consist
nature
bought
hol
cas
ign
##eal
##pect
volume
recommend
##ino
difference
##und
practice
cathed
absol
appropriate
##iff
lots
##ging
threat
susp
club
afford
authority
blue
mart
carry
average
##view
basis
##bers
##iate
investig
favorite
multip
indian
letter
internal
neighbor
relationship
officials
##iques
watching
walls
terms
drugs
ali
##ax
##ivity
trouble
##iest
senior
##olf
##leg
wrote
terrible
meeting
mic
##ux
integr
ur
reduce
wait
hotels
battle
hop
previous
events
fast
##ches
medical
mort
beaches
##ex
students
lad
tit
##sy
bye
absolute
stock
sens
lawyer
spot
guid
##aughter
sched
growing
families
offers
##scape
schools
skill
##ban
trip
197
space
whose
easily
excell
##uted
check
##ceed
louis
restaurants
sounds
##utions
agre
gate
mid
##yr
##pped
serve
ded
occur
##usal
##owers
##ables
safe
##iling
##enced
pieces
fash
perm
particularly
##ne
retirement
feet
regular
products
measure
individuals
managers
##astic
nearly
dut
##bed
achieve
fem
purch
rad
types
dang
##ining
helped
administration
rap
tom
cities
weap
colum
winter
path
##ustr
ensure
luck
treas
##idge
spl
master
flex
revenue
##sequ
somebody
frequ
##erved
prec
reli
levels
magn
film
killed
subm
1996
accomp
respond
savings
dave
##ici
simply
ess
payments
ball
stood
closed
cam
prevent
##erry
payment
jewish
immed
language
mention
fly
star
production
60
extreme
simple
##like
mountains
##asc
thirty
##wide
##ma
##onse
##iced
conv
knows
conserv
##ung
##dh
##aving
added
mist
##ara
smaller
steps
fashion
equal
christian
##iny
##ibly
mostly
committee
mis
display
items
response
##ively
effort
phone
excellent
196
decl
2001
connect
journal
##ls
##ck
playing
mission
actions
successful
george
sports
##ipped
hong
disp
stra
decor
operations
policies
##erve
##ones
india
religious
methods
host
obvious
beat
coll
rooms
40
david
gar
kong
##back
tower
fest
prison
##ster
sword
horr
##uit
accur
official
omb
magaz
kal
centuries
##room
yourself
industr
cloth
limited
structure
obtain
estimates
bott
##unt
participants
##usalem
jerusalem
fisc
##come
##uctions
challeng
truth
entertain
avoid
lat
ange
requires
ability
southern
box
vac
cars
passed
army
paying
ft
mix
inj
##ament
advert
reasons
media
cathedral
anymore
##teen
bes
##ira
##ulf
receive
spoke
catch
constant
newsp
giving
hans
served
nearby
beginning
discount
propos
track
spir
gives
##ask
commerc
judge
compl
believed
potential
alternative
fiscal
flor
setting
ver
estimate
environmental
castle
experi
property
##iar
independent
ready
calif
lay
##aters
##vey
##iring
adop
greek
goods
director
liber
##ground
guide
coff
article
sac
relative
ben
##ille
##anced
mountain
##iation
ut
currently
responsible
debt
capt
electric
je
buddh
sud
pun
stories
##aded
contains
##aud
points
county
##omb
sector
candid
reading
watched
raised
associated
demonstr
##wise
##ergy
purpose
absolutely
regulations
spring
##ornia
larger
republicans
##fort
##owing
shar
qual
empire
parts
married
band
las
charge
##eed
##ado
useful
interview
adjust
##change
ib
oil
expand
agreed
touch
multiple
confer
narrow
##lier
consum
eye
gi
born
hate
tele
italian
influence
hair
series
entrance
note
appl
variety
date
##oud
##asion
decisions
intervention
hanson
shop
politics
progress
cash
worse
stopped
forward
##icians
domestic
convers
greater
basic
critics
tast
exerc
northern
quarter
roll
providing
eastern
create
oppos
micr
##ners
therefore
amaz
liter
statements
daily
tick
billion
constit
source
##ula
citiz
##ety
analy
##chan
professional
grad
towards
fishing
##mon
weak
continued
##oted
directly
opportunity
sudden
rele
wear
##put
prin
assessment
kid
jobs
franc
spain
##eys
heavy
1999
resort
factors
sleep
##cil
swim
estimated
eth
##gas
warm
destroyed
gas
autom
animals
statement
wonderful
bono
talked
##nes
##icted
funny
activity
features
behav
discussed
##cl
thousands
##wood
rural
apply
##ously
brief
followed
jan
##umption
##wor
starting
##itz
existing
hang
offered
21
aug
majority
condition
mine
##ule
extra
rail
worry
500
cheap
reb
meant
straight
caught
jack
telev
opened
unless
prem
representation
loss
imposs
ended
clos
willing
sight
shot
thus
chief
association
attorney
pet
choose
categ
pil
##iers
spect
seeing
entity
enjoyed
route
games
european
california
treatment
introd
jesus
##ada
##ucing
efficient
paintings
procedures
los
nine
rent
##ael
claims
jama
lose
evening
writ
murder
##bb
disapp
england
##force
meaning
opinion
##ibilities
ahead
##ests
fresh
dub
##oes
##eth
chair
ul
listen
craft
eventually
##tions
frank
stores
sus
##week
attorneys
science
assets
1998
decre
played
affected
target
##itable
clock
##izes
hospital
ideas
match
distrib
separate
commercial
liked
firm
transport
##uing
##gin
march
##oft
##inct
violence
walking
energy
##ague
clearly
##ham
store
bridge
strategic
impossible
emper
grew
appar
reached
bord
electronic
aware
ken
rare
arab
compared
boat
sales
doctor
nap
##ena
search
##ulated
merc
shouldn
coffee
##oken
daughter
sor
minute
doubt
cav
##emp
##key
acquis
minor
minim
robert
standing
noted
apprec
##ps
##action
vegas
newsweek
gore
sitting
remained
defense
italy
rue
samp
##ander
originally
##antage
fol
trail
immigr
od
colon
theater
mel
wine
doro
surpl
bi
shown
evaluation
architecture
burn
dre
assum
risks
mexic
unit
positive
objectives
##tim
lew
location
software
corner
television
shall
protection
hurt
vide
regarding
feeling
testing
##inating
##inated
earlier
##ffic
compar
temples
cub
immedi
##kn
##reg
sund
cultural
sources
write
towns
##ca
police
easier
dod
hind
hyp
brother
dollar
limit
waiting
retr
fully
function
moving
immediately
##can
calls
nin
dram
holy
send
interventions
via
forg
parties
completed
jury
interior
identified
ride
thinks
numbers
controls
generation
##liance
initial
screening
amb
council
##itude
starr
conditions
##aped
values
camping
matters
identify
19th
oldest
statue
golf
homes
failed
thorn
thanks
relax
##azz
papers
##ifying
race
##ta
##ney
forced
##oles
##riage
picture
breat
##los
bron
july
martin
mall
##light
satis
member
baby
##ae
##onna
cool
restaurant
##dom
intended
prepared
wer
susan
die
##levant
implementation
birth
micros
extremely
##ago
stayed
draft
advoc
august
bow
grass
strange
symb
caused
flexibility
##mer
plants
saf
stew
compliance
explain
dedic
lunch
##antic
##acity
spee
arts
1997
neighborhood
engage
employee
painted
##iveness
uses
psy
tough
union
tall
##istics
##aza
##rid
##men
print
16th
bag
gain
comfort
##iel
filled
brand
survey
grantees
executives
il
client
suggested
records
dinner
rac
##iday
trib
offices
guard
writing
biggest
projects
routes
psych
cyn
counsel
clothes
dan
fat
responsibility
err
##burgh
weren
unlike
finance
determine
reduction
republican
fifty
##mber
##mos
overall
##ji
lie
incent
actual
monument
concerned
##ycle
performed
material
industrial
18th
thank
foundation
career
hills
##eless
instr
mir
stands
fasc
##ston
residents
17th
libr
importance
anti
commit
golden
otherwise
historical
welf
exchange
normal
welfare
processes
pictures
##oh
manufacturing
##ieval
discussion
et
wed
##unk
##centr
situ
greatest
powerful
pollution
microsoft
##pper
afric
highly
editor
feed
cow
rulem
recognized
201
eld
##da
anywhere
households
behavior
guys
yard
novel
guar
citizens
spread
willi
##ancy
gent
weight
prosp
housing
emperor
194
1995
senate
##ushed
conference
lux
interp
slight
kinds
revolution
cert
gather
repe
purs
learned
acquisition
##tered
cru
depend
cafe
changing
##iles
concentr
windows
hell
concept
medieval
conclus
accounts
competition
rulemaking
rise
##raid
lady
award
ton
unfortun
mortality
unique
alt
rand
theory
##erate
contact
imagine
van
##outh
##adem
vand
##af
understanding
fear
findings
capacity
technical
musl
machine
goal
##asts
hundreds
michael
substant
22
happens
##nie
plenty
advice
involve
chapel
nod
patter
trial
195
showed
guarant
##eria
busy
rose
##etic
boil
traffic
##ested
recip
appeal
virgin
bother
register
businesses
calc
profession
suppose
worst
wel
scient
##berg
abuse
unp
log
familiar
degree
oct
veget
magazine
##west
forces
june
##olic
strug
afraid
concerns
drinking
legislation
version
hors
##irt
##oking
artists
student
speaking
mosque
bul
election
described
##lig
##ba
sevent
merch
recommendations
exercise
shad
leadership
##otic
produced
bath
pic
##reh
circum
tun
cards
jane
tri
reduced
transfer
roof
factor
pleasant
##has
gotten
virt
cup
##sid
##endish
congressional
courts
founded
##rel
relevant
doz
mont
players
critic
opposite
defe
##aging
##ald
##using
hadn
younger
angeles
spirit
tree
##eries
##ocked
imper
status
##orrow
radio
leaving
loan
##ension
shoot
iron
neither
cavendish
##ris
chem
determined
ultim
amp
names
units
pool
strength
conflic
bare
##anch
lies
facilities
##gd
bell
lif
##ictions
schedule
tiny
##gu
##ender
keeping
burden
construct
mac
frame
##mas
skin
topic
bomb
hi
##gry
handle
totally
gallery
amazing
peak
twice
network
##abor
challenges
waste
flat
##place
reviews
democrats
inqu
##ulate
advantage
painting
forget
speech
library
song
##ented
helps
irish
inspect
dublin
##ket
sem
highest
produce
portug
arrived
fortun
##era
window
entertainment
##oo
##oked
adult
occup
freed
aspect
developing
steel
figures
leader
##idden
fighting
corporate
laugh
resident
differences
negative
online
users
organizational
presented
measures
rough
##ha
quant
##ologies
options
##inary
consult
finished
##inger
accountability
fit
##oned
dece
enem
gothic
planned
snow
rub
##ancing
announ
##amic
dangerous
##ties
##ortion
requirement
sam
repor
walked
scenar
##ctions
forth
glad
double
##ste
chic
believes
girls
faith
##ries
##ii
tea
decide
primary
magnific
##eyer
opportunities
dedicated
##apes
football
gd
##ini
##lex
concer
vehic
helping
jews
illeg
aim
buying
supply
hen
kar
mc
##erly
##agon
santa
weapons
era
vast
gh
convent
mob
depends
dad
mile
heat
conversation
vandem
rang
##equ
##well
edin
leads
selling
fairly
compon
monaster
numerous
profit
skills
mcc
spr
territ
reve
loved
funded
refused
victor
honor
vandemeyer
stated
resorts
aftern
surprised
massive
academ
##akers
indeed
earn
edinburgh
lines
##onom
tro
marble
stret
tests
##ront
apr
##house
jamaica
bou
cio
crim
rob
rena
medicare
guidance
ira
bob
governments
reductions
responsibilities
carri
restored
markets
coverage
challen
shut
penal
illustr
##nam
conqu
finding
visited
observ
slaves
gdp
length
##unte
cab
hearing
driving
productivity
corporation
engineering
furn
##gs
##ida
##incol
satur
horses
ou
##nel
pra
examples
volunte
accepted
##do
##adel
carp
conducted
jump
recon
desert
##issance
weekend
firms
models
forms
task
perman
manager
cart
cell
der
sept
lincol
mat
seek
carved
elig
holly
impressive
row
##yl
holding
suddenly
renaissance
uns
surrounding
slowly
meat
smiled
raise
crowd
photograph
relatively
mere
herself
##enses
breath
##tom
fellow
decline
title
sunday
##ette
##sec
##ayed
centre
confir
gal
stup
owned
wit
bure
please
apparently
##ession
marriage
improved
distance
principles
circumst
documents
##arian
asking
compreh
##ardship
entirely
festival
tools
##icks
hasn
somewhere
returned
noticed
scott
fgd
extent
sorry
lincoln
##ett
manner
grown
provid
consistent
##ita
gradu
apartment
vacation
fan
##uk
enh
defic
climb
moral
physical
criminal
scand
stake
eleg
##hab
pia
##uous
##bon
##aming
brad
conclud
addressed
april
lic
carter
madeira
statues
reasonable
##ulous
counter
techniques
##iated
realize
irs
managed
ol
shel
worried
facility
patient
swimming
whom
consequ
challenge
rome
advent
bright
broke
192
malays
william
piazz
dish
retain
text
audits
harbor
mechan
dropped
approved
agreement
movement
details
##gen
compr
1990
tours
##insky
cuts
agric
smart
elimin
bureau
24
ine
##iture
remark
advis
telling
sufficient
selection
unfortunately
agricult
lond
##hi
##othing
monica
fourth
magic
spectac
aust
pm
saved
queen
instance
silver
ice
nurs
waters
stage
attractions
##ais
##time
becoming
screen
flowers
effectively
message
fixed
nodded
mond
sar
##ford
strategy
##cer
ship
boys
##stein
magnificent
cry
pover
pointed
museums
damage
haw
conver
scene
symp
nav
193
runs
explan
attractive
mas
neat
fraud
basically
argument
surrounded
punish
london
scot
owner
speed
sister
maxim
lawn
chapter
iv
##amble
kingdom
dism
emphas
oblig
elements
video
fal
##ding
##holders
##exp
afternoon
bound
boring
kitch
##50
stick
resist
negot
safety
##itation
##encies
##iously
advertising
freedom
poverty
drop
issued
sections
religion
##ois
isl
##ulations
interests
##ashed
2002
sharp
ber
##atically
##enn
boats
block
defend
attempt
innov
##aked
coal
memor
lakes
##itors
seat
##ipt
##iption
300
##eness
proceed
plain
amend
subsid
putting
##phere
por
click
conservative
##com
orient
bull
letters
proposal
rat
provisions
communities
encourage
hollywood
dyn
female
constitution
gamb
pill
##oom
overs
explained
succeed
rennie
shrine
aliens
##what
customers
##iciency
january
leather
##aret
computers
alive
centers
improvement
##ils
picked
depos
direction
archae
historic
russian
border
carried
replace
##off
##ville
placed
processing
upper
##pm
##izz
pressure
discovered
alex
##tery
aband
somewhat
millions
approxim
specifically
gay
unable
increases
reliability
bottom
bod
##eration
adequ
##iza
skies
newspaper
##icip
likes
##ght
owners
forest
belong
column
mouth
vice
##east
howard
scale
supreme
russia
divers
storm
outc
reput
decades
publish
duty
##rence
##iy
plus
upset
dry
balance
electricity
edge
vari
splend
##pie
dole
champ
fee
typically
eighty
##nic
tru
presence
##while
illegal
sather
harm
focused
craz
employment
gonna
landscape
friendly
madrid
september
piazza
cable
loans
guil
2a
##mar
enforce
##elve
fees
detailed
background
reviewed
occasion
ought
male
sick
wil
##hs
##agan
shook
applied
intel
fired
entered
regardless
dance
experienced
##oved
##iment
sharing
content
experts
privacy
application
fascinating
##water
wearing
teams
perfectly
esc
##ched
anse
accident
explore
protest
ath
shape
##wards
##bit
##ero
onto
defined
audience
churches
roads
strategies
hat
disag
smith
reducing
contributions
80
cave
kent
##awn
bars
operating
##orpor
appeared
##mosphere
pound
classical
christmas
predict
contemp
anybody
loud
##gment
##ico
proud
atmosphere
##elines
realized
materials
initiative
taste
##owned
clin
wooden
initiatives
gates
##ober
##itative
webs
schol
artist
salt
missed
secretary
thick
##orary
strict
recover
incentives
october
witness
##antly
supported
awful
##thia
alloc
active
underst
delight
native
va
whe
democratic
##aints
launch
regional
belief
penins
napole
pyr
sult
tired
broken
honest
mentioned
ny
##alia
##imp
expend
consumption
##iverse
baseball
sexual
besides
forgot
criteria
debate
urban
stewardship
guilty
gang
ash
conven
chann
incorpor
##road
happening
learning
columns
surpluses
hom
##apt
chicago
27
ba
pray
dise
##igned
phase
##scr
limits
villages
eating
tel
worksh
courty
charles
cynthia
interpret
ky
carefully
guns
pulled
symbol
random
hide
##aled
technologies
collections
##umptions
teleph
cris
finish
##ship
brill
purposes
adopted
circumstances
scotland
trading
package
##lying
command
transform
reject
prime
reality
valid
emot
outcomes
ot
ox
##ses
##ilit
bigger
decorated
wing
##lers
byz
clothing
expert
possibly
extensive
grounds
bond
cere
##han
##okes
controll
facts
hardly
buried
sculpture
spectacular
bau
fought
##lies
aside
acid
offering
recyc
selected
copy
paul
distinct
obviously
oce
overse
contained
closer
hindu
hers
beauty
absor
soldiers
communication
byzant
cats
dig
##pa
atl
##umes
formal
richard
connection
assumptions
yester
comfortable
imperial
kings
sides
functions
yesterday
bust
code
delic
##acts
governor
1994
recognize
monday
##tress
grants
decade
empty
convin
##ari
hole
advance
meetings
independence
elderly
##hen
stars
fool
##others
ideal
peninsula
##iance
calling
vision
barb
calm
superv
permanent
truly
##ef
unus
depict
directors
implemented
option
motiv
primarily
treasury
slightly
os
fewer
image
comprehensive
##ivals
##aker
statewide
allowances
arms
dogs
##heim
creating
eag
fab
hire
##alls
hunt
surf
detect
visiting
allows
doctors
elegant
70
expos
everywhere
barg
portion
teen
appoint
preamble
parks
organized
readers
explor
alien
horrible
bout
##uts
coord
percentage
ibiza
mexico
napoleon
rum
plaza
hero
##ateau
compens
diss
produc
effectiveness
egyptian
notes
plays
assume
league
gross
mainten
medicine
appreciate
lewinsky
##ares
reputation
vren
covers
catholic
surprising
frequently
vrenna
##oto
##anged
tourism
eligible
approximately
intellect
nom
##sa
##itals
attend
dust
leaves
discip
wars
improvements
kentuck
##essed
cliff
##actions
depress
turning
teacher
customer
chemical
confidence
purchase
accomplish
crazy
ah
rh
chronic
##acing
crus
relief
subsequ
showing
delivered
departments
devoted
guidelines
upd
administrative
tickets
transportation
mercury
##lets
hey
##aka
committed
##uable
##dy
##hal
##ertain
##illy
append
uncertain
orders
accurate
dramatic
vary
ww
ped
forb
sport
carol
join
displays
doors
sov
twelve
poison
lawrence
journey
motor
feature
perspect
britain
professor
retrof
syn
15th
holds
solution
crafts
scandal
es
crimes
revol
protected
fifteen
13th
released
ocean
fant
tons
partners
previously
26
90
##cious
representatives
maintenance
##icial
jewel
expectations
litig
catal
lucky
##ox
shore
nep
implic
approval
oversight
tent
coop
typical
significantly
voters
institution
##irts
chose
scared
remind
jones
31
smell
cutting
gods
victims
surprise
schedul
peter
##entially
##lls
stuck
##erson
controver
confident
##ellig
sultan
gift
tor
##ixon
amounts
submitted
candidates
astr
pages
soph
scenes
weapon
rebu
bradley
signs
facade
franklin
##greg
##how
##urb
mans
smoke
iii
replaced
banks
bunch
##lled
politicians
vent
throw
possibility
achieved
ordered
latest
henry
iraq
comed
resol
affairs
expression
splendid
33
cig
caves
thor
lift
nox
upst
columb
invent
##text
continues
23
jim
kos
##lines
##nis
##osen
careful
glob
##book
fields
animal
jail
becomes
intellig
artif
tested
recommended
liberal
kenned
troops
kir
##aling
arc
##astr
appears
##front
##here
alf
cried
efficiency
poland
failure
philos
courtyard
##uration
angry
complic
florida
ec
sab
viet
forty
##ola
##acted
tells
rapid
pilgr
losing
nations
##omas
bear
coach
satisf
tub
ug
stations
##ura
##usion
spons
plat
helpful
##ifications
nixon
riding
forever
moon
opera
replied
describes
newspapers
saturday
lord
whitting
suit
stroll
bird
essential
om
##kish
proven
knowing
ends
supporting
silence
dating
##itan
terror
virginia
appendix
cet
##fo
turns
volcan
institute
sale
##rees
excess
albert
crack
depending
testim
solid
residential
fans
fda
##ipping
whittington
hidden
##agas
corrupt
portra
falling
ignored
monastery
escape
ga
##outs
ages
basket
stream
temper
bills
exclus
domin
divor
giant
tonight
##asty
gray
summary
cheaper
##kyo
tomorrow
frequent
sample
territory
penalty
auditor
projected
suspic
candidate
##fa
friday
opening
presidential
assumed
crisis
##arts
improp
sentence
sensitive
sacr
literature
oz
laid
definition
december
##bby
investments
treated
exhibits
##gers
clo
monit
greatly
investors
competitive
substantial
punishment
thorough
##cas
tokyo
fuel
minimum
dream
daniel
##agger
studied
represented
sadd
##isted
1993
##raw
medit
keeps
raising
bronze
##ota
whis
brain
visits
##azar
colorado
##going
mistake
##works
railway
odd
conflict
stupid
##aven
myst
expressed
voting
wealthy
accompan
##cing
discr
silent
14th
avoided
sacred
exposure
fortress
##amber
resource
regulation
officers
positions
germany
understood
kick
contrast
severe
largely
attraction
shadow
pock
##pay
##illed
trend
ruins
signed
promot
films
participate
aspects
##bles
##esco
improving
turkish
shoes
scottish
providers
ble
hated
pc
util
##iber
blade
joined
arrange
argue
observed
stared
flood
begun
ceiling
##box
remaining
intellectual
##ingu
expenses
johnson
dozen
constructed
reporters
pyram
pig
##inent
cruc
##ached
slim
ski
mainly
collected
bauer
kil
pond
##ona
##abilities
harder
attrib
occurred
ire
push
sulf
tight
highway
suggests
memory
normally
uncle
ottom
global
##wan
thoughts
valuable
heads
admitted
elsewhere
sugar
##employ
cu
chain
serves
minister
reference
entry
distribution
chest
neighb
artifacts
##life
incred
considering
victory
consumer
welcome
mut
nic
stri
legend
facing
necessarily
structures
dim
##load
thomas
stamp
weir
asian
enth
worker
marked
settlement
francis
gor
tig
theat
##sey
anton
prosec
whenever
quit
destination
peaceful
prepare
ultimately
lately
veter
unemploy
monet
birds
folks
nile
##point
overlo
##encing
indians
visibility
##bell
ridic
pier
##ias
so2
equally
johnny
officer
writer
boulev
cin
##isms
feels
breed
scholars
28
##aic
inner
guided
##ogue
occas
ireland
ferry
les
prove
##ishing
drawn
strip
hunting
disease
powers
communications
35
dates
luc
brings
framework
nursing
telephone
deem
clar
ozone
bork
##my
youth
fruit
##iform
handed
creation
survive
carrying
boss
hy
seeking
accomm
transition
involving
increasingly
barely
gambling
accommod
kath
taught
vul
##mark
pride
finest
preserved
player
sixty
celebrated
##aver
teaching
sweet
investigation
decrease
derry
##inations
##oys
flower
evolution
personnel
surely
exhibit
pleasure
reliable
commitment
usual
colors
admit
facilit
combination
categories
furniture
kennedy
user
monuments
##uese
faced
harv
##anean
democracy
improper
interim
scar
flow
steep
romans
styles
violent
repeated
portuguese
gp
pad
tob
shif
gran
principle
examined
seriously
maryland
bor
ring
##bel
input
intent
elections
rising
2010
earned
##attered
listening
exceed
soviet
##aken
202
claimed
rarely
testimony
asia
output
cro
warri
disappoint
cuba
element
##12
ours
emission
articles
restrictions
immigration
prospect
desk
serving
estate
documentation
cod
pac
rocks
##met
stable
sole
driven
buff
poet
phar
requests
expanded
unusual
jac
math
pure
##estone
worship
parli
publication
measured
legislative
innoc
beside
##aining
alb
alle
staying
choices
winds
sculptures
muslim
weird
bol
##ja
rein
stead
unkn
exciting
begins
enforcement
carolina
wore
chick
scary
promote
lovely
links
earthqu
malaysia
kr
lying
##obe
##cast
context
sust
lee
##aks
attest
economics
faces
dial
ment
##verse
spell
residence
winning
implementing
bringing
accuracy
adults
ske
##nn
chateau
orn
marg
attitude
1992
##board
characters
fifth
weakness
remarkable
abandoned
##case
##oster
outl
outcome
shoulder
finn
joint
palest
classes
listed
panel
core
kore
stair
sets
excited
turkey
settle
category
stakeholders
cazar
fer
latter
pow
wid
##right
reward
assass
applicable
masterpie
www
29
aer
outdo
graph
branch
deser
##oupe
successfully
judges
consideration
tombs
disagree
gau
ramp
##standing
approaches
unknown
fount
uniform
affair
anticip
galleries
priority
75
dome
proved
##ensity
metal
excuse
settled
dining
clubs
writers
comparison
scenario
mccain
merely
pink
##town
grace
modest
applications
superb
venet
parliament
tap
##rad
##uze
reven
##anta
scope
musee
##pan
##fast
##otyp
shared
writes
locals
mailers
remembered
attacks
cooking
precise
stretch
mental
tues
##icing
shift
orange
febr
sulfur
february
##cend
##acco
stress
##ensus
smile
##resp
##ternal
natalia
judgment
cous
##iant
enorm
expense
carib
farther
combined
heavily
buddhist
disappear
##gl
reagan
finds
basil
analyses
contracts
kyoto
ugly
##cel
##ushing
formed
practical
healthy
folk
bodies
perspective
mediterr
ae
##pro
##ulating
mayor
charming
20th
hoping
regularly
tab
desire
charged
scientific
explanation
mediterranean
dar
##aff
ther
##thy
leon
##ipe
causes
portr
towers
copies
ordinary
coc
wages
toxic
ships
##ologists
responses
situated
altar
400
shaped
conce
##orted
somehow
persons
classic
arrive
handsome
byzantine
faster
##ano
##imate
meal
aci
##ache
financing
split
ticket
alfred
gop
tan
tip
disaster
privile
researchers
12th
michel
hawai
00
32
bio
gains
hud
pir
##semb
repr
disney
##ographic
kl
nur
##acks
souven
charges
opposed
generations
greuze
crowded
africa
pitch
##ream
##estr
awards
##know
adequate
migr
tone
integrity
fing
##fit
##ading
abortion
smoking
removed
supplement
switch
sanct
150
survived
consequences
erect
file
##ker
inhab
##urers
fresco
canal
crimin
countrys
tennis
answered
sandy
climate
tobacco
ain
avenue
sought
##ki
##itures
ham
acts
authent
properly
bedroom
characteristics
boilerm
recipients
##rit
##lla
sum
noise
##ecess
consol
resulting
suffered
struggle
website
philosoph
ottoman
souvenir
countryside
cios
pit
thin
dear
renov
##annon
##burg
components
recycling
wise
##oir
##ora
marks
puts
degrees
concerning
roles
plastic
acknow
participation
encouraged
conclusion
agricultural
cum
lined
##ato
prud
hung
capture
strugg
hired
pace
torn
##ante
##ensions
asset
species
statistics
division
suspect
conclusions
patterns
announced
dismiss
map
##esque
withd
spin
operation
##rupted
physicians
situations
channel
wound
prohib
##istical
retired
addresses
installation
kitchen
pair
sits
##ician
##illes
trips
brick
##iana
remar
instru
allowing
explo
infr
boulevard
cnn
##rich
tail
yours
assumption
blame
invasion
economists
prompt
managing
venice
chairman
##ansas
annually
##whel
falls
latin
triump
inland
stad
mah
recall
palazz
cream
demands
relationships
danger
introduced
satisfact
volunteer
gpra
instruments
rice
##rant
##oque
disclos
electron
existence
eleph
requested
embr
establishing
dutch
vietnam
basketball
##yle
##bi
##zy
aggress
191
accused
prescr
elabor
eleven
archaeological
occasionally
stab
imposing
##aved
blank
employers
blacks
appearance
principal
photo
colonial
ter
##oly
trained
boards
egg
pollut
authentic
lind
roc
auditing
ruled
traveling
inspired
analyz
enthus
##ka
##ller
##iguration
##imination
##ucture
smo
flight
stepped
periods
nepal
cinem
dol
jord
forum
yellow
recru
divided
error
expenditures
##ania
##ingly
chamber
##quar
myster
grab
taxpay
killing
description
teachers
vulner
tuesday
infrastr
rig
##ima
receiving
describe
experiences
muslims
diversity
cair
dancing
##omed
##urally
neck
phr
elected
extended
compensation
bat
tool
##aders
##bey
traum
treaty
examine
committees
defeat
bos
##gar
impe
flag
raj
cheer
achieving
fault
installed
quietly
vegetables
complicated
vic
ongoing
nove
monarch
involves
images
apartments
opinions
bags
enhance
monitoring
dip
rode
##eing
weigh
compare
capable
starts
transl
buddha
release
engagement
african
##aa
##ighter
conscious
performing
representative
discovery
declined
gig
gagas
rot
vital
trop
grave
partner
strike
caf
##ception
limestone
contribute
breakfast
hospitals
captured
stadium
##ully
##etr
priest
exemp
evil
taxi
musical
festivals
sleeping
pattern
kosov
criminals
600
##adays
overwhel
nowadays
resulted
##aimed
wednes
enemies
vehicle
jewelry
##gia
##bre
height
represents
machines
permit
joy
wage
##la
##uits
downtown
baroque
sunset
obser
premature
cabin
controlled
gaz
hes
##kins
performances
nonf
answers
holiday
sophistic
36
reserve
designs
continuing
puert
inquir
islamic
##erce
stairs
exists
everyday
passing
objects
widely
alternatives
ethnic
wet
thurs
isol
##owed
heaven
unl
courses
curious
lively
colorful
examination
cruise
professionals
cigaret
cuis
bread
dil
pine
vs
##gate
gosh
repair
drag
buchan
explains
preferred
amendment
inexp
stark
shout
##ifies
advanced
burned
attestation
jose
sau
##iot
projections
##lining
pocket
cycle
pul
anth
weekends
securities
romantic
identity
prince
enemy
yield
guadel
boom
profits
crowds
upstairs
unemployment
cairo
thro
##chal
expans
driver
##roll
weekly
jordan
fena
##riend
paperwork
##apped
drawing
declared
##tic
##coming
##kin
##his
##irm
drove
nowhere
regions
charl
barri
employer
swung
dealing
universal
guadeloupe
##ij
##tan
##keep
instances
farmers
consumers
subsequent
astronom
theatre
buchanan
lev
190
lav
morris
oppon
architectural
ibm
pour
rene
tin
##pping
directed
dorcas
conservatives
mixed
bowl
cowb
karf
sights
##oons
tech
visible
implications
ax
##ester
##vered
##opes
sew
commerce
waited
pottery
referred
contribution
treasures
deficit
alexander
enormous
##itage
##ighth
##enda
mini
metric
lessons
northwest
accordance
solic
accessible
corps
educational
israeli
constantly
proposals
chicken
ast
jur
##ull
##ouses
quiz
blind
plano
missing
returns
reforms
indiana
surplus
litigation
bour
sna
##yard
shirt
pope
headed
##idding
vehicles
forgotten
##stone
aggreg
struck
cents
delay
landsc
statut
integrated
interpretation
november
pp
canada
unw
uncon
ads
viewed
impression
infrastructure
dun
nit
nerv
pin
##fl
##oration
chosen
manual
nov
remote
palais
southwest
burning
pleased
denied
linked
mandatory
ridiculous
45
diverse
nuc
##inian
##gean
flav
##seless
requiring
simpl
feelings
##awa
protoc
magazines
obtained
lewis
concluded
converted
convenient
smooth
nucle
55
##iors
##usted
abbey
homeland
fingers
wednesday
rival
##ko
##atoes
ang
seed
plot
monop
highlight
supports
statistical
exclud
promise
cousin
groc
operate
terrace
recognition
neighbors
cant
rational
##comm
##oral
stops
frag
tran
unh
corresp
agreements
considerable
casual
oriented
kentucky
correspond
dict
hamm
##ques
topics
passion
##attle
closely
adjustment
analyst
editorial
dynasty
bench
wow
##tle
##gy
##anes
##urd
nose
bro
locations
1990s
epis
distingu
maintained
dressed
carrier
wheel
aegean
statutory
aven
bible
pushed
prize
ate
##acious
##ibe
##ipts
heritage
##ubs
funchal
seconds
encoun
ineff
rams
##erity
##aine
loves
acting
##rogen
blow
acceptable
consolid
vine
##iration
chamb
trick
myth
drunk
visitor
christians
swords
jackson
immigrants
naz
##uge
##uting
wash
seas
##abled
##active
##agn
ceo
coastal
ignore
95
dir
hou
##ien
##rep
blocks
handling
189
figured
traveled
evaluate
##under
hoped
ninet
##inate
##cher
##ocking
crown
##raft
personally
walks
recorded
corporations
rod
##oves
##oma
frustr
riders
mirr
gathered
license
surface
rivers
##night
##wa
orch
##agues
187
186
beautifully
malay
gained
##ya
truck
lean
craw
##bean
popularity
entering
involvement
memorial
hersheim
hersheimmer
tape
wolf
##llo
##illing
liqu
exotic
unn
sail
housed
authorities
destruction
substance
purchased
platform
earthquake
mun
##itated
rely
##the
assemb
shil
discour
edward
northeast
unlikely
laughed
##stream
##ifice
lock
statute
optim
collabor
ninety
merchant
antonio
borr
ly
pizz
##uine
##onald
external
grade
guests
locked
##hips
duke
component
deficits
cater
dat
##lied
##anda
lands
salary
murd
christianity
hanging
spiritual
carpet
dame
fert
gif
##rah
##asp
##une
strang
designated
##lessly
breaking
methodology
hillary
addressing
similarly
advocates
luxury
tu
tables
##orca
##acc
##troll
##agers
##aws
determining
austral
false
pounds
divorce
erected
impeach
houston
pays
appe
airport
passage
filed
fallen
granted
dull
unfair
injured
trails
##lor
##bul
##iano
planet
comprom
innovative
boutiques
kirby
caribbean
dirty
fiction
##days
guides
mons
entit
employed
transactions
badly
nato
nonpro
##inois
qualified
cete
striking
frescoes
800
cos
jazz
till
haz
shannon
reserv
theme
steven
initially
victim
drawings
shiloh
jr
ow
rit
pla
##iptions
annoy
villa
pilgrims
bern
finger
##rig
##kers
##alf
##amental
sheep
crose
crash
newly
##ubb
stry
parent
adding
argued
illinois
relaxed
scenarios
lam
##gged
##essions
##uns
secure
swing
grande
mexican
martinique
virtually
album
basilica
elaborate
ram
##bar
##field
inher
##omach
shell
imposed
captain
##iox
objective
confirmed
controvers
strychn
cot
cel
diox
lin
##ria
##fall
threw
unified
##aki
studying
handled
retail
covering
iran
shrines
settings
indicated
discounts
rejected
fright
loy
subscr
humans
beneath
authorized
inflation
exception
mobile
thursday
chambers
diving
na
##isk
beer
##oli
shock
##osition
noble
offset
drivers
pools
flour
palaces
coastline
strychnine
fcc
wt
zero
##organ
sequ
orth
trends
monte
talent
summar
ensuring
voted
broadcast
minority
gentlem
nurse
palazzo
kosovo
density
##aust
##tes
##any
##rete
##isters
hav
sees
##ava
presents
soul
pund
multi
recommendation
demonstration
convinced
portrait
##enz
##che
cha
decent
subur
dealers
influenced
hypoth
instrument
maximum
whisp
##inity
proof
##iva
##ipa
incident
parad
remove
provision
topham
apolog
volunt
hitler
juan
seventy
roughly
rebuilt
sons
##uls
supplies
administer
errors
venetian
dioxide
habit
##aux
schem
plane
fundamental
nights
equival
maintaining
guarantee
academic
reprod
cyc
dying
gap
oak
##inos
##ills
##acle
spear
recre
throne
para
informed
letting
defeated
songs
praise
explorer
innocent
outdoor
wol
##war
##bour
chees
suic
creative
trauma
ramses
ls
mit
useless
##xual
##isons
##idays
deals
outs
undert
excav
routine
injury
carriers
delightful
dies
mwe
rab
##odox
alab
##00s
assurance
speaker
superior
indicate
ultimate
portugal
veterans
##lined
##zen
stor
hast
solve
illness
1980s
damaged
impressed
responded
nervous
attempts
instruct
lis
assert
accountable
monthly
appropriations
hiking
confirm
ritual
##eas
trials
##eling
unre
resem
indig
warning
surg
define
clever
mainland
profile
significance
greece
concentration
negoti
discrimination
tropical
controversial
##vings
anx
donations
agenda
monks
reluct
arrested
exhibition
satisfaction
horn
lod
##ym
##orous
alleg
cans
belt
valuation
milk
travelers
priorities
sculpted
puerto
lag
pump
pont
##sters
exposed
genuine
talks
delhi
godd
connected
picturesque
fortune
ell
##iro
nema
meanwhile
edition
assessing
flying
verd
earnings
renew
##cy
sticks
##ardo
paral
factory
deaths
lifest
weaknesses
bost
dup
elev
fond
fancy
##esis
##orter
reaction
prepar
cares
ourselves
retreat
advertise
merchants
lifet
resistance
aic
legit
joke
prototyp
excurs
demanded
florence
interviews
premium
wtp
boston
hiring
toler
##urred
assigned
depth
1991
authors
identifying
difficulty
administrator
hopes
observation
contemporary
bauerstein
facilitate
boris
sauce
datab
az
##stit
##oda
outstanding
phen
globe
southeast
focuses
subjects
emphasis
crucial
aerob
goddess
bh
pist
zoo
##orious
stal
notre
##illa
##istent
##oker
obsc
diam
immediate
rust
##gage
##jo
##otes
actor
accum
indo
relating
wondered
reaching
suffer
occasional
cowboys
37
gest
##zes
##ales
temporary
acquired
embarr
rapier
jeff
concerts
ghost
inev
cryst
supervis
cuisine
aicpa
mothers
tort
wire
##pe
spoken
##quis
perth
carvings
assign
monitor
evol
transaction
steve
availability
horror
bathroom
shelter
embarrass
hint
##ala
##ider
refuge
marketing
attacked
establishment
institutions
permitted
femin
etc
certification
pyramid
##avery
nitrogen
nuclear
auction
hars
mild
pupp
##mir
##erable
##ican
##amics
unexp
agents
crop
colony
discusses
assistant
checked
neglect
customs
dozens
bureaucr
comedy
revenues
triumph
fulf
tas
##atures
##lling
##char
##ems
simon
productive
confused
cliffs
enthusi
expansion
##rison
##ih
##40
##olitan
##eck
marry
lasted
mandates
journalists
injuries
automated
expertise
rapidly
bic
lu
tie
##ads
##udes
deserve
##erman
experiment
patr
treasure
adopt
wedding
fabric
cotton
loyal
cock
nh
stomach
##opher
yep
alike
##ucks
medica
economically
refers
greet
strongly
displayed
launched
biograph
paragraph
gulf
mam
naked
ves
##lights
##mony
abroad
apple
armed
cultures
dominated
woods
installations
rolling
derived
fantastic
protocols
nonprofit
foster
##oric
reign
fox
coron
concrete
transm
allowance
enjoys
sixth
device
submit
atlanta
cataly
fountain
##10
bears
forec
##licit
##angelo
attended
simulation
hardware
patron
boxes
utter
acknowled
pizza
medicaid
wan
##ault
beard
hamp
prest
chatter
##eline
reflected
paths
sympath
ceremony
prosecut
pent
##ture
shade
trash
lobby
invited
personality
balanced
pilot
monetary
##oul
##olate
conrad
outr
promen
wondering
competitors
regarded
sensit
pharao
ornate
throat
cott
rush
##mand
tok
##ashing
stones
alley
peas
##avag
contrary
##athers
restoration
admission
naturally
poorly
absence
guaranteed
retrofits
columbus
honey
suits
exha
score
pregn
moor
populations
barr
reader
promised
silk
granite
gear
##lord
##oning
##areness
##osh
straw
marvel
palm
circus
banned
motion
holoc
measurement
springs
orthodox
ceter
##ped
reorgan
chin
##ails
exploring
arches
encl
civilization
indicates
camera
quarterback
dependent
transferred
constitutional
surprisingly
holocaust
lion
pushing
##bound
inject
twin
caps
##ologist
proph
behalf
compete
deeply
extraord
reporter
brilliant
65
pomp
##oms
stun
stained
resolution
whereas
legs
awareness
circular
suffering
dramatically
feedback
macau
announce
aimed
eliminate
mystery
steady
impeachment
lifetime
unexpected
39
fate
##iences
anger
seats
acres
quint
communist
enjoyable
files
expecting
rocky
industries
overseas
depression
masterpiece
phrase
nineteen
nipa
pap
pitt
pension
##aire
##mo
conj
lips
arth
intake
poly
visa
soccer
affirm
supposedly
volcanic
staircase
prudie
wave
##vre
##istry
recycle
boost
fled
metrop
listened
antiques
fashioned
touched
princes
racial
agriculture
42
hip
ic
nich
riv
infer
butter
##apse
##eled
ohio
minded
1989
jungle
quarters
jumped
scheduled
warriors
michelangelo
aerobics
harsh
pav
##lom
##bl
timely
##aches
traditionally
drinks
fashionable
1960s
incentive
sophisticated
bike
baza
cage
##hor
istan
##irable
##imental
procl
grin
brothers
workforce
mines
refres
couples
##onym
romanesque
crossed
adjusted
bombing
inspection
victorian
philosophy
hub
ry
rides
##iable
##bits
##ongh
fro
unin
##ager
serb
buc
commem
solutions
panor
threatened
gateway
occupied
academy
osaka
institutional
01
##olis
##istan
usa
ruined
engaged
##elled
wake
prominent
integration
##ylv
bargain
intelligence
jacob
withdraw
700
dot
vig
##fish
preced
crete
generate
patri
casino
subsidy
disclosure
suicide
##mandu
dirt
tied
##bc
theaters
stall
shield
capita
enterpr
engagements
revealed
cem
betr
scout
mood
slavery
networks
troub
sweep
versa
peaks
hawaii
bree
hatch
vend
##isan
##ieur
spo
descend
arrest
colleagues
suggestions
penns
credibility
1980
introduction
prayer
kathmandu
joseph
unnecess
pennsylv
99
aqu
rico
ties
##ga
##vas
##cho
comply
producing
publicly
##ugged
campus
terminal
districts
qualitative
prosperity
reconstr
bonds
inquiry
hc
##hem
##igan
comptroll
wanting
carbon
evident
classified
trem
discussions
argent
hungry
celebrate
bottle
opposition
advocacy
tribes
graduate
islam
eager
hcfa
fet
tact
wines
##aics
##ederal
##omo
shiva
gov
proc
worn
editors
headquar
2005
transpar
turks
membership
holidays
utility
neighborhoods
succeeded
strictly
produces
monopoly
tut
tack
##mother
##idable
##oped
neut
exquis
##uscan
##aping
brut
loose
helms
texan
assessments
hurry
breaks
targets
francisco
analysts
sending
##fare
##inction
libert
##lands
deliber
beneficial
varied
ruling
seaf
planted
battles
reflects
demonstrated
clinical
updated
pacific
alleged
pennsylvania
cree
gand
kiss
sate
##hand
##orters
##itarian
choc
traged
soil
cancer
aged
persu
currency
arranged
winner
120
modeling
devast
hearings
evaluations
prisoner
beliefs
precisely
appeals
59
cited
oly
exit
abc
leaf
##umin
interrupted
invaded
joe
moderate
instinct
revised
rulers
fleet
soldier
germans
essentially
tracks
adventure
incorporated
bart
rating
##cul
whip
knife
##endous
##osexual
188
engineers
losses
scientists
boilermakers
havana
phenom
48
wick
##uel
clou
publications
porto
##ippers
renowned
scrut
##look
attempted
mandate
meaningful
2020
inhabit
istanbul
olymp
97
ak
bib
dc
dud
ferr
##ader
##ouri
moreover
thrown
costly
sinai
arrival
promul
lights
ancest
contractor
campaigns
rider
procedure
restrict
naples
saddam
diplom
cheese
mud
##craft
##mond
##down
##rets
spots
explicit
buck
shoulders
colored
owns
payroll
profitable
generated
##engers
presentation
recording
##iciencies
princess
gentle
quantitative
convince
skept
overwhelming
monsieur
lifestyle
lists
pork
zone
forests
sailing
impose
barnes
passes
lowest
sounded
referral
references
norman
photos
challenging
demonstrate
appointed
satisfied
kle
wool
##vic
prol
unr
cloud
crops
intention
underground
polish
directions
acceptance
mosaics
affects
precious
garb
boiler
athlet
sacrifice
pirates
hiding
lau
vba
##iner
##urning
asks
notion
alter
universe
hook
charm
antique
balear
distributed
repeat
crystal
comptroller
satell
gsa
##makers
fred
tries
meals
commod
passengers
engineer
mansion
aggregate
headquarters
47
49
dense
hates
##pir
relic
notable
chances
trump
partly
actors
homeless
180
receives
representing
stronger
checks
11th
formerly
bankrupt
evaluating
jean
decreased
bias
amendments
harvard
disappointed
chatterbox
43
dumb
dwell
tapes
##oe
##gian
##arm
brid
feas
marine
wrest
warned
causing
medium
balcon
floors
expanding
bullet
sponsored
cy
census
dump
fake
sic
tends
xiv
##ni
##yards
stan
org
outlook
brows
moors
buses
slave
horiz
stephen
circle
assuming
ceremon
uncertainty
skiing
##pit
deer
ark
compound
braz
flash
warn
grey
questioned
worthy
creatures
suspected
dreams
conventional
conquered
ratio
bustling
sanctuary
paradise
sensitivity
nar
##ching
##abeth
teeth
##izabeth
##ounced
replic
screw
accent
elizabeth
attached
email
ceramics
pale
execution
paused
geograph
failing
arguments
commonly
lacking
flyer
advisory
intelligent
privilege
souvenirs
hastings
ease
fame
gab
wished
##pread
exter
##aco
marsh
##ressed
tale
technological
heading
traditions
puzz
davis
imagination
1970s
proceedings
synag
hyd
barriers
44
punch
rib
ted
##vin
##esth
##alo
yelled
abund
arist
themes
lovers
disg
string
farming
lesson
posted
receipt
measuring
polls
historically
madonna
featured
collaps
collapse
territories
pillars
gorge
catalyst
bac
dances
##row
##rals
overcome
planets
museo
missouri
attracted
skilled
limitations
atlantic
tapest
grocery
surgery
prestig
commemor
ging
nu
yach
##bing
##aying
##add
dean
##mental
brave
##uces
##ermen
##idespread
classification
steal
jersey
babies
printed
fatal
dishes
corruption
zeal
##lete
shirts
##ags
consists
warrant
contest
format
lesser
reviewing
##shire
concentrations
chemicals
arthur
98
eve
fier
nick
tong
##ito
physically
substit
luxor
mcd
symptom
moorish
bom
copp
gle
ros
sigh
widespread
##falls
##icate
##leans
##idency
orleans
bloom
legacy
yorker
eggs
protecting
purchases
depicting
fantas
incredible
sorts
##anas
##anches
shocked
##iev
supporters
rugged
populated
summit
argues
administrators
industrialist
awarded
delicious
mathem
##rome
theories
##arse
outer
aging
cobb
smallest
follows
armor
fishermen
pulling
certified
kilomet
therap
aggressive
inexpensive
unhapp
voluntary
kash
nons
wis
##fr
inch
staring
##itty
backed
configuration
steam
missile
burial
associations
focusing
camer
hosts
cruel
picass
vault
nye
cooper
bapt
##liss
##isy
stocks
suitable
worsh
intense
boots
moves
moham
flu
ending
formula
mailer
##liers
irre
girlf
potentially
educated
cloak
evolutionary
pollutants
analyzed
hazard
extraordinary
inhabitants
pants
##orse
##orke
stalls
##urer
##olta
cance
elastic
insight
judicial
snorke
legislature
threats
relaxing
luxur
mysterious
paralle
promenade
38
bid
nas
session
##laimed
##fers
shame
##apore
spare
##uman
grim
reply
postage
refuse
reasonably
discussing
identical
votes
combat
prisoners
applies
automob
shooting
eliminated
disappeared
cabinet
aristocr
gingrich
bast
dick
##lah
##child
drives
locally
worldwide
menu
oklah
absurd
influences
utah
literary
railroad
inspector
ratings
allocation
emotional
forbes
kicked
shouted
equivalent
affirmative
kashmir
picasso
races
##hou
##enberg
toy
reass
##amin
della
guest
modified
##ugawa
greed
murm
ladies
complain
navy
lifted
pierre
shifted
solely
borrowing
gifts
fy
pas
ward
##oen
ingr
exped
bald
250
hello
mansions
anticipated
taxpayers
vulnerable
tranqu
##imm
##tha
##theless
shog
fried
envelop
nevertheless
condem
##otto
investigations
gathering
guarantees
photographs
exclusive
storage
database
mohammed
borrow
mum
merg
sq
sed
##itis
bearing
trains
tripp
##apher
grate
que
highlights
extend
bitter
competing
approached
merger
encouraging
consistently
citizen
sampling
malls
monumental
porch
worksharing
settlements
astronomer
seaside
tokugawa
exquisite
cale
fbi
ku
inapp
shorter
quote
underlying
regret
childhood
lets
easter
humor
##ieties
anne
calend
salaries
stein
volumes
singapore
sunny
hillside
hopefully
contributed
conducting
santo
casinos
duties
achievement
essay
pursu
replacement
retrofit
gauve
priests
alabama
vivid
##och
##wart
react
knock
##umber
peer
indirect
waterfront
advised
equipped
packed
nonex
attempting
mortgage
validity
nonfederal
episode
unnecessary
cfo
diet
lan
##iat
##eem
##atient
inches
pron
##ila
unt
##achus
artific
hobby
senor
approve
##liest
178
eighteen
beds
panels
slept
manufacturers
evaluated
casa
tasks
hond
nave
rushed
##gio
##ador
##ortions
allies
spite
##elle
##osevic
drama
studio
governmental
valle
technique
##retion
failures
determination
preparing
cleaning
respondents
applying
linda
vineyards
cbo
mol
rhod
defending
caes
glance
musc
182
trek
operational
missions
sixteen
screens
emerged
flexible
calculated
conquer
publishing
electronics
scheme
diamond
clouds
fen
ms
##lu
##erie
stiff
##acent
abrah
##arten
hispan
usps
workplace
incidents
coat
invaders
adds
humid
milosevic
##fund
existed
emerging
junk
connections
convention
climbing
olive
mechanisms
temperature
exclusively
tragedy
dagger
hike
kam
##len
##66
##itudes
##etto
chart
enacted
scots
goodness
parking
surge
returning
milan
winding
shortly
diagn
holes
bottles
shares
cuban
cafes
entitled
procure
chocolate
gabr
crew
##lyn
neo
##oded
tai
costumes
slaughter
senator
landed
painter
politically
describing
massac
plantation
wildlife
permits
tastes
assumes
alexand
fertile
sik
##har
stays
scores
persian
visual
officially
budgetary
armies
occurs
accordingly
celebrities
literally
substantially
registered
masters
champions
schedules
accompanied
duplic
fierce
ger
si
##orrect
##rey
##arn
rebell
##inking
##asses
presidents
economist
audio
excite
devices
flee
settlers
egyptians
bayliss
matching
apparent
reveal
emotion
mirror
unhappy
900
jet
ric
sie
##gments
##hin
##acles
##osaur
spokes
declining
discl
corrid
collecting
basement
acquire
affordable
variable
discipline
cattle
faint
lor
##rical
##esford
toss
##owa
hect
adap
##izer
prev
surve
differently
##aughters
traders
sells
historians
mistakes
melaka
pursue
criticism
observations
beresford
sustain
neutral
abraham
fern
yan
##rics
##lical
##olo
##ulative
leis
incomp
##ensed
bases
contents
curve
signature
concert
sectors
moments
fails
circuit
massachus
agrees
racing
legendary
elephant
34
62
kh
lung
##oan
##cus
##omfort
##etts
stim
##antages
##eman
timing
##ishes
export
##into
fires
imported
happily
barry
glory
burst
filing
shrugged
foreigners
greeks
concepts
obligation
murdered
preparation
gabriel
bang
tang
wins
##ua
##70
attain
abd
##occ
closing
crypt
amig
scouts
preserve
slopes
restore
tourn
generous
dealt
suggestion
richards
predicted
tomatoes
searching
hindus
provider
incredibly
poetry
recruit
outrage
pavil
versailles
relics
exterior
dal
lane
pets
silly
##father
##za
beef
stir
stol
anch
spends
pear
heroes
bump
reck
completion
mainstream
singer
banking
michigan
minimal
obligations
distinctive
revolving
oklahoma
leisure
bot
kur
rental
ts
##per
##dale
##ani
##illo
chat
##trap
strongh
##eps
colour
nightlife
landlord
choir
##aneously
distinction
illum
intrig
scenery
deny
communicate
conditioning
jamaican
seventh
fortunate
explanations
deposition
recovery
controversy
leonardo
remarked
flavor
compromise
garbage
##funded
massachusetts
stronghold
cass
tank
vet
##post
##icism
##aye
convert
trim
##anship
lobb
boasts
realistic
confront
painters
harass
ruler
immense
containing
demanding
troubles
merit
inspiration
philipp
permission
tunnel
pose
rou
yards
##mith
##15
##uster
max
##enders
peop
incorrect
scattered
carr
invo
respected
specified
insist
##awed
dawn
billions
impacts
##umbled
ranking
correctly
languages
ignor
louisiana
1960
accurately
monasteries
athens
##estrian
isolated
bucks
biz
cord
soup
sessions
waves
wander
stages
dei
conting
plate
makers
agent
amid
interf
lazy
##athan
larry
engines
confusion
flew
louvre
creates
arabs
fortunately
lisbon
artificial
wand
##away
##mate
##born
##ati
##itter
unions
##iality
amen
disability
wrap
##atherine
posts
funeral
184
promises
identification
hunger
lacks
accomplished
##iciary
obtaining
buddhism
borders
bothered
triang
cooperation
thoroughly
gentleman
legitimate
satellite
feasible
excitement
aston
daughters
kansas
pag
piano
##60
##erately
##atra
##enon
toled
##alay
##leas
stere
haul
priced
##olished
alliance
canad
intim
accidents
boot
fold
economies
dealer
colleges
participated
grandmother
italians
celebrity
1970
journalism
complaints
##itzer
efficiently
counseling
logical
escaped
delicate
resolve
resolved
promulg
61
cd
tib
##lson
##hill
##erves
##sein
##imb
trace
##endered
feud
afterwards
presum
governors
capabilities
proportion
factories
practically
gardening
considerations
broader
extravag
cooked
respectively
1974
adjustments
printing
ownership
coordination
municip
dive
hoc
##yth
ford
##kefe
##asted
coinc
centered
artistic
simult
formidable
thoughtfully
viewing
finances
millenn
reviewers
universities
sadly
glasses
mixture
odds
coalition
willey
kentuckian
suspicion
arrangements
rockefe
cemet
seafood
eighth
gord
gender
iowa
mt
vinc
##rum
##top
##enin
##sect
perce
quoted
cared
presidency
depicted
greens
interviewed
automatically
closest
videos
birthday
##related
conflicts
protestant
vessel
bazaar
hats
nut
vague
##see
sel
clay
intact
guards
asser
##ogether
contrad
suppliers
audited
admire
##mann
thirteen
179
##aneous
descriptions
narrative
jeans
homosexual
transformed
columbia
assembly
girlfriend
tournament
72
duc
hits
iolta
ware
##ran
enlight
branches
sheer
##berts
relate
founder
caut
landmark
camps
salv
departure
130
appreciated
naval
##onymous
synagogue
aunt
mike
saints
xv
##part
##itious
enl
adapt
composed
drum
parade
elite
skull
followers
landing
lowered
singing
absent
bones
wishes
surviv
restriction
novels
deposit
channels
ramparts
struggling
anxious
pursuant
rockefeller
dimin
gee
wives
##care
##vy
##rels
##arians
weed
##iments
##ami
shed
exagger
incons
newer
##uba
bugs
roberts
farms
difficulties
counted
##umbling
1988
adjacent
procedural
philadel
achievements
altogether
graduated
pilgrim
pyramids
renovated
poured
whispered
gandhi
bridges
symptoms
cemetery
philadelph
nara
ty
##zing
##anted
liability
soap
##iful
spraw
clue
##acked
loop
##uctive
smiling
evenings
underne
hobb
metaph
glimp
fourteen
alongside
statutes
hussein
restricted
flytrap
advocate
carpets
kitchell
sharply
barbec
venture
overlooking
cigarette
underneath
glimpse
dare
dign
hence
pile
raw
wrec
##hist
theor
reed
whit
##changed
shah
perp
root
bold
longest
genius
handful
enjoying
##ucker
authorization
##ova
nationwide
hurric
script
junior
swept
exhibitions
garage
samples
semi
praised
biography
stolen
gut
hid
kau
sway
sized
##roc
##rian
##oa
align
##udge
donated
bug
##ucted
invented
relie
ears
investing
annette
raises
terribly
salad
counting
uncomfort
virtual
websites
gaul
opponents
calendar
58
erupt
gently
nest
tony
voc
##uity
##nett
##inople
##rea
andrew
lip
clut
intensive
dislike
consensus
propag
175
fights
149
democrat
checking
avoiding
dinosaur
##burse
##chester
camel
logic
discrimin
palestinian
consolidated
dent
vouch
##sis
##wr
##arial
##omin
##adv
notably
##andy
alban
resc
interven
carries
legally
swall
grows
noneth
burd
constraints
georgia
separately
farmer
liberals
ethics
##worth
mallorca
birthplace
picnic
absorber
subsequently
inventory
korea
graceful
prohibited
encounter
liquid
utterly
siege
nonetheless
icon
sba
##bal
severn
pros
unm
drank
drops
roots
guilt
supplied
obst
##rake
valued
communism
foods
desperate
##aska
stewart
appealing
porcel
partnership
frozen
philadelphia
cite
tires
##making
##ho
##inge
##urable
##irer
plains
compat
appra
carn
##erald
inval
discretion
curios
##awak
##aware
villas
christopher
specialty
minds
balances
sne
offerings
mosaic
survival
constantinople
willingness
reconf
suspicious
portray
cigarettes
amiga
berg
diver
tier
##gal
##ione
whites
alright
##iffer
##elon
adam
timber
##grapher
underm
wherever
deciding
##resses
advise
185
raid
favour
favored
sooner
floating
voices
evaluators
henri
rangers
victoria
allocated
warrior
brook
##bourg
valleys
67
pak
wings
##onic
toll
##arre
##ido
cher
button
##acca
abb
enqu
##econom
##iley
thriving
throwing
flan
download
hugh
modification
earliest
messages
unpleas
bulk
advisers
portraits
utilities
dolph
apologize
toledo
bass
han
ses
##iman
sober
brass
load
twisted
desired
maine
array
expects
benj
mechanism
accommodate
toxicity
axe
##stitution
pregnant
brew
hier
rude
vin
##oub
##enth
comic
wells
coins
prehist
blanc
keys
supper
popul
##iov
particles
youngest
villagers
##attan
wonders
civilian
responding
giants
analyze
1950s
dismissed
nazi
stunning
arkansas
peoples
tibet
52
dow
eh
vie
##iating
##sr
##orus
inade
##iti
aswan
alan
meets
arise
grav
scuba
flesh
wrapped
respir
readily
##covered
variation
generating
executed
125
males
custody
tendency
neighboring
conferences
briefly
novak
inadequ
batter
hoss
hitting
wagon
##limin
##no
##me
##fc
habits
##keys
##usting
##ective
unfunded
yearly
seeks
conspir
parole
foundations
publicity
affil
greco
solved
civic
1987
jerry
planting
separated
contempl
transformation
motivation
prospective
dialogue
gigantic
pentagon
argentina
benjamin
73
cute
rud
witch
##ista
manip
upgr
disadv
himalay
relation
registr
skys
possibilities
##crow
privat
budgets
participating
deadline
featuring
mistaken
automatic
merchand
volunteers
deserves
hampshire
tongue
luxurious
41
bored
dy
eil
##oust
stability
seasons
ups
##ibed
amended
inclus
cleared
rises
wallace
acrose
penang
##lette
##rooms
nyt
rebuild
occasions
buffalo
migrant
australia
administered
reluctant
yanke
eilat
96
aesth
dread
kim
roth
##va
##erated
toys
##isa
##idences
##ando
##uscr
manuscr
spy
ariz
compass
reserved
actu
bless
relatives
provin
pubs
subtle
paych
performers
considers
insult
extension
arriving
counties
characteristic
convinc
symbols
accompanying
electronically
opponent
prototypes
cobbled
inappropri
austr
cz
jal
jam
kios
ritz
tuscan
##word
##mat
reich
##chi
chairs
pepper
prelimin
confusing
refuses
screaming
picking
versus
horseback
introduce
stretches
korean
##committ
cosm
obscure
gesture
bicycle
reorganization
sicily
copper
procurement
alexandria
enquirer
46
bah
pon
ross
zen
##uji
##mere
##ports
##oro
##udi
##gram
bund
sometime
addiction
streams
meters
simulations
annie
distant
accepting
appropriation
referring
sweat
complexity
indicators
dispute
rented
criticized
enhanced
remarks
elephants
injection
mcdonald
shogun
surveys
municipal
burdens
respiratory
flem
jaff
lap
pard
##ras
##manship
##omon
##oline
frowned
##illion
##anting
##unction
enfor
whoever
incurred
endorse
possess
salmon
europeans
applicants
examining
qualify
targeted
sarc
bosn
reservations
negotiations
lobbying
arizona
ko
pall
##esters
##etical
shots
##ulent
canvas
whatso
mars
moore
param
regards
opm
callie
resting
glorious
specialized
furthermore
midnight
radical
interpre
occupation
rubin
ranging
navig
volcano
saddle
harvest
tremendous
collapsed
ingred
whatsoever
71
90s
mint
nost
rope
##reach
revel
##ighters
cany
##umble
unim
index
assault
courth
subcommitt
glam
insisted
apoll
freeze
professors
1000
eaten
initiated
commented
fema
entertaining
qualities
progressive
rolled
baths
honorable
cumulative
cinema
pundits
transparent
bizarre
uncomfortable
bent
bite
cia
jog
lush
weld
##olas
chew
chips
donate
comparing
incumb
overt
##rog
intoxic
probability
parce
beloved
##atched
reduces
coral
deter
halfway
worthwhile
considerably
answering
memories
historian
halls
##oleum
prevention
applaud
revolutionary
dependence
witnesses
attributed
stabbed
enterprise
brazil
vinci
unpleasant
jaffa
aids
jard
pause
rif
tid
##uate
##bu
##bow
defer
spa
maus
adverse
##ishop
##heric
acre
bra
herod
disord
costa
handy
phoen
holl
##ella
netscape
##oval
speaks
versions
instructions
concentrated
innovation
producers
taxpayer
excursions
pakistan
skyscr
cors
lamp
rank
som
##ping
##pass
##state
##chitis
seized
##ardy
allen
manh
buzz
acted
assured
revision
miller
attracts
ern
##anne
reflection
punished
bronchitis
loudly
synth
provence
masterpieces
lavish
inevitable
scrutiny
tapestries
wisdom
lorenz
oas
vamp
wag
##gg
##gent
hack
atom
peel
overtime
cohen
keen
capit
pointing
financially
stealing
delivering
origins
##ippi
epic
erotic
architects
honored
citadel
dispos
vegetable
expenditure
palestine
gaze
sewing
juris
gordon
porcelain
cul
foss
hust
pip
zion
##onia
##lli
shipping
convey
atm
##usible
lect
offsh
exports
disabled
##roid
##issippi
worlds
norther
soci
swamp
passaic
continuous
generaliz
mississippi
choosing
paula
bloody
safegu
francois
sightse
williams
eligibility
champion
satheri
foolish
snapped
sequence
simultaneously
divid
fathers
java
lump
porn
vib
wip
##uv
##houses
tooth
##isse
sep
atop
suited
thereby
##usive
unsp
cler
clan
preach
bluff
ruin
admired
dock
countless
1982
1986
contractors
shrubs
affecting
bands
oliver
tubacca
intentions
grabbed
coroner
cottage
preliminary
bount
cops
gild
tud
##rak
##burn
##30
##itate
asc
noon
plates
##aug
incomes
overcrow
mugh
invite
capability
delayed
bookst
invested
politician
termin
specialists
destinations
ranch
oxides
controlling
##books
severely
deserted
biblical
mausoleum
jus
mister
##matic
beating
##eston
lied
plug
perception
repairs
carriage
lott
talented
poste
2003
nightcl
170
obsession
knowledgeable
##ospheric
doubts
commentary
psychology
recipient
aimd
recovered
promoting
mutual
marginal
##keeping
tactics
hobbies
danc
##iah
##repr
##itary
##etta
##ithe
##ulously
##osis
upr
slip
##oppers
160
##workers
screamed
divide
consistency
graduates
conclude
##comed
breeding
ceteau
suburbs
csr
hood
nan
rav
##lon
##fman
##isans
##urity
helic
seated
knocked
abrupt
##arded
enable
grid
deput
attitudes
##aires
practiced
associate
stephan
reno
grantee
assessed
bennett
firmly
1950
photography
negotiated
wilson
update
assassin
boilermaker
automobile
curiosity
prehistoric
helicop
fighter
mes
maps
verm
vatic
##nut
##eded
inscr
stopping
pricing
shake
##istine
##osity
##uda
plum
grat
desc
kells
addict
slipped
swift
possession
texans
baltim
commissioned
protective
devil
recognizing
laboratory
minimize
unfortunate
welcomed
retained
stamps
landscapes
grateful
botan
promulgated
baltimore
jokes
mul
osc
xii
##ikes
##col
##path
##inn
reag
stitch
forment
##urai
##ambo
shakes
shinto
serge
lotus
##ometric
flows
subt
charity
##bridge
movements
pressures
banana
ranks
jesse
tracking
ranges
reveals
##piece
craftsmen
satisfy
stretching
supplementary
cheerful
vsl
excluded
diesel
##charge
pharaoh
##reprene
jaw
pensions
raph
ruth
sip
##sen
##tles
##wal
##jud
deities
##odes
##aste
untr
overr
costing
courage
demons
curb
##eez
designer
practition
marketplace
traded
burg
##ovitz
##ynes
fortified
packages
borne
contacted
faithful
conquest
oriental
pillar
convenience
tiger
suburban
cycl
##luent
bits
shining
##unc
nob
##elt
adorn
usage
sheet
crying
overl
intend
afgh
feder
terrific
128
arguing
expectation
physician
celebration
submission
decorative
beaten
##marks
prosecutor
strawber
murmured
courthouse
vatican
awhile
echo
jf
mask
tiles
vel
##ean
##oven
##fp
##otte
##ilia
plun
justified
##aga
dried
consc
founding
instant
watches
headline
walter
aircraft
##elling
eyed
docket
geographic
penetr
environments
approaching
pressed
panic
maintains
mandated
investigate
tribe
guarded
subsidies
honestly
pedestrian
blew
##points
codes
sustained
cinemas
metropolitan
nonexchange
adapted
fare
oun
ports
##ken
##urf
angle
traces
trucks
enact
spark
safer
##iche
appet
martha
assure
programming
removal
artisans
cake
signal
airlines
breast
observe
structured
georgian
documented
unpop
rubber
belonged
variables
bargaining
reliefs
deemed
inhabited
undertaken
indigent
horizon
lantern
compassion
ais
bone
bak
ein
hm
kin
mant
sour
tam
ze
##wi
##din
##enous
reun
##etically
segment
trave
als
lever
cros
lover
maria
##anges
underwater
governance
##ologically
earning
##ugg
pointe
advantages
awake
cef
alcoholism
amazed
hypocr
shadows
consequence
incorporate
motivated
forbidden
tornado
asth
mitig
pistol
troubled
propaganda
inappropriate
burgund
cp
dorm
hipp
ile
kan
lone
mound
moy
mumb
nbc
##arine
reverse
shorts
dell
nelson
meg
manif
upcoming
compos
overhead
sciences
##azed
benefited
confed
portions
salam
antiqu
jacket
cells
supervision
supervisor
pavilion
feudal
actuarial
convincing
57
catherine
ron
rous
sid
sib
##uana
reop
##ctional
##celer
exh
alph
alps
##unic
composition
acceler
ami
mule
cove
preval
needle
colt
regime
remem
famine
baseline
lasting
mining
caution
barrel
auto
viewers
processed
admir
generators
uncomm
preference
draws
venue
crossing
603
liberation
gradually
tribal
cartoon
dynamic
catalog
excessive
dominant
graphic
fountains
hypothesis
exhausted
dudovitz
nickn
presumably
mumbai
hed
kes
morn
mower
ri
rick
wig
##ea
thumb
inaug
forcing
trag
maid
outreach
##okers
##try
interactive
requester
hugo
phases
kinderg
majestic
receipts
##brand
terrain
promoted
cheek
associates
competitor
religions
reportedly
balls
rolls
kenn
seventeen
illustrate
strikes
refugees
descendants
brutal
kilometers
registration
jalan
88
bind
diction
pity
pestic
##iji
##uously
##zo
##isp
rect
stur
##urrect
##istically
resent
quot
quay
##arek
poke
accus
endless
aviv
insights
entreprene
operates
calle
disturb
desperately
1983
independently
attacking
predecess
colonies
sundays
recipe
cups
adequately
emotions
overlooked
scholarship
observers
balearics
richardson
extravagant
inadequate
sergeant
bambo
fas
fog
fanc
ray
ripped
sisters
##inians
heels
exile
knees
albr
plaster
outlets
##ocation
pecul
brow
loving
newest
interrupt
##ailing
relied
parish
secrets
schwart
famed
deprec
barren
mighty
clearing
mounted
awk
squares
recognizes
woodward
scrub
linking
russians
establishes
degas
janet
wheels
crusaders
pige
consciousness
miniature
announcement
proclaimed
kaufman
paycheck
offshore
federally
bamboo
peculiar
schwartz
78
93
hhs
sain
##oop
##wich
##bet
wears
##olome
##estim
butler
alert
##mphis
memphis
##ifix
overd
##iani
synd
minnes
##ews
##she
potatoes
penn
debts
arena
friendship
bonus
comparable
laughing
##naments
##iyre
rumors
crucifix
attributes
monarchy
isolation
snake
tuition
chaos
sightseeing
formentera
awkward
cyp
gays
gins
kidding
lighth
##nas
##vals
theod
##inging
ree
heir
##una
spouse
donald
grasp
prejud
undoub
##ailed
governing
endang
particulate
practicing
extrem
judiciary
travels
necessity
plantations
##archy
uncons
##ophag
doubled
sorb
ninth
penalties
maximize
deposits
hammer
##ubbock
pundit
vendors
creek
therapy
northerner
minnesota
beng
cure
dere
japp
lions
mouse
rip
slic
tul
torr
zelon
##enger
##oria
topped
##itar
##ente
rewards
##section
prado
deleg
alp
##abs
nobles
unqu
adul
imprison
impatient
interfer
commander
desirable
lottery
##athed
edger
defect
##beat
swed
menorca
aphis
salon
influential
lacked
israelis
surviving
ignoring
deduct
prevented
miracle
amph
consultant
permanently
##oiselle
intellectuals
verdict
acknowledged
caesar
millennium
pilgrimage
merchandise
subcommittee
manhattan
ernest
unpopular
albright
undoubted
aol
dental
fwi
kins
##bes
##enna
rear
revers
neph
oro
butt
altered
bruce
quaint
##ittany
##roeconom
subway
happiness
islanders
waterfalls
generals
wax
tennes
151
irrit
identifies
hilltop
##apping
impacted
deeper
challenged
colonn
explaining
troop
##ettes
digital
litigants
arrangement
embrace
distinguish
reconfiguration
canyon
raphael
uncommon
68
fid
fence
gol
tips
woke
##uum
##38
thomp
##oulos
beth
shin
goss
hiss
saves
##ounce
marij
remed
##uala
deterr
senators
##cover
freezing
sanctions
jewels
domes
duomo
cleaned
adjo
titian
females
purchasing
journalist
catching
conversations
tallest
quantity
clinic
depicts
veteran
charlotte
prestigious
parallel
taiwan
czarek
sarcophag
thompson
marijuana
bened
dak
ramb
##nels
thunder
##leep
rehab
shaded
chim
nobel
donation
unaware
tear
##aho
##agged
impr
deck
informal
wrist
delays
curtain
profiles
infant
varies
freely
magical
kingston
epid
##boats
claiming
faa
threatening
luckily
escal
prescription
annoying
balconies
tranquil
intriguing
greenspan
gilded
undoubtedly
85
dw
fon
nass
nasty
pud
rape
##lore
##cour
##eding
anderson
hay
asleep
shiny
shapes
oral
##unted
##quet
justify
groves
##izations
offs
overth
disgu
pooh
slap
attending
emily
companion
designing
risen
arched
##phy
##enched
suggesting
musicians
cardinal
darkness
spiral
liberty
petition
functioning
tribute
defenders
abandon
dusty
cracked
revenge
hesitated
deliberately
hazardous
shakespe
kindergarten
tennessee
lubbock
vest
##cos
unbel
##emoiselle
acute
blessed
##ucked
flats
olds
kelly
careers
propert
turner
advances
accountants
profound
judgments
doorway
hunters
mademoiselle
scenic
embroid
encourages
urged
telecomm
elders
citizenship
illustrates
lengthy
eliminating
belongs
bait
rhyth
crusader
bathing
allegations
grinned
honda
nostal
shakespeare
54
89
kuala
lyr
mature
rage
vish
vert
##taking
##dr
##vis
##friend
##hr
##ulates
##geois
lik
knights
sake
##akura
incon
smar
##ogy
presort
##ermere
obel
mineral
metro
charging
autonom
summers
windermere
awes
176
##print
sentencing
litter
purple
softly
mistress
complained
hyper
ambitious
prints
tunnels
skinned
concludes
##marked
repeatedly
coco
blanket
bourgeois
excavated
nhh
laund
abundant
substitute
mathemat
fenner
pagoda
canadian
atomic
epidem
66
ald
couch
dated
tension
ville
##rix
##ui
##min
##anim
##vere
chains
spacious
mahal
unav
brittany
dropping
indul
downs
remo
joining
subtr
tempor
confron
attracting
disputes
florent
experiencing
constitute
ethn
##worthy
matched
consultants
fitness
adventures
emphasize
##compl
coordinated
elementary
seeds
phenomenon
commodity
atmospheric
awesome
gym
ronald
##went
##made
thread
revered
##acies
trig
alumin
##astrop
grip
perf
indones
marx
##ogan
flame
secular
##wear
slam
governmentwide
formation
harmon
walled
romance
questioning
sunlight
regulated
ballet
computerized
devot
chapters
catastrop
combine
corners
dresses
investigators
frequency
feeding
1920s
teenagers
jimmy
scarce
krug
promptly
pollutant
dragged
anthony
fragment
washed
orchest
lyon
mamm
gorgeous
cameras
snorkeling
harassment
intimid
survivors
asthma
sturdy
properties
92
ja
mock
sizes
##reed
itiner
heb
knight
##ours
##acking
perj
inclined
marina
warner
charter
collective
apost
secondary
worthless
flea
1984
mosc
mosqu
ridge
intricate
raining
hosted
spirits
francisc
taller
strengthen
dishon
emphasized
reminded
overlook
disclosures
plausible
confirmation
lorenzo
bounty
dancers
02
mi
tents
##lav
##eav
##wick
##mart
reception
##urbed
asp
##usc
##troom
impair
overnight
##anging
servants
relies
courtroom
##ression
rua
tales
endeav
sket
societies
##inson
transpl
explored
exploded
apaches
promising
killer
debates
sentences
trusted
breakdown
sandstone
superst
jesuit
preventing
layer
bandits
scientist
virtue
stretched
breathtaking
clinics
sporting
temperatures
cloister
trendy
analyzing
charlie
frustrated
subscrib
wolves
fulfill
prophet
championship
perceived
barbecue
tragic
dakota
aluminum
bin
dazz
gil
gary
garr
lighter
merr
oreg
pbs
wat
##dg
##48
toile
##isers
stole
##sem
##adda
##ilings
yel
alic
##aky
loaded
fever
disk
disli
marri
marco
blades
blowing
backyard
opens
confess
password
181
limiting
##holder
replacing
##held
filling
constitu
ethical
gasoline
freshwater
bowed
austin
archaeologists
windsurf
margaret
joyce
evolved
rhode
burgundy
dictionary
sorbent
oregon
70s
dur
hmos
ling
loun
owe
rings
##nu
##yre
##inqu
##itably
##chio
ank
sha
worries
##umed
sao
gram
offense
twist
roose
subcl
demographic
##lington
testament
privately
felipe
credits
frontier
denver
##iciaries
minorities
coward
seventies
shady
saturdays
unsure
1930s
harmony
predictable
bargains
alleys
celtic
summarized
accumulated
enthusiastic
akbar
manuscripts
flemish
bengal
smarter
77
bidding
lc
lal
moss
rfp
##master
##fire
##fia
##erge
##ede
inbound
anonymous
shaft
knee
abilities
##umer
##astically
beck
gro
grain
grades
grapes
margin
##velt
bland
blend
blaz
fuji
poles
barik
readiness
glanced
apology
noncompl
awa
ladder
permitting
missionaries
21st
mercen
biological
spreading
consulting
rubens
##agonal
storms
appointment
embraced
excursion
ferries
athletes
rebellion
unimport
moscow
roosevelt
hilt
hale
jenn
lyn
rale
waved
##isive
bever
stern
notices
##iston
meh
spices
saudi
##grad
ammon
offensive
dissem
##rood
thres
flowing
##tsin
organisms
hooked
revival
playground
##iera
tempted
financed
continental
snakes
##balls
drinkers
referrals
madame
##anni
damn
medici
establishments
indicator
decreasing
appreciation
holyrood
2015
cocaine
frightened
recreation
pitts
kamakura
hughes
pardon
vibrant
sainte
edgerton
gossip
temporarily
yeltsin
unimportant
raleigh
eiff
lut
loses
rats
tyr
##rac
##lass
##net
##was
##card
##kirts
##mel
##erget
belly
##opoulos
congr
goya
trap
##ection
likewise
##oka
crushed
dispar
actress
carl
blo
##luded
warfare
demolished
skirts
beneficiaries
functional
behave
infin
harris
castro
145
exceptions
martyr
convicted
injust
proposition
emperors
macroeconom
comprises
sufficiently
negotiate
exploration
shoreline
tenth
arcade
terrorist
portrayed
mysteries
rajput
collaboration
indoor
refreshing
massacre
spokesman
vishnu
eiffel
bun
cens
eb
gib
iz
lac
nude
##rale
##lise
##ez
##dle
##erates
##armed
abstr
##udic
##umn
unhe
##ounding
##agne
marking
carth
carav
carlos
remn
obey
shower
mode
##scale
defensive
propose
watergate
##pless
operators
amongst
irrig
eglise
##iki
integral
magnitude
conviction
verify
rhet
kram
graphics
terre
dilution
patrick
marvelous
devastating
hispanic
hectares
austria
jurisd
generalizability
noncompliance
69
hort
kab
mck
nuts
nfl
rivals
ropes
sod
somed
tended
##mont
##inter
##stairs
stripped
marcus
downstairs
realign
metres
correl
sixties
harbour
towering
husbands
treatments
indication
balloon
1967
capturing
conversion
printer
disappro
jumping
innovations
varying
pharm
dialect
landscaped
plotz
skeptical
wrestling
ceremonial
fernando
yankees
eu
jeal
ker
lanes
wp
##inous
##aro
##amation
fraction
soaring
spaces
unst
unchanged
adoles
theirs
teens
brack
quotes
serbs
poets
committing
robb
belg
suburb
phones
edo
admissions
accounted
protests
halt
deliveries
capitalism
volat
winters
156
solomon
shortage
cannon
grandfather
nationally
##ikers
##ikoff
reflecting
manufactured
titan
complaint
laying
layers
randy
roofs
reconcil
sacrific
reinfor
acknowledge
frightening
paragraphs
sweeping
##children
ginsburg
krugman
someday
cad
camb
fitting
gon
ip
##lock
##ti
##esa
##ington
##steps
fra
##osa
cane
energet
spun
plag
outfit
##izable
impl
##achel
partition
##licity
blink
gene
idiot
slope
homework
organize
emerge
autumn
nearest
arche
educate
castles
speakers
contribut
embass
documentary
candle
fixing
casc
precision
misunder
meantime
speeches
psychological
cynical
pursued
malaysian
##iya
absorbed
avenues
outskirts
bartolome
envelope
deputy
kramenin
51
63
84
diana
gum
jain
rita
##lan
##inth
##onies
reef
##stick
##imburse
shoppers
seattle
sull
##ainted
trent
tract
sovere
##ifiable
ally
pled
feared
coin
caring
genre
issu
opposing
##phe
operator
credible
30pm
bananas
motives
unfor
moses
mosques
slowed
respective
declare
commercials
veron
spectrum
distribute
trailer
gentile
vegetarian
strengthened
##ennial
rigid
panoramic
apprais
mornings
adjoining
alicante
threshold
giov
jar
mow
nash
voy
yok
##rose
##educt
stee
shaking
nev
spur
noisy
hass
##oku
amate
fears
buys
rooney
backing
instantly
technically
insuff
tempt
mills
prett
tops
terraces
breasts
judged
sunsh
##boat
enclos
domed
turtles
definitions
contracting
normandy
trustees
fortifications
cathedrale
spotted
roller
symbolic
pursuing
inquest
robust
workshops
interpretations
motivational
fabulous
detective
shifting
folklore
anthrop
cantina
strangers
unreal
lodge
pistols
neglected
pharaohs
conjunction
nonsense
nasa
vouchers
province
unbeliev
removing
cau
cush
lt
muss
ral
tay
tore
uk
##gue
##fits
##je
##ethe
fores
weights
##olia
##ili
notorious
troy
alc
allied
pertain
shep
quart
serene
carving
##vernmental
polite
provinc
##atches
federation
glow
guessed
painful
##amese
cultiv
tenants
additionally
ceilings
presentations
competent
encomp
treating
##umbers
predomin
exercising
breathing
stupa
reminder
pigs
tablo
nhts
wandering
afghan
windsurfing
aj
bore
dug
hh
hilar
nerve
rows
reimburse
stem
stance
##sept
nebr
sev
seld
goat
##ibes
uso
brah
##ipher
lob
mund
backs
flock
planes
easiest
formally
curse
curves
hotline
listing
129
merits
broadway
originated
adoption
melt
gaining
calculating
inspections
galile
resisted
diseases
crusade
tube
chestnut
unconstitution
transept
murders
assertion
sympathy
libertarian
olympic
bombs
corridor
stereotyp
hockey
inconsistent
lighthouse
marriages
sovereign
flic
hil
nagas
pf
##ros
##ders
##fri
pristine
##chet
outd
disrupt
##oyant
indiffer
##ounted
##veland
##oths
busiest
genoa
imports
defended
revived
factual
developments
experimental
equity
##phorus
arrow
humanity
sellers
1981
wordsworth
fax
embod
imagined
philip
##backs
vacuum
telegraph
immigrant
compares
hikes
samurai
##uki
sheltered
boundaries
delighted
nominal
powder
australian
inherent
gentlemen
puppet
prosecutors
breeze
bankruptcy
sighed
hurricane
incumbent
franciscan
nhtsa
aquar
ipm
kaz
mitch
masc
sop
##iantly
##gam
##jon
##leine
##otine
##eters
stu
franch
liv
albe
enabled
pean
tears
loire
coh
scare
marie
consort
mold
flaw
syria
madeleine
genetic
##atively
persians
handles
charism
approving
morals
##ups
simplicity
participant
hunter
favorites
##ography
characterized
shareholders
imagin
installing
mandrake
precip
decoration
categor
acquisitions
pursuit
vegetation
remarkably
kingdoms
scholar
ganga
heroic
perspectives
conceived
tailored
inefficient
discourage
wolfe
##eastern
reconstructed
evidently
stephanopoulos
jealous
provincial
albeit
damp
faded
rer
##aise
##sad
##ci
##pur
##35
##jman
##oman
heights
frames
ench
##ela
outbound
upward
##ounded
intermed
boast
descent
remsad
hug
endors
esteem
reads
fundament
trapped
annex
refurb
buyer
potter
stylish
sentenced
hurts
cleaner
lawsuits
farmworkers
titles
beatty
giul
italiane
microw
mechanical
ashamed
terrorists
wider
tanks
pirate
supervisors
pompe
leisurely
vessels
tuscany
phoenix
tudjman
nightclubs
practitioners
unconscious
56
dues
kend
kurd
lun
pione
##asters
##icy
##storm
prisons
##olics
fron
chand
orr
leap
sparse
placing
maker
cran
laz
lookout
remin
helm
farrak
medi
detr
headlines
morrow
operated
reasoning
##ertime
172
protects
appropriately
packet
lawsuit
micro
essence
angels
comparisons
1948
cruises
contacts
variations
accidentally
accomplishments
uncertainties
partnerships
gaunt
ponds
steadily
recreational
indigenous
inevitably
refresh
aqueduct
cautious
ingredients
skyscrapers
perjury
bishop
fow
gour
imb
kat
tens
##nity
##bat
##reated
##iter
##itical
##asu
rever
rebs
##otted
stored
forfe
chip
chase
mead
##apolis
plague
scro
1900
##ecd
guang
keynes
subia
eds
organic
natives
summertime
steak
windy
staffing
epit
favors
168
dougl
quicker
shrimp
##ikh
messed
examines
manufacturer
analyt
franco
premier
murderer
biased
industrialized
altitude
substantive
calculation
consulted
austere
obliged
contempt
revolt
neighbour
nicer
purely
simpler
passionate
frustrating
liquor
fertility
clerk
reagent
disturbing
pittsburgh
sunshine
taylor
aquarium
farrakhan
awe
gn
pagan
tire
##ray
##aus
##nin
##win
##cott
##mad
##power
##de
##xon
##erving
beij
reese
##ules
##ulum
trin
##mpt
##ieu
##unting
engr
plateau
resign
brink
crowned
amusing
imply
overly
overview
twent
boating
umbre
downward
wright
slower
ministry
confined
campbell
certainty
raids
thirds
harb
reaches
counts
boyfriend
seller
scream
shoe
hearts
complexes
conservation
transported
1944
observatory
depressed
nepdg
comedies
terrorism
tigers
mentally
prompted
observer
renewed
embarrassed
bureaucracy
enthusiasts
enclosed
puzzled
zealand
duplicate
astonishing
privatization
wiped
sepul
obelisk
beijing
bend
bays
etr
fi
ironic
kor
nag
rosen
tiber
##fol
##aria
##llers
chill
chuck
chris
abo
spar
spont
spike
maze
unb
willie
anytime
compact
compelling
brains
drif
partially
firing
backl
fluct
##onsin
##mbur
basin
organizing
seemingly
porte
portal
cheers
penny
assisted
footsteps
lightning
influx
separation
venues
seasonal
wildly
angel
##ohama
##after
cupboard
lawns
subsidized
poisoned
fertil
powell
bosphorus
episodes
shields
wicked
klein
yacht
elasticity
homosexuality
alsace
nephew
deterrent
telecommunic
nebraska
79
cun
fist
ssa
yadda
##iary
##aig
##eu
##nell
##gi
##fty
##just
##zhou
##anth
hambur
##olini
fran
##ustomed
manages
mare
upscale
intimate
drain
partial
coloss
##uccess
thrill
kef
belts
capitals
artwork
hollow
bothers
##rians
cleveland
humil
gloom
healthcare
cease
defining
coptic
secretaries
surroundings
juice
commentators
evaluator
hostile
rebels
crafted
shallow
racist
tune
elegance
retaining
bullf
sponsors
outdoors
switched
explicitly
mumm
bumper
enlighten
conspiracy
orchestra
nevada
amateur
mussolini
guangzhou
analytical
aboard
74
boud
ely
git
penc
piet
tide
tread
##lings
##uated
##mill
##mates
##hy
##inas
ink
bea
rejo
staged
##ados
ascend
sher
noting
prose
tray
trunk
graft
perug
##akia
##ption
blamed
invade
forming
retal
communists
palma
landmarks
facial
facult
158
policymakers
forehead
deadly
connell
panthe
selecting
diary
skyline
deduction
complaining
warmth
arabia
bowling
calculate
unpro
ample
disagreed
witnessed
recycled
eagle
attendance
pockets
accommodations
struggled
spinning
inquiries
routinely
worshippers
metaphor
gaulle
uprising
dishonest
subscribers
ammonia
reconciliation
gentilello
seldom
nagasaki
64
baker
fitz
gur
lana
lomb
nie
pto
tad
##mers
##zer
##zan
inh
##omphe
##ayment
##kel
frie
chal
triv
##ifer
canals
##arted
unity
##group
newcom
consent
flute
subd
empower
persist
phill
deficiencies
avid
skip
sitcom
protested
secured
morgan
succession
10am
traveler
122
166
pollock
divine
requesting
sandwich
respects
manufacture
1975
##ilingual
magnet
misd
burns
ambass
diego
vanished
triomphe
montana
semin
karn
maturity
masks
sophia
ventura
bolted
wounded
solicited
broadcasting
jefferson
wanna
peasants
pearl
capitol
pokemon
amphithe
yokohama
intermediate
pompeii
ptolem
60s
ay
cows
hardship
jod
pending
tint
##say
##inals
##onian
##alds
##itous
##utant
##etics
##uri
##olved
shores
algar
##arte
sai
craig
goodby
taj
blown
nationalism
insurers
mailing
continually
173
balancing
memoir
objection
similarities
140
catholics
voter
predictions
ultr
revealing
earnest
unsuccess
brightly
retains
nurses
monitored
promotion
inputs
disappointing
weighing
encountered
ancestors
sprawling
pallad
vampire
congrat
douglas
goodbye
kel
voth
wisc
##rent
##law
##cere
##kings
##mare
##hard
##hwa
##75
##arity
##lements
##irical
sham
conform
complying
perched
overh
interaction
poem
needy
requesters
sincere
##erness
ideology
2004
pretend
nightmare
holdings
obsessed
acquiring
legislators
combining
threaten
investigating
garland
worrying
psychiat
furnish
consequently
warsaw
earthquakes
outlays
outlined
groceries
lobbyists
##uela
fantasies
wardro
pronounced
overcrowded
manifest
microwave
wisconsin
350
cm
hut
hank
lus
mast
nancy
pel
posed
rack
sore
wy
##rc
##uch
##based
##hu
##200
thigh
##oni
##orthy
beans
stables
whil
wasted
seg
fruits
chau
solem
allerg
mann
##ocal
##emen
bred
persec
quo
flank
flamb
schumer
##getown
problematic
rests
booksh
glitter
183
morality
stepping
successes
label
specialist
silhou
objections
alcoholic
##ogne
georgetown
royalty
pleasures
hopeless
reliance
vacations
discounted
automation
surveyed
inquired
ghetto
robes
1929
pm2
dismant
hinduism
poisoning
saber
hamlet
exempt
sophistication
canton
dictator
distinguished
leaning
torture
panorama
invoices
keswick
kenneth
crucifixion
dazzling
giovanni
80s
dus
duct
duck
fighters
hikers
ig
kow
krist
lace
puff
poker
riot
til
tatt
ub
vain
wto
##western
##mund
##pill
##vable
##hara
##anese
ante
anecd
shy
neu
traced
aba
outsid
adams
tavern
prefers
blast
bloss
thrilled
contrasts
realm
gloss
taxed
policeman
budgeting
waist
##ipper
distracted
journals
contributing
multipoll
decorations
garlic
constantine
consumed
arabic
melted
boilers
welcoming
matth
wheat
oxley
unusually
sponsor
strolling
renovation
enthusias
recruiting
caterpill
stranger
vigor
unrestr
caterpillar
bub
mason
nike
pits
pyl
sends
sank
tiled
vau
##iations
##namese
##eri
##onso
##urring
heck
weaving
shan
frown
##ifices
spice
maz
pepp
cram
crick
amar
amato
coven
laur
##roit
##angel
warren
##ressive
##ugos
revisions
proportions
gloves
engaging
seniors
testify
ceos
labeled
162
silently
commissioner
walker
inspiring
##loon
corrected
santor
investigator
demonstrates
touching
jackets
burnt
drafted
bells
spray
olives
incorporating
confidentiality
330
rewarded
rewarding
exploit
photographer
avenger
licensees
annoyed
summarizes
betray
olympics
prolong
irrelevant
queens
caleornia
richer
exaggerated
dignity
dinosaurs
discretionary
aesthetic
bosnia
abruptly
botanical
autonomy
toilet
stuart
enlightenment
pantheon
kowloon
multipollutant
paved
woven
##oid
##onos
insect
##asth
##icut
anat
##imited
shiver
notew
##acio
donors
peers
myri
compost
##uber
actively
stressed
monstr
flaws
deploy
anna
successor
modeled
risky
duch
violate
centralized
quarrel
triple
occurring
verification
adopting
skinny
barbara
vietnamese
struggles
optimistic
linux
montego
elevated
advertisement
advertisements
kurds
brooklyn
dolphins
kiosks
borneo
insufficient
telecommunications
noteworthy
myriad
fiance
ffc
gaps
sided
##rock
##liness
##yll
##giving
##bid
##bling
##erick
wholes
##iguous
dos
araf
unex
uneas
##ocative
grind
newt
coats
pole
##iances
blm
blond
flights
kevin
subs
talents
delos
signatures
retention
particle
socially
##aob
airy
sidewal
sane
##sha
viable
domain
murphy
structural
110
jerk
panama
swear
drawer
fastest
1972
1964
racism
octagonal
finishing
dissent
omn
pcaob
lucas
powered
overwhelmed
jurors
##oshima
riviera
spoiled
devastated
##frame
reckless
warehouse
perpet
obstacles
jardin
lumpur
pigeons
steele
arafat
bunk
cv
cuc
lamb
nuns
pod
rated
wield
yam
##gone
inacc
beaux
isikoff
unanim
##ocod
gras
grill
workload
amuse
quad
feast
disgr
##ecy
eviction
additions
idi
planners
hoff
detroit
insane
airpl
morally
archives
##bria
billy
patio
101
horus
agreeing
labour
grandchildren
linear
shovel
murals
victories
rocket
ranked
celebrates
604
miserable
cheapest
elder
matisse
circumstance
1934
osi
eagerly
philosopher
gorb
unemployed
stabil
anglo
fragments
discouraged
reconstruction
unrest
geographical
fantasy
greedy
kuwa
untouch
muscles
ignorant
cosmop
deferred
disorder
helicopter
overlap
strawberries
lyrics
jurisdiction
energetic
appraisal
reminis
boudoir
algarve
solemn
inaccur
81
mats
matt
nathan
rio
soda
vines
##washed
##drop
stagn
shit
shocking
trinity
soho
leith
outpost
unimp
incidence
herbs
intensity
booming
thrive
flip
addicted
differing
earl
audiences
openly
passenger
oppose
info
extending
judging
vikings
periodic
164
circulation
violations
laborers
divisions
surrender
animated
rapids
rebel
petit
renting
commitments
1945
ivory
memorable
columnist
predicts
launching
kirk
##achev
vulnerabilities
hints
betrayed
disclose
anchor
contradict
carnival
enforced
xiii
reopened
dereg
laundry
injustice
irrigation
outdated
flamboyant
gorbachev
ced
eug
hmo
ming
rut
tag
tucked
zucker
##rise
##eur
##dog
##bury
##atri
##ono
##real
bew
prow
##ersed
##ands
##usa
maur
outline
clust
crashed
offended
dragon
poems
recession
indies
wayne
preserv
studios
locate
realizing
corinth
barn
thoughtful
glowing
signals
landf
equality
205
facades
ceased
##parents
domination
grandparents
snack
1985
bonap
positioned
rounded
consisting
##banes
essays
camii
laser
jacks
novelist
chemistry
quantify
furnished
enhancing
sarbanes
telephones
distinctly
detectives
disciples
reminds
divorced
accommodation
##market
shifts
uniforms
gigot
gravely
subscribe
cockpit
cyber
conqueror
philippines
dowd
mughal
torrent
mehmet
kabuki
hilarious
ale
gwe
hir
urea
yugos
thur
##inanc
##llas
hail
##olith
##essim
##antan
livel
##oured
mae
mafia
someplace
##ipur
coves
twins
##ignon
rembrand
##athe
visions
owning
standpoint
builders
specify
airline
palms
classics
159
stuffed
solo
sorting
strongest
standardized
118
scrap
secretly
softball
embar
substances
communicating
advertisers
complied
layout
exercises
kidna
illustrated
shelters
oxy
motorc
torch
triumphal
yields
ineffective
assignment
forecast
relieved
compatible
affiliated
vermont
enthusiasm
cosmopolitan
yugoslav
rembrandt
bury
cope
erupted
fhwa
luk
mie
nope
pant
rents
thebes
##atial
##orout
relying
##imming
##opy
##oping
##esting
fries
sued
succ
almond
lease
leban
unrelated
uncovered
clark
crude
##icals
##orde
monk
flung
inviting
parale
##mmet
stately
slogan
discont
minoan
earmarked
curs
autorout
concur
transfers
raft
remembering
differs
potato
geometric
caste
pickup
hurting
contributes
savoy
##forward
fells
cardinals
connecticut
judgement
decreases
psychic
chemist
mobil
scandals
counterp
proceeds
producer
sabah
tubes
unclear
disneyland
supplemental
pitre
rajasth
lewisville
fragile
mirrors
evelyn
baptist
lanterns
exhilar
##urrection
prettiest
backlash
furnishings
whilst
dess
lent
lust
nc
pes
##obs
##writ
##ori
toes
##utive
stare
frog
tram
abortions
saus
##oused
griff
cries
crocod
muller
guill
marit
##amped
downhill
modifications
redis
lasts
restoring
happier
metrics
transcr
annivers
##lihood
harry
exclaimed
nicely
awfully
irreg
##prod
viking
165
footpath
lightly
murdo
causeway
destroying
affection
tender
cooler
brands
calculations
carpent
cartoons
comprised
archaeology
gauge
hawaiian
renovations
translate
translated
flourished
lsny
bearded
inferior
preceding
liberties
balcony
ceremonies
incompet
abdul
ignorance
enlar
tibetan
interpreted
apollo
oscar
prevalent
transplant
pertaining
kurdish
reminiscent
anniversary
murdoch
450
94
apt
das
fost
fret
oaks
vantage
##aid
##mins
##orate
##ingo
prone
##adic
##iliar
seal
##mented
##ulse
chan
trout
##oshi
mecc
##ifs
maison
likelihood
sailed
grief
brod
brun
brush
brisk
disastr
disabilities
partisan
##ensible
deserved
effic
lawful
systematic
slender
discrep
realism
processions
roommate
mailed
refusing
classroom
##oppy
raven
patience
estimation
estimating
millionaire
155
determines
civilians
wooded
surprises
exceptional
creature
santi
wilde
1968
spectators
meaningless
matches
pico
photographed
wilkins
bagh
dilig
boomers
highlighted
sailors
assembled
negotiating
anxiety
tolerance
honeym
tutank
warnings
prestige
condemned
invoice
hierarchy
shogunate
hebrew
carthag
unconstitutional
preservation
##inancial
dic
dens
kag
lon
nond
pis
peng
ridden
zar
##rd
##uil
##ws
inability
##lehem
beau
onions
##urous
neur
seam
chron
##gev
##acon
##ieves
plumb
arbit
workout
crap
implied
tapped
accustomed
consume
secluded
##rys
evans
##leman
handic
souls
baron
hardest
curric
turnout
approvals
possessed
creole
refund
trades
##roph
burton
questionable
filter
##shot
regulate
squir
recordkeeping
##ushu
illusion
##lett
cooks
wilderness
restruct
##iffs
collar
401
writings
ambient
ambitions
##masters
licenses
hatred
kyushu
smells
muttered
outputs
spelling
cafeter
unlimited
shouting
monopol
optimism
gifted
bernini
quinta
uninter
narc
prevents
amenities
remembers
bethlehem
mosquit
realignment
unbelievable
pylon
auctions
eul
hk
kitt
morm
nba
rains
sr
##ration
##iets
##low
##evelop
##bra
##hed
##ouin
beams
relev
weary
shal
nebb
seine
abused
##quest
teod
cripp
scan
guitar
smoked
blues
betty
flue
flames
##weight
proves
warming
obl
kindly
startup
curiously
developers
testified
daim
electrical
equation
collectively
projection
understandable
missiles
sidebar
152
1500
##author
singers
individually
awak
methodologies
modernization
focal
sentiment
civilized
teachings
shrink
scratch
surrendered
celebrations
stationed
communicated
afforded
declar
searched
mercy
forgiveness
advocated
bombay
mileage
illustrations
converse
predicting
hersh
depressing
heyday
bolt
privileges
reservation
icons
ryan
serbian
replica
diagnosis
disadvantage
cyclades
##unciation
vertical
inconven
ralph
reimbursement
orrery
silhouette
corinthian
counterparts
honeymoon
tutankham
aux
dys
lum
mate
nail
oval
pied
rally
##oot
##juk
##arms
##arium
##asive
reh
whist
haunt
hagg
##amiliar
##opard
neh
doomed
chasing
goats
liver
spiel
arawak
outn
une
broker
pert
repet
muff
syl
courbet
delivers
comeback
incremental
nightly
whitewater
morrison
terrified
salute
sunrise
debated
148
standardization
violated
119
motive
damned
russert
farmland
respectable
dijon
midst
ballot
benid
demonstrations
behaviors
railways
melod
ninja
1940
recipes
picks
##etti
sarawak
symph
ivy
detection
dissaving
nomine
coaching
pcs
tightly
theatrical
clarify
innocence
phrases
monarchs
collaborative
embarrassing
disgusting
tossed
##occup
illuminated
inclusive
jogging
parcels
interference
##minster
adolesc
hassle
wardrobe
mecca
disastrous
86
daw
ech
kay
lime
loral
mong
osha
vil
yale
##uke
##si
##oqu
##nt
##naires
##math
##bir
##jab
##onka
##uten
stack
sherman
fringe
chop
chant
leaked
leaks
##ifa
##ivable
##unity
##unks
adher
##ahan
crane
amy
implies
scam
rooft
unders
legends
backdrop
invading
regent
efficiencies
slot
slump
##conn
default
sins
capped
specially
humble
##iograph
importantly
touring
taxation
ideals
experiments
##crop
patric
##arried
socialist
pots
favorable
selfish
ensured
damaging
denial
venus
commenters
investigated
rapt
starving
straightforward
closet
murderers
targeting
drafting
mirac
gamblers
publishers
protestants
bailey
coordinate
soviets
##gregation
suspicions
bosses
reinforce
darn
klay
vicious
##laid
##keeper
reproduction
lisa
evolving
vaulted
veto
contingent
contingency
eruption
intervene
undermine
favourite
intoxicated
lecture
nickname
aldonka
cambod
embassy
bonaparte
lebanon
maritime
au
aims
bachel
dyl
dhs
eph
iber
jocks
linger
pessim
sink
tina
tucker
ud
vom
##lion
##pin
##bank
##atis
##isi
beast
##seum
prizes
shaw
negr
cham
chlor
##anto
exuber
##usions
yelling
##abol
abu
meiji
##ghia
##apur
##elago
unve
unse
agony
##ipelago
##arets
##owners
strain
needing
monkeys
moat
oprah
daylight
startled
nora
##attering
productions
turnover
ideological
archipelago
##ucky
wont
winners
filmm
##boards
163
snap
riches
hurried
germain
spani
combines
cubans
1947
certific
montmart
criticizing
deceased
illustration
managerial
proceeding
harmful
workshared
absorbers
byzantium
iraqi
thoroughfare
assassinated
withdrew
prescribed
rotten
leaned
hypothes
lagoon
browser
aristocratic
interfere
##build
oliveri
deductible
shepher
gourmet
dusk
hoffman
teodoro
outnumber
klayman
dia
dile
sang
vec
##nik
##wall
##cons
##cane
##vi
thesis
##itations
##arthy
andrea
##icans
##utable
sto
shipped
##estones
goa
yell
##ivities
arose
unac
crush
stroke
maraud
smokers
servant
backp
decides
##othy
##spring
delta
charitable
schooling
contam
deterg
investor
gaoas
camped
1800s
questionnaires
kills
labels
finely
argu
credited
fairness
##iquitous
conditioned
hillsides
occupies
mccarthy
breathed
ashoka
workshop
implicit
flooded
sugarcane
prosecution
prudence
authenticity
unwilling
##repres
grandeur
excavations
alabaster
unreason
greeted
allegedly
diplomatic
canceled
outrageous
infinite
ubiquitous
oxygen
mosquitoes
spielberg
512
dual
gul
iey
jum
lend
mcl
patch
wary
##uaries
##car
##kind
##gence
##gered
thai
##eda
##arming
##asy
beasts
##otec
hak
healing
shattered
thereafter
sphin
cluster
##acting
upwards
##ibus
compuls
brian
##akis
sheets
drown
roar
indign
bohem
marath
effluent
evie
discos
handwr
modify
##enees
edifice
signing
businessmen
insign
ceramic
admiration
understands
154
irak
antich
balk
richly
seafront
##ycles
appropriated
lowering
sculptors
babys
urge
1976
advertised
bandit
positively
forgive
safire
instruction
cowley
graduating
champagne
pyrenees
prayers
eagles
detecting
anticipate
exemption
casualties
broch
instrumental
renewal
niche
dotted
elasticities
##occoli
philippe
appetite
aisle
leverage
salamander
temptation
spontaneous
cafeteria
tutankhamun
arguably
ieyasu
sphinx
6pm
lith
rim
rend
roses
sard
yog
##nuts
##gun
##inia
##atown
inhouse
##itr
andy
##llation
recept
haifa
forem
##amine
##amoto
shod
seaw
exch
alarm
manners
arlington
grilled
crom
co2
rogers
##rofo
blocked
fines
throws
syner
invis
slide
discern
nationalist
mainframe
designers
tenure
acros
cheating
pleasing
vienna
periodically
coasts
competence
appearing
pressing
pollard
madras
hearted
banner
unfamiliar
##ambles
reformation
copyr
quieter
consisted
sensible
midwest
605
displaying
californ
consuming
danvers
irony
constructive
boundary
oversee
lifting
dimensions
exploitation
556
bernard
naive
whisper
rituals
resembl
premiums
butterf
lungs
himalayan
rifle
##colm
einstein
lonely
kinsley
benedict
ankle
galilee
giuliani
fowler
faculty
unsuccessful
unrestricted
iraklion
foremost
resemblance
aided
citing
dum
daring
fict
gond
mls
pk
pand
tame
wink
##wed
##cz
##bons
##74
##erpt
beings
##utt
harem
shug
knit
##alled
sphere
peac
aggr
##ishment
quai
offspring
interactions
##enco
centr
##issible
monster
footh
evicted
rested
proposing
barge
barred
completing
eman
tournaments
statuary
critique
paste
greg
execute
excerpt
immort
immune
euro
sentimental
murray
##ycl
optional
peacefully
preferences
corrective
venerable
narrator
1978
1979
safely
1966
declines
punjab
literacy
introducing
retrie
certifying
1952
transferring
semester
obligated
antoni
exceeded
nonfinancial
crawl
athletic
densely
folded
asserted
addictive
depreciation
impract
mckin
##hardt
irregular
declaration
benidorm
bachelor
copyright
53
750
cze
dough
dah
dire
dair
dwar
hog
jen
kud
lil
lapt
pd
pave
sff
tum
vint
wach
yor
##mes
##burs
##jack
thieves
tod
sealed
chios
sof
unjust
##ibu
peril
looming
quas
quil
interd
disburs
prefect
rochester
redeem
##ugs
carey
defines
proposes
autob
jonathan
palacio
refin
suck
operas
halted
harr
garde
solar
buyers
methodological
screened
teaches
violation
campaigning
sweaters
creativity
celebrating
##ophis
climbed
titled
dangers
mentioning
boxing
utens
gasped
colonel
dedication
##mosis
randomly
solidarity
promotional
suspects
satisfactory
bourbon
assignments
feminists
greeting
scrutin
prolif
confrontation
raiders
flanked
himalayas
safeguards
##eezed
jfk
inaugur
predecessors
adultery
florentine
garrison
beverly
rhetoric
trivial
lusitan
cucumbers
kuwait
insignific
czech
dwarf
87
bilingual
eternal
fits
gaming
huts
kas
lure
lorr
oath
pam
raz
sier
vern
vcr
##yrin
##gins
##inence
##atus
##itas
andre
bean
##otal
stap
haghia
##sees
prag
fren
knives
yeats
##ostyle
##ourt
arn
aroused
myk
graves
drastically
##oyd
lax
stras
##wealth
governed
##feld
rugs
edited
valenc
importation
contests
builds
postm
retreated
waterfall
menace
##quez
whitewashed
apocal
volley
tense
futur
suprem
regulators
poorer
labyrin
hilly
richest
goldberg
emergencies
militia
entries
jerked
galleria
sculptor
machin
indicating
rainy
dressing
integrate
senses
##worked
dodge
guardian
libraries
fellows
##ukk
converting
bulls
omitted
lucr
cocon
vicinity
solicitation
lambs
rabbit
loyalty
transmission
metropolis
mergers
surgeon
fiercely
interface
lamps
riots
##estimated
abstract
correlation
refurbished
karnak
autoroute
efficacy
pengu
curriculum
kittens
dylan
unreasonable
cromwell
sierra
labyrinth
hiv
koh
khan
nab
rendered
##iose
##yan
##gic
##dad
##vos
##bags
##enuous
topp
ingen
reactions
stip
haired
##urt
heal
##ationally
atroc
chess
cherry
proxim
##ivan
enrich
spans
spurs
##elf
unused
gra
gracious
brace
perennial
impart
##iane
blair
aftermath
invention
##icked
##ermark
persistent
##rium
builder
performs
concorde
airports
annan
refrig
passive
##elles
terrifying
steaks
activists
grandiose
renamed
strategically
bushes
greenhouse
sands
emblem
candy
glassware
##iesta
vacc
releases
dubbed
biology
hypostyle
thanksgiving
brandon
conceptual
strengthening
vastly
victorious
homer
satisfying
oddly
floods
clarity
reinvent
venetians
##waite
1868
albums
retailers
outsour
intentionally
abundance
gleaming
##immers
siena
fleece
nanny
ounce
accusations
fasab
etruscan
unprof
peppers
unaccept
antichrist
mykonos
lucrative
50s
baked
ggd
hann
kit
nl
ost
piss
poul
tart
tiss
##eer
##ski
##kets
##gie
##dings
##dling
##inarily
topless
inlaid
stumbled
prayed
##odern
chi
suh
proving
alger
allev
##abilia
lemon
canopy
spine
arrog
##eliness
outlet
donkey
clone
reserves
amused
thanked
interconn
drudge
scow
centrel
accr
firth
parado
parano
systematically
empirical
delib
skimming
mustang
issuing
2007
portfol
growers
177
encirc
multim
viruses
sonora
decisionmaking
alternate
embell
1969
1965
salesman
caval
bronx
brandy
repeats
strengths
memorabilia
champs
gangs
brilliantly
disciplined
confidential
mentor
ornament
concealed
privileged
drunken
##ienne
plaque
instructed
bureaucrats
serbia
geography
marshall
portrayal
imprisoned
remedy
sarcophagus
itinerary
lalley
brinkley
harbors
dilemm
##oteca
utensils
centrelink
cort
cbs
hath
hips
joc
mowing
y2
##locks
##sim
##nard
##with
##cases
##gir
##inished
##attr
##enian
##reuil
##arat
##ioned
bee
##amas
##ileries
conve
##abouts
soothing
enron
mangr
manning
arises
justices
anyhow
##izers
resume
resigned
##herent
exported
accl
accuse
caravag
betting
invitation
madeir
costume
dayton
obstr
sinatra
economical
signpost
##eeze
advancing
raf
patent
##olds
awoke
purse
envy
126
silic
turmo
devote
treats
malcolm
unfinished
chapels
separating
suspended
sensual
demonstrating
malla
cynicism
concentrate
adventurers
allocate
teenager
nomination
eclect
promotes
1917
neckl
weighs
repaired
tuileries
owes
assertions
ellison
cockt
cottages
exhaust
pregnancy
withdrawal
overwhelmingly
screwed
bastille
humidity
trimmed
disposal
hypocrisy
pesticides
prejudice
disliked
sovereignty
consortium
##anthrop
monstrous
griffith
santiago
poultry
y2k
76
82
aks
bip
cough
dart
dana
gem
jets
mou
piv
pend
rus
velve
##oise
##bin
##erts
##esy
##orical
##ali
ingl
##leiman
beats
##otesque
##vell
prized
asyl
suite
suleiman
mace
unint
grotesque
quir
intol
disreg
preambles
bois
thrust
##taine
##leside
remod
##lude
handmade
kinda
attach
setup
insists
viewpoint
pretended
portable
##leyman
chooses
filmed
constrained
##ovia
similarity
golds
violently
commonwealth
eras
ensures
massage
applicant
dennis
cathedrals
responds
ballmer
connecting
buddhists
ibic
giotto
ambleside
broncos
loggia
bulbs
pleasantly
montpar
volunteered
comprehend
proudly
digging
pedest
arcades
utilized
wounds
toyota
sikhs
inclusion
navigate
glamour
quayle
epidemic
catastrophic
indifferent
fundamentally
umbrella
ambassador
rajasthan
spaniards
seawater
proximity
asylum
nah
ov
pase
pup
ribe
tensions
vind
woo
##oos
##oiled
##wara
##dal
##orio
stig
hac
forested
shack
framed
##illas
ornam
knocking
alas
arising
##oky
##okie
pee
clown
incap
interl
cole
goodman
laud
cargo
smear
underway
reloc
empt
wares
cape
mete
watering
swiss
pretending
statistic
grease
dolls
villain
judy
judith
irr
solving
coupled
distress
styl
grandson
administrations
circles
madness
lakeland
junction
copied
stockholders
midday
pathetic
submarine
connects
entertained
tracked
northernmost
amazon
virtues
adventurous
1936
splendor
baff
absorb
ecological
##foot
dominate
flooding
assassination
hudson
bedrooms
embracing
rigorous
fulfilled
patriotic
enterprises
transparency
restrictive
stanley
mathematic
recruitment
rouen
rescue
dolphin
sesame
blanca
hosses
fossil
travelling
rectang
entrepreneur
rhythm
harmonious
lounge
contributors
elysees
kristol
sidewalk
autobiograph
refriger
paseo
ornamental
a50
battered
cites
eric
hunch
nrc
ria
ratt
##rine
##lie
##ystem
##bled
##oretto
##entious
stating
##ige
##aca
enig
spicy
plent
outwe
clues
timid
residences
broccoli
##agm
muham
preoccup
strung
undergrad
deco
makeup
opulent
highlands
fuzz
wrought
##gett
subpart
payoff
basics
handing
elimination
attent
endpoints
miners
minaret
startling
emerald
percentages
tempting
ideally
##althy
cretan
campan
congressman
enjoyment
terraced
thirst
juda
chevy
plea
debut
containers
humanitarian
inflow
despair
subjective
dukes
medication
wishing
pulls
philanthrop
ignores
occurrence
journalistic
horrors
mixing
floral
jewell
telegram
chiefs
videot
hype
breathe
bowls
prosperous
##guard
inspectors
derwent
1922
##urbar
cigars
migration
##kaido
vicer
iranian
resembles
fluid
cautiously
compatibility
revelation
disposable
fossils
##nasse
fidel
trigger
horton
grafton
anatolia
exhilarating
invisible
insignificant
strasbourg
paradox
mangrove
caravaggio
turmoil
montparnasse
outweigh
aar
dag
eats
gust
laughter
misc
ner
pom
rph
sul
tant
vp
zip
##erite
##esign
##orient
##edded
reims
##adi
shir
##opia
##este
##kee
orph
lia
liz
liabilities
##acs
arte
##quer
sag
clinger
agra
resid
brim
##akusa
##agu
welles
hercul
overp
overhe
interchange
discharge
strive
indict
smashed
##ogues
afterward
moist
backwards
reload
parcel
supplier
depr
corral
##ashi
mailbox
typew
apache
arrows
harmed
figuring
roadside
presenting
administers
antilles
assisting
lighting
universally
entirety
halles
custod
radiation
quarterly
##working
suscept
##guards
shelf
spectacle
barbarians
##efin
surfing
hyster
widow
darje
pitcher
cheerfully
##keepers
corresponding
nazis
bernstein
feminist
patrol
kissed
persuade
diplomacy
balearic
disgust
gerth
wreck
rescued
timbered
unspoiled
admiral
reversed
fontaine
mathematical
amphitheater
##erienced
##juku
symphony
volleyball
unacceptable
eclectic
darjeeling
dh
ginger
heter
jams
kod
yo
##mail
##jima
theft
##itism
##asions
pric
##ayan
##imeter
withhold
##erees
dolly
chee
chunk
exor
bypass
sob
abol
noises
##endously
peek
upright
compelled
brake
##grams
wholly
expatri
herald
scal
scars
preview
boiled
margu
smugg
blows
blunt
##ancies
informative
johor
scheck
huff
callers
surm
surreal
modules
defl
metic
metabol
barcel
avant
skimmers
daff
electoral
collects
criter
patan
harlem
successors
##overs
poses
texaco
accessed
corpses
cannons
##iker
entrances
honour
damages
inspire
gallon
noticeable
cookies
tiered
mandr
investigative
deductions
flexibilities
submitting
qualifications
adjusting
constitutes
weddings
vacationers
lakeside
proceeded
courtyards
coordin
youthful
mentions
palestinians
ferdin
conceal
exploited
inexperienced
astronomical
rationale
owing
voluntarily
legitim
indoors
mamel
ancestral
organs
amenophis
hungerford
somber
downsizing
unstable
kendal
sparsely
meadows
vigorously
zarco
nehru
adolescents
barcelona
dared
horm
jol
juries
lss
lingu
nik
pony
rained
sz
von
##rest
##eak
##eenth
##woman
##yoshi
##paper
##patient
##hir
##hour
##34
##otting
isab
##utta
##eterm
whale
shred
##ilant
fract
##ersen
##illery
chast
kne
aligned
leak
spit
##elong
adri
imperson
coe
righte
##ucking
relates
parc
downstream
##ilyn
edges
earns
##redict
metals
curved
admits
admirable
possessions
clintons
grouped
refusal
morbid
supportive
apath
behold
varieties
summoned
satan
staffed
virus
ridin
savage
gardener
##zzar
##took
suspense
1977
fashions
hostility
fascinated
inquis
samos
negotiation
orientation
deposited
adequacy
incorporates
hideyoshi
accomplishment
bleak
disappointment
##proof
tanf
1919
dunes
smoothly
dictators
benches
1871
offsetting
cycling
lsfo
prototype
databases
bacon
cooperative
condemn
merged
tangible
rouge
coincidence
vaguely
echoed
impatiently
sweden
nassau
macroeconomics
cushion
pencil
ductwork
cricket
grasmere
stagnant
cedar
muhammad
campanile
lssm
91
cim
fade
gases
jay
nia
py
##ement
##uations
##schild
##cal
##kakis
stag
stunt
##secr
heated
##amar
notor
consecr
##uled
dose
gogh
manchester
outlines
unauthor
clergy
##ishi
brock
amun
##vency
intergo
##ensing
##roe
blument
flaming
invari
parl
joan
##urned
genes
idaho
cityel
depiction
realities
##centric
charities
pointless
transit
continuously
infect
tenant
157
distract
##onto
174
texoma
protections
specifications
eighties
##boro
duly
dukakis
malibu
contracted
115
spanning
##igraph
integrating
urgent
truths
melanch
dramat
relaxation
quantified
shuttle
recovering
extensively
digit
upstream
kosher
291
puerta
avenida
swinging
puppies
alleyways
unexpectedly
vigorous
troubling
fetus
wicker
bombed
envelopes
hispanics
landlords
asserts
theoretical
cherished
vieux
conscience
dwind
miami
subclasses
blinked
livest
trinf
matthew
lukas
relevance
piedmont
hypotheses
shuger
inglis
plentiful
typewrit
intergovernmental
blumenthal
dash
dante
het
mg
mocked
pans
rays
##lamation
##erted
##atism
##esc
##orial
##alified
inel
inns
hailed
fork
##chamber
##igured
##imon
deity
dove
chow
gosp
oranges
exxon
alaska
##outed
manson
spared
unab
upheld
workmanship
offenders
expose
oversh
##uez
interval
##formed
##pton
##lico
##intend
undes
flashed
##icking
locks
redistr
edmund
defender
defenses
propri
believing
formations
meditation
glor
taxis
runner
nightmar
camper
namely
waver
harold
authorizing
anto
antitr
competencies
definitive
##linary
julia
keyboard
shrunk
virgins
sexually
correction
jesuits
missionary
disposition
garn
alternatively
mountainous
warmer
premises
babylon
cooling
strangely
thankful
1955
consultation
afternoons
licensed
1923
comprise
adviser
commanding
fabrics
revolver
cooperate
dominates
whisky
scarves
flowed
prospects
parliamentary
darned
##affected
flags
stadiums
exclude
hypothetical
elevator
peasant
deliberations
frederick
##nihan
commemorate
bastion
triangular
rebuilding
blessing
moynihan
confederate
alphab
endangered
irritating
disguise
sullivan
lobster
tadminster
santorini
prolonged
yugoslavia
montmartre
lithu
deliberate
dilemma
aksa
mandrakes
unauthorized
livestock
antitrust
ducks
ee
gw
hing
hides
kannon
lance
lament
maced
nud
nets
oven
sque
wipe
##far
##xy
##ener
##orable
andersen
##iso
isle
stink
stakes
haze
##thr
##adas
shine
frances
orang
sums
##abl
canoe
spouses
##elieu
donating
cloning
reside
acoust
crab
interact
disasters
##berry
strokes
##licable
commut
marilyn
##solete
##ogene
undergo
monkey
highways
keb
evocative
obsolete
handica
elche
elbow
contend
extends
tradem
activist
futile
##ontal
colleague
potent
squad
snacks
richelieu
birch
hopeful
copd
physics
denying
respectful
excellence
uttered
touches
behaved
2018
unpredict
occupy
gladi
daddy
3000
dryly
symbolism
bleeding
ottomans
lesvos
outlawed
feroc
sanctum
translation
graveyard
pouring
crawfish
inherit
flourish
horns
diameter
enclave
bazaars
slaughtered
oasis
bakery
unavail
confronted
jennings
afghanistan
mundane
mitchell
twenties
rosenberg
colossal
segovia
handicraft
pertinent
fictional
proliferation
lusitania
criterion
cds
ditch
fuss
gamble
hok
oy
pines
tile
vitt
vene
##offic
##mip
##anor
##reet
##stones
stam
haute
##igu
##iger
notify
seleyman
liar
prostit
abolished
donalds
unload
clun
closes
uphill
cranes
quarr
reputed
serra
drowned
##berman
prey
relent
kemp
popes
childish
companions
nearer
refined
equals
continuity
inflic
varanas
summaries
misses
ego
recordings
encry
encycl
turin
alcoholics
accepts
furious
shrinking
##iken
138
135
firef
georges
primitive
exhibited
remainder
darker
louisville
misrepres
hostel
truthful
sharks
tasty
freshly
marched
limitation
lieuten
bullets
robin
berlin
diversion
variability
harmless
praying
overseer
bustle
crusades
torre
utilize
crook
margins
powders
recalled
pulpit
correspondent
riverside
stevenson
flourishing
##ulsion
undertake
ellen
coronel
geared
chinatown
patriot
whipmasters
phenomena
skepticism
vaults
emotionally
cassettes
salvador
weeds
relieve
kiosk
parcells
tidal
safeguard
ounces
alpha
alpine
embroidery
indonesia
mercenary
luther
volatile
veronese
predominantly
charisma
cunning
dismantled
bubble
wholesale
vecchio
dairy
judaism
ferdinand
righteous
donaldson
quarries
varanasi
aide
ooh
pipe
rushing
sinking
##tec
##vo
##bly
##11
##edi
##edia
##alt
##icated
##icable
whir
##sex
##cell
hewn
##imil
chir
knox
##osion
##ocl
##oco
clans
##aha
##ahu
usher
bricks
##grant
##akt
thinker
incur
coo
scorn
apples
indefin
guad
monsters
decad
preserving
##mmetr
belgian
revise
demograph
barth
posters
mush
hourly
refine
##ello
improv
##uffy
##lique
measurable
periodicals
squeezed
penis
godfather
142
112
132
139
firearms
animation
expressions
packets
messy
corniche
tarzan
affords
martial
1973
ballroom
camels
declares
rentals
mexicans
comparative
uniquely
conflicting
samuel
carriages
advisors
conservatively
randomized
commanded
byzantines
calmly
teenage
pedro
smelled
lords
streamline
sacrifices
boulevards
lesb
##respons
cousins
maple
mahara
blacksmith
weighed
exemptions
pulse
barrier
lava
cowboy
protocol
consolidation
instructors
resemble
genuinely
accumulate
triumphant
proclaim
##itarianism
tapestry
yachts
indirectly
discriminate
swallowed
invalid
jfmip
entrepreneurs
extremes
##prints
gauntlet
mckinney
inaugurated
unprofitable
meteor
liaison
overshad
83
bids
gad
ka
kobe
lug
lenin
oira
pairs
sack
yr
##rs
##rous
##ridge
##iac
##pc
##orth
##oux
##omot
##lee
rearing
reilly
isa
##iders
stain
##chrome
##imps
##ollect
shrew
##ilitation
seiz
##oding
##keley
congl
##osium
abound
spire
pebb
anyways
resumed
brute
crumbling
repeal
herd
overpay
bully
strand
carre
backward
fuels
belle
slack
disco
locomot
##rawn
##aze
cavern
barc
barrels
avis
skirt
glen
affluent
switzer
northeastern
passages
trader
harp
promont
disturbed
espn
devised
recommends
masses
inspir
broadly
tiers
prediction
tarn
sensation
splash
convict
sharon
##class
sorbon
odys
dreamed
spreadshe
illegally
sprink
volunteering
symposium
kitchens
##iye
702
arcaded
vulgar
basilique
tabs
hesit
hesitate
cuisines
frustration
hastily
verdant
bhakt
bureaucratic
polychrome
breezes
vendor
tremendously
dwelling
diamonds
disclosed
gutenberg
proserous
batteries
deterior
syndrome
imaginative
friezes
persecution
insects
uneasy
thurmond
guillotine
briskly
kagoshima
##eveloped
detergent
bohemian
postmodern
a504
priceless
marguerite
conglom
switzerland
bhaktapur
fau
fading
gems
gerald
hitt
ie
jade
pamp
render
terry
##rith
##ele
##kh
##gon
##maker
##vara
##hall
##ju
##atro
##aly
##etz
forrest
##urances
prc
##amous
##term
notification
seals
lipp
liff
abuses
sperm
unsc
##endum
clad
clich
myr
broth
impulse
interiors
scour
##ensional
roger
blur
backwater
polo
##ysis
daytime
showcase
rup
enduring
minarets
lethal
barber
speculation
curt
nationality
complement
detached
walt
admitting
passport
##upulous
billing
clearance
arrives
computing
penrith
dominating
turbul
bonuses
unfold
sweater
separates
embedded
juven
instituted
measurements
##maid
straits
punct
eyebr
progressives
francs
appreci
etienne
calcutta
imperative
occupying
matrix
counterpart
textile
belonging
publishes
ashes
chronicle
updating
streamlining
pinker
vulnerability
heavens
rodin
depths
rusty
prophecy
patriots
tutmosis
persuaded
worshipped
automobiles
muscle
sustainable
stimulating
enlightened
swallow
upgrade
bundle
paramount
inscriptions
12866
scrubber
theodore
slammed
remnants
implants
enclosure
foresee
encompass
endorsed
scrolls
restructuring
laptop
coconut
goldsmith
kodak
cheeks
hokkaido
encycloped
##mmetrical
liffey
aides
baking
bows
ds
gin
gan
giza
hires
jeez
lining
rag
vit
##afe
##nc
##wind
##gling
##person
##boy
##zi
##aluation
ster
pruss
##chre
##chief
##igl
aspir
dele
congest
chanting
chrys
orrin
plots
hadrian
outta
outfits
##emon
clash
grove
##agar
crock
herb
intersection
##ecanese
maroon
undist
decay
surcharge
depended
rug
##rio
##ilton
confuse
portals
##cedes
apse
extensions
capitalist
##autions
supermark
irrespons
executions
sounding
chef
cheat
envision
specification
footage
recognizable
polling
erlen
divides
trustworthy
momentum
dinners
perfection
combinations
slee
##yrus
precautions
giac
tasted
tasting
dodecanese
1941
snowed
cabins
##doing
cellular
bounds
blockb
##iptive
##offs
inventive
bolts
29th
portrays
philosophical
dismissal
aggression
observing
pulitzer
benchmark
vineyard
inherited
reluctantly
tolerate
barracks
browsers
stringent
commemorates
aristocracy
corridors
triangle
adaptation
disorders
synthesis
toothp
plummet
embroidered
caravans
hamburger
liveliest
##writers
mclaugh
##ukkah
alleviate
bipart
incapable
viceroy
invariably
erlenborn
ao
akin
duration
diane
font
fitted
gt
hend
jup
krake
nist
pang
wiz
wann
##oire
##kuji
##mons
##pas
##don
##esus
##onne
toe
##ario
beware
haps
##opus
##opian
##estimate
neon
trav
##umbs
clip
timeless
grotto
brant
##ureen
perot
crone
crater
croses
imposes
incarn
intends
accusing
flawed
symmet
relocation
regain
regained
opium
presently
polished
##ermo
showrooms
realization
talm
charred
postp
eminent
insured
sworn
palhe
##places
landings
collector
continent
excise
##fukuji
turtle
renoir
pressured
eleanor
wonderfully
##yck
fairy
void
destructive
unfiled
merry
motherhood
##eteries
discoveries
climax
cambridge
flynt
compliment
usefulness
spectator
hellen
tunic
roofed
montreuil
defeating
negatively
forthcoming
galerie
1920
sarah
hawks
rumor
eccentric
whiskey
attribute
attributable
clarified
spells
altarpiece
aggressively
teresa
unlocked
dragging
hammered
lamar
juanito
surgical
lodges
marrying
hubbell
cemeteries
kissinger
instincts
warranted
borrowed
stereo
glamorous
wagons
sociology
plugs
gratitude
swiftly
ruthless
adorned
cpas
robbery
titanic
issuance
guru
tintoretto
glittering
##olithic
undersc
certificate
butterflies
impractical
vintage
lorraine
inelig
handicapped
trademark
isaac
mclaughlin
bipartisan
krakew
2nd
cokie
fc
nub
pisa
routh
tene
ucl
wend
wyn
##nbc
##gies
##fold
##anny
##rell
##otam
##igs
##irth
##amo
shab
sean
seating
segments
##odles
chilly
canon
canoes
enr
outlying
peep
adhere
perkins
##agement
loads
imputed
herbal
disburse
##ignant
acclaimed
recalls
indec
rightly
bets
parr
parody
parque
helen
hump
huang
subl
slice
housew
discon
obed
modem
endow
sinister
propon
mets
avignon
glac
manageable
##roned
campo
sanction
limp
villager
armenian
sunk
shortfall
vii
##parable
squash
silo
walkers
normans
settling
avoids
bonnie
fireworks
surrounds
##heads
conducts
linkage
bankers
rainfor
1971
disputed
benign
weakened
sleepy
loser
miracles
fascist
fortunes
##haus
porches
backgrounds
sultans
mystical
ringing
disagreement
leonard
lindsay
uncontroll
reproduced
feminism
forecasts
tackle
kleiman
parallels
##epsut
plunged
pesticide
unhealthy
sacrificed
pledge
pfizer
peanuts
koran
ptolemaic
kelantan
amusement
quadr
baghdad
densities
iberian
quasi
juvenile
routha
ucla
bats
kerr
kitty
lig
mim
mack
mals
nou
rash
sorrow
##pool
##dled
##van
thar
##itomo
##icious
##leboro
bellow
stubb
##ayama
##opotam
##ilian
coniston
goof
exchanged
##abar
sox
meek
meats
cano
enables
spikes
##quist
donor
unoffic
clois
ade
graff
crest
coch
cogn
##pta
boo
needless
##roach
##eph
smi
##onduct
monolog
flut
folly
politely
##atha
statehood
lawmakers
subsection
eloqu
attleboro
moderates
seti
minamoto
##ietal
##insured
numbered
confessed
waik
departed
activated
burge
holders
##otti
squat
simpson
casting
30am
woody
royko
float
##iko
mercedes
preferable
mortal
precinct
flora
coffin
warmly
briefing
dubious
melting
unpre
tunes
bellini
quantities
sprang
cellars
galata
mechanics
fraudulent
sticking
berth
pills
270
winged
coordinating
nominated
chronicles
essex
utilizing
stresses
cummins
landscaping
wheelch
mythology
##accio
stevens
incidentally
administering
habitat
sympathetic
disgusted
mummy
trekking
robertson
hurricanes
hanukkah
mughals
enactment
predecessor
fancied
shinjuku
twisting
voyage
retaliation
ultra
unanimous
motorcycle
paralegal
sffas
machinery
niaaa
consecrated
unpredictable
venez
jupiter
cloisters
waikiki
5pm
bm
bidd
dj
dizz
fsis
kota
lub
ply
pau
sans
##lif
##tm
##tel
##not
##cia
##kill
##zart
##enot
##alle
##asm
reacted
##opf
nec
consec
charts
sumpt
##antau
##osseum
allotted
enab
spill
arsen
##astics
unattr
advers
griev
groan
brac
crashing
herring
##ueva
scored
rooted
recount
recollect
indisp
colosseum
decisive
invoked
##sels
parried
toobin
slid
capac
booked
watchers
designate
societal
confine
internationally
classifications
##cedented
archive
raided
caletta
arranging
harvey
listings
breake
authorize
cheated
immoral
1200
viii
esplan
snowing
screams
freak
deviations
hunted
replaces
sexy
greenberg
chancel
doctrine
venge
originals
restrained
battlefield
jeep
weaker
petr
frankly
marching
starring
psychologists
bothering
textiles
neatly
berkeley
succeeds
transforming
distinctions
exploratory
heroin
compensate
cigar
kennedys
ecst
omission
streamlined
lucy
exceeds
spelled
rampant
stressful
axis
optimal
owed
reluctance
rustic
##uminous
stanford
browsing
cancelled
pronounce
parameters
mitigate
browse
cypress
nostalgia
overlooks
izmir
flick
cohort
##giore
##2001
bookshops
glossary
sausage
arbitr
ephesus
pavement
gravel
nlada
melancholy
promontory
graffiti
unprecedented
indispens
breakeven
esplanade
eup
iq
kum
lenders
pj
waking
witty
##eau
##tans
##tower
##yer
##22
##anity
##itory
##isen
reigned
##step
stove
stems
whipped
hauss
forge
angr
weis
##adena
asians
##tering
concess
golly
tricks
soak
abbre
abusive
##orting
##ighting
cancel
spor
##ums
plac
mao
##actors
implying
incense
incidences
everest
##acha
coke
disd
poignant
rogue
recons
guiding
assisi
##ometer
undergone
##osses
mozart
##aternity
flashing
foil
genoc
slipping
warns
baskets
delir
nationalists
glared
entails
palermo
majors
conferees
portico
cretans
newshour
##ells
pawn
breach
filters
##otta
169
musician
debating
determin
definite
driveway
acquaint
creator
retirees
discovering
crossfire
tendencies
tomato
misstate
garm
angelico
interviewing
oils
narrowed
retrosp
ambiguous
augustus
tribun
lieberman
vanity
appealed
horsesh
picn
imperfect
lifelong
amazingly
bobby
nursery
defendant
clicking
##marking
allocations
disciplines
torah
torches
coaches
pierced
hamilton
exploiting
vicente
unlv
excludes
excluding
instructor
acknowledging
stunned
tacky
cloudy
pasadena
incomplete
stirred
##perfect
populist
applauded
adversely
synthetic
terminology
descending
subtit
moyers
unqualified
rehabilitation
nostalgic
mathematics
ethnographic
caravan
soder
plagiar
tabloids
epitom
sparked
unveiled
balkans
exchanges
embellished
velvet
pomona
hetel
inspirational
sorbonne
irresponsible
bidders
abbrev
dyck
ff
fib
ferg
gyp
gabled
hart
len
lanc
mourn
nast
pash
raging
tink
ull
vases
##ulls
##oidable
##nings
##papers
##bone
theology
##onaut
##aned
inex
inmates
##itud
##icular
isis
thatcher
haunting
ants
##amud
shim
shuff
shark
nept
frug
##ulator
ornaments
lique
##iview
uninsured
compiled
brig
brag
brava
percept
crags
repuls
fearing
interstate
intu
somethin
monso
flushed
##teenth
securing
polar
evoke
empires
discred
##rapped
artworks
skulls
severity
menhir
##lessness
203
armored
winnie
youngsters
culturally
cement
solitary
plead
127
##istery
styrofo
assistants
146
sufficiency
honoring
packing
doubted
ledford
skyrock
philae
balloons
jeopard
bandw
petra
retro
bronzes
comfortably
danny
unprep
logistics
ironically
semic
illustrating
lengths
praises
cellar
mechanic
hawk
falcons
succeeding
disagrees
delicacy
accompany
crochet
koreans
aeo
therm
prohibits
exploits
rodeo
exempl
angles
crawled
apologized
auctioned
infert
bulletin
horizontal
baptistery
aristocrats
reckon
immensely
canadians
clutched
brazilian
hollings
corso
untrue
wigand
resentment
overthr
rhythms
apostles
impaired
mercenaries
rajputs
ebay
tabloid
sepulcher
ascendancy
newcomers
wyoming
tattoo
unexpl
footpaths
outnumbered
penguin
redistrib
unavailable
unscathed
pjff
styrofoam
barts
cc
cadd
dion
dsp
gaud
lous
lured
mish
pree
sara
viv
##list
##hame
##erary
##inette
##escent
inequ
##itives
reimb
##owered
hep
##terr
neil
comf
suez
liable
troph
truman
sofa
allig
outright
outbre
outcrop
unear
unaffected
cla
clam
clocks
##ibi
grues
grapp
##ishna
##ahang
coated
##berland
roared
guild
marm
assimil
throng
monot
backup
deciview
fools
sliding
townhouse
organizers
simone
specim
postwar
##opez
funerary
guessing
wales
menor
crept
internally
annunciation
paints
nativity
archb
infamous
policemen
calder
sala
pasta
centerpiece
texts
immunity
britann
123
specializing
staffs
167
grandpa
container
desperation
134
reformed
greenery
saintes
momentary
merge
expressive
##loge
shareholder
venom
diasp
wealthiest
hosting
collins
utmost
ethic
piles
pilots
colonists
bikes
thankfully
1958
aiming
academics
seekers
meatballs
pm10
falwell
rejection
supervised
divorces
skelet
assassins
switching
philosophers
cumberland
prescribe
##breaking
pineapp
axes
tolerant
stalact
niches
precedent
fetch
puzzle
vividly
surgeons
hatsh
##ranos
whiteness
vocal
invaluable
dividends
croseng
sarcophagi
slapstick
unavoidable
confronting
indonesian
intimidating
reinforced
plagued
anecdotes
dessert
enlarged
conversely
nominee
atrocities
silicon
rectangular
custodial
typewriter
antoinette
odyssey
palheiro
stubborn
fergus
skyrocket
dspb
reimburs
gruesome
3rd
durbar
hick
hinter
joking
pact
pint
yu
##nox
##gore
##jahan
thail
ist
##stood
hab
hein
anten
##olent
shun
fry
##illon
goin
knosses
##istas
##osystem
##ivol
##unct
unscr
unesco
##ocre
sapp
justification
##ahoo
server
mug
coaster
scales
laura
assuring
assurances
probable
syrian
longterm
contrace
highland
slipp
slashed
obnox
edit
mino
minisk
lett
demol
fundra
##tened
runaway
admiring
analogy
milliken
nighttime
termination
behead
generosity
106
posing
##naire
171
egus
deviation
despise
referendum
keyes
116
##adesh
culturebox
inspires
wordperfect
cardiov
impressions
urges
sensational
frequented
##ascular
declaring
apparatus
doubtful
dodgers
drafts
1946
repeating
cruz
robot
reconc
watersports
masada
porter
gambler
nymp
commands
commandments
digest
appointments
inventories
ecosystem
volcanoes
nicar
stamped
huntington
jacques
tailor
1915
grabbing
360
tricky
orchids
unreli
blooms
##borne
drums
diminish
shahjahan
unmarried
battery
endorsement
braque
helicopters
troopers
subclass
belgium
mediocre
gloomy
inaccurate
bewild
discontin
carthaginians
nebbish
inconvenient
chlorine
tissue
nrcs
shrewd
overpayments
enabling
capacities
thailand
unscrupulous
cardiovascular
650
a2
bins
cind
hitch
jess
jaws
kon
mour
mend
mism
nether
nerves
panc
rall
tying
vag
zinc
##iably
##avers
##qs
##wau
##vill
##zac
theres
##arin
##ication
stif
forts
prair
asy
shone
noticing
chore
##antics
mex
##apid
maureen
peach
teem
##ongru
grape
reson
resale
bru
workpapers
ams
incongru
quays
##achi
herz
herman
coerc
disbel
tweak
apprent
poisons
strips
accuses
roasted
marig
##ogen
underwear
legged
flies
relinqu
##landa
provoked
eva
supporter
wrink
wrench
calligraph
surpass
modes
redesign
endured
caen
meter
median
postc
businessman
communal
buddy
electorate
churchill
refr
treach
continual
raikes
calip
maggiore
harg
harper
107
beachfront
##shaw
solvency
specialties
##swater
woodland
malamud
livingston
floats
neglig
savvy
broadband
gallic
swell
averages
##zzi
farmhouses
philips
waiter
1962
spirited
petty
ambition
tougher
novelty
weighted
picardy
tuna
quantifiable
mcgr
sprung
boul
unsafe
stakeholder
comprising
1939
defendants
honesty
homage
ventures
ridiculously
crooked
hawaiians
blankets
hesitation
yielded
rodrig
orchestr
unfairly
compromised
wolff
undertaking
pumps
bathrooms
luu
foreclos
rivas
dwellings
dumped
replicas
expedition
chatting
bosnian
rifles
descended
composer
golan
marxist
misunderstanding
seminars
palladio
rediscovered
jumbo
pdfa
irrational
mathematician
susceptible
lieutenant
demographics
symmetry
ullswater
neptune
lousy
hatshepsut
bould
bail
eia
emm
ecl
fidd
giles
ils
kap
kais
mp
rips
tac
vase
wired
##eux
##wire
##edes
##ouded
##requ
##isite
beers
##stered
onion
##ete
haunted
##iri
##irlanda
weep
shik
##oper
##esses
chores
proxy
##acz
trays
aloud
manor
maids
maui
clause
agitated
brom
peru
##agall
sheikh
implements
##aceut
drastic
strat
accred
reclaimed
bog
carlo
carville
evenly
fined
flush
foal
invasions
programmatic
##ulars
cityof
##ologna
talib
prodig
hover
delights
meth
glimps
##xton
##belly
milwau
concise
walcott
analog
southwestern
interns
204
critically
ordering
sideways
singh
irres
socialists
identities
purity
egal
poorest
pleaded
staffers
fleeing
forefront
damning
inspected
parisians
initiate
diab
indianapolis
607
609
disposed
gradual
jamaicans
odor
chapelle
ghirlanda
cabaret
converts
1930
protesting
homo
fooled
##heimer
compensated
synonymous
craftsmanship
toronto
ominous
pads
deserts
pitched
juror
anglic
1890
excavation
fulfilling
outraged
passe
merging
gravity
kimono
reunion
nasser
endeavors
lynch
sopranos
airplane
untouched
deregulation
clustered
incompetent
immortal
harrer
refrigerator
adriatic
trinfan
guadal
brantley
hellenistic
canoeing
consecutive
aeo2001
overthrown
teeming
hargarten
kaiser
ghirlandaio
812
aus
bending
bung
cages
dipped
elic
eco
fann
hig
jc
lid
nun
nca
raves
rios
sers
vans
##nal
##py
##pace
##dles
##bath
thwart
##athing
ing
inad
##aser
##isation
##idth
hare
forged
pri
##irac
hears
wein
deed
nea
neoc
##odils
frost
frivol
sue
trous
tramp
soy
lehr
##ardom
##uder
maneu
##uming
plath
plunder
arl
unification
saff
clog
teatro
loft
logo
overload
intently
coherent
##ecks
strings
strenuous
roch
recurring
##robor
##angu
monroe
decency
secrec
preserves
##yslaw
generic
subp
subgroup
slab
emph
daycare
basse
phant
homeowners
revis
delinqu
corrobor
hardened
aviation
detour
insur
beneficiary
statesman
newsday
raff
calv
salle
##iddy
10th
mounts
distrust
sung
121
inflated
despatch
achieves
144
malabar
priorit
colder
letterman
catcher
catches
complac
captivity
narrowly
interventionists
exercised
##world
straightened
holyhead
ambival
certifications
nodding
picc
deceived
conventions
robbers
launches
workshare
##tresses
resolving
alfonso
gaap
exclusion
auditorium
scholarships
mentality
graphs
impeached
unlucky
levi
simplified
crawling
hazards
puppets
patrons
warranty
pavilions
inconsist
bergen
disadvantages
ingredient
bookstore
inscription
cpk
rousse
accelerate
colonnaded
trooper
sketch
##lassical
disapproval
fronted
blonde
miecz
mormon
melodr
arnold
supremacy
arrogant
acclim
fuzzy
daggers
overheard
meticulous
daffodils
jolanta
propriet
undisturbed
sublime
haussmann
weisberg
bandwidth
britannia
obnoxious
taliban
milwaukee
neoclassical
lehrer
secrecy
mieczyslaw
9x
aix
kg
lido
motto
ricks
tides
waving
zo
##rate
##eb
##ein
##eaux
##wright
##cult
##di
##bson
##eried
##esi
##editary
##algam
reins
iso
##utic
forks
##chem
hew
##imo
sherry
deaf
##ulus
chorus
orih
trot
##abal
##ostic
wors
##outine
##alla
##alling
enters
mahab
##oculars
##acteria
grah
##isha
peripher
getty
cramped
loot
expelled
repos
hereditary
overha
intercept
##ittal
scalia
##avier
booth
colomb
underwent
##ucco
evac
warlocks
deport
phall
##spe
attire
endowed
edict
publicized
minus
sinan
revive
revaluation
cork
corb
skating
milestones
funn
employs
accountant
risking
raiding
generalization
understandably
responsive
irrad
fisherman
##apeutic
geological
stepmother
silks
sentiments
walkway
famously
lighted
devout
devoid
303
juliet
opted
fifties
preferring
stationary
doubling
restraint
marty
misle
miscell
avoidance
liberated
premi
petite
freshman
bordeaux
searches
slightest
1953
shelves
advisor
emphasizes
801
sexuality
forbid
forbidding
sultanate
comedian
##aggering
globalization
enthroned
steeple
croat
croaker
pacif
krishna
sustaining
chateaux
modesty
pitching
ainu
recruited
gazed
thursdays
charleston
remotely
rivalry
spears
allegiance
stalin
papacy
harshly
aquatic
stanisl
geographically
kilometer
##from
queer
rebellious
wandered
tyco
vincent
mistakenly
rothschild
intoxication
culm
piping
overcrowding
bookstores
subtly
strawberry
##eanor
penetration
tamil
tornadoes
swedish
curtains
##course
perfumes
binoculars
volatility
ipo
mascul
chandel
##hydr
disgrace
maurice
carpenter
obliv
centrally
cocktail
jewellery
indefinitely
gadget
unofficial
vengeance
lettuce
unreliable
sersa
orihuela
graham
miscellaneous
aur
berman
ci
dna
gown
hound
heston
lending
longh
lantau
nig
ps
zones
##uates
##turn
##nath
##kit
##mouth
##bush
##hart
##99
##jc
##orose
tosh
##staking
ons
##idal
##etyp
stump
haut
anj
##imented
##ilcar
deir
fris
fridays
##ulatory
##ulators
##erem
chagall
liking
tracing
alm
alice
abre
abil
ard
##asties
##astro
upbr
##ibles
grunted
themed
perakia
##agency
repayment
herbert
serial
coarse
##aval
recitals
induced
guise
guerr
afar
carmel
smoker
undergoing
##anca
##issa
decim
decree
##athos
evangel
genres
kindness
redef
endure
estuary
chariot
hardwood
posting
skipped
insens
keepers
campground
painstaking
1812
begging
authoritative
researched
agreeable
accessing
squeeze
distillery
snar
despised
##iums
hallway
##ika
erisa
applicability
expressing
superf
cardboard
documenting
kmart
##sett
tariffs
sadness
mickey
precar
convictions
hostage
sharm
releasing
distributing
martini
psychologist
revolutionaries
1959
##anche
confirms
textbooks
resistant
clicked
dynasties
belongings
wilshire
understate
convened
overseeing
rumble
disciplinary
rhine
rhym
sponsoring
skiathos
kilgore
nicole
hamilcar
distinguishes
catering
inherently
cycles
feminine
tiep
transmit
nicholas
sweeps
josephine
persuasive
bucket
nonexistent
1789
adapting
survivor
wrecks
alignment
invalides
dreadful
harvesting
zionism
antiquities
siblings
remembr
hissed
rehabilit
##court
disguised
indulge
disparity
gibson
pharmaceut
veronica
encompasses
categorized
enchanting
gnp
outsider
outsiders
succumb
crocodile
discrepancies
hathor
##oriented
garnier
fcic
unattractive
indispensable
angrily
genocide
unearth
archbishop
ferguson
minoans
upbringing
05
7th
bc
berm
eust
foul
gag
htm
lour
lah
nails
ostr
oss
pse
rw
vos
wry
##rons
##test
##non
##wether
##yo
##gna
##zter
##zek
##atr
##atur
inhib
##aru
##asa
##entials
ise
##sell
shant
shipment
##opatra
chania
comr
suites
##antes
##anders
soaked
lex
ensemb
spurred
##ourse
noodles
unacc
unadd
cliche
grizz
compel
brib
##gra
##aku
lofty
twitch
centres
robe
boaz
marion
underestimated
##ateral
floppy
foes
programmers
paras
downpl
handbook
redemp
edgar
factions
believable
cleopatra
audible
booking
sitter
hottest
testoster
##critical
##opper
newslet
congressmen
infected
improves
freeway
extinct
extinction
salads
steer
clearer
eyel
capitalize
harrison
judah
cez
researcher
christie
doorways
netany
wrongdoing
referenced
114
connor
##loo
packaging
englishman
principals
dori
candles
institut
##itorial
misery
1963
dispro
horribly
horrendous
verbal
printers
heavywether
melrose
etiqu
wedlock
1949
rosewind
unpaid
cupola
constructing
announcing
concerted
robinson
1931
speeds
subsidize
accidental
homic
attendant
crushing
eszter
upstate
omaha
dominance
mystic
utilization
tightened
outlay
widest
superbly
tapas
biographer
hungary
prohibit
1914
nonfiction
pulp
correspondence
benchmarking
encounters
orchards
entitlement
superiority
illnesses
bhair
jeffrey
evolve
vesuv
transmitted
scorecard
announcements
pitti
uninhab
brutality
promulgate
rhodes
troublesome
obstacle
brewery
skyscraper
conveyed
preacher
preaching
terminus
nobility
antiquity
lovingly
defectors
profoundly
sketches
hilton
jennifer
bloated
bracket
gonzo
brahman
stereotype
tiberias
unbear
bullfights
treadmill
landfills
embargo
brunelles
pisano
plumbing
todd
apocalyp
portfolio
ribeira
sulph
lithuania
eyebrows
rainforest
gaudy
stalactites
prairie
phantom
abilene
bermuda
pseud
unaddressed
testosterone
netanyahu
brunelleschi
ave
berry
ix
jagged
ked
kok
lola
nii
ocho
tipped
za
##oji
##nos
##yles
##gom
##mia
##dies
##bred
##13
##16
##ateness
inac
##iterate
##isle
##idou
##etan
stacks
stucco
whales
heming
anson
angu
neander
cone
congreg
chilled
alz
allergy
##apol
outages
unic
uncover
saxton
peck
adobe
uphold
upbeat
##grown
##agua
lovel
impot
impover
##icho
newton
drift
disband
dischar
##owness
##bergh
accadem
boone
##integr
##rolled
smug
##tych
blaming
##ogu
mona
fla
parv
parnell
busing
empress
persia
warlord
feds
moderately
valent
valuing
numb
capp
charms
detected
funicular
headache
processor
weekdays
swine
painfully
sucks
equil
terminated
storyte
thirties
arrivals
youngster
exclamation
burger
dealings
questionnaire
regulating
labs
imit
suggestive
boyc
educating
subjected
multirac
malok
emergence
shrouded
1300
journeys
motel
reformers
sweats
rounds
bayeux
restraining
triptych
radi
camar
starter
starved
augmented
rebirth
premise
losers
counselors
1940s
montgom
inquiring
forgetting
rubble
faithfully
deriv
reputable
##roads
barbar
scheduling
monetized
facilitated
padua
chickens
paneling
uniformly
prescriptions
rococo
observes
solicit
unwanted
lifestyles
pompidou
papal
ancestry
hooks
zealots
cameron
expeditions
caesare
cassette
swayed
albanian
intervening
burdensome
vampires
wagner
sidney
accelerated
prevalence
nicknamed
slick
pudding
overthrow
miata
dislikes
mascot
drifted
fertilizer
perugia
perugino
filmmakers
drowning
synergies
scrutinized
algeria
moulin
intolerable
autobiography
hormones
szary
nightmares
acoustics
ineligible
burgeoning
disdain
horseshoe
calligraphy
apocalypse
inaccess
neanderth
accademia
9am
dand
dala
durable
dnc
eto
ferv
gior
gaza
ioc
katherine
lb
lest
latt
mite
nintend
pyre
qa
riley
tion
tys
tumble
witt
yupp
##cut
##kt
##got
##bread
##jan
thump
##orph
##ouk
tol
tox
##iscr
reared
##stated
sting
stacked
##chen
hem
##imi
##think
frantic
chunks
orb
lib
exod
trench
worms
##iello
##unts
arles
outage
outward
donkeys
##endra
sage
timeliness
agon
usda
##ouncing
interrog
disintegr
scor
##asser
##avis
commute
##rob
##roix
marais
smokes
blat
umbria
##ucci
contra
costner
informational
schwar
##lemen
slash
slapped
warmed
restor
correlated
bark
cleans
aval
differential
technician
##xtap
signoria
socio
benefiting
runnin
##inski
directing
confession
protagon
southeastern
oppressive
condoms
infirm
staunch
104
1500s
wallpaper
bursa
iras
identifiable
filthy
interestingly
124
viability
imitation
snorted
specifics
shoots
personalities
beginners
147
rockets
negatives
displaced
damasc
messing
exams
juxtap
heavier
denies
denials
microph
1961
vacant
environmentalists
constituted
5000
doubtfully
ambush
##olester
cooled
grassy
guardians
fascination
1942
vandals
bulb
bathed
virtu
illustrative
photographers
bounded
sticky
bodhis
rejecting
##ariat
intellectually
esk
cracking
nicolas
nicotine
buffs
caribs
therapeutic
sanctuaries
withdrawn
musicals
levy
dictated
hammers
crashes
rabbits
gestured
bicycles
quintiles
wicklow
prolific
greyfri
ribs
tedious
cancellation
shoguns
ducked
sneak
witches
provinces
mintie
coveted
endeavor
blazing
blooming
reefs
ajanta
sevila
detrimental
keynesian
sepulchre
newcomer
seminar
masonry
rafting
fostered
villette
rooftop
marauders
gondola
aggrav
prefecture
frenzy
exorbit
nikko
isabella
notoriously
cluny
inflicted
##itudinal
diaspora
saffron
tiepolo
equilib
etoile
nintendo
schwarz
damascus
bodhisatt
greyfriars
08
euc
gte
ket
kite
m3
mits
paced
tg
tones
yahoo
zer
##yant
##hel
##atable
##atma
##enance
beque
rewr
##igated
##imeters
##amm
##thest
shenz
##teries
withheld
##odrome
chai
chilling
coma
##andering
alibi
leh
leop
##umsy
noec
clumsy
##ahs
resurrection
bram
brav
brighter
bryant
##akian
shear
crises
looms
amos
coleman
scant
preten
recess
guj
guin
gupta
booster
marse
marvell
undeveloped
smir
smog
underestimate
finkel
thrilling
mole
depot
elites
module
pops
##cont
numer
demise
believers
insurrection
whitebelly
musings
presidentas
equitable
##uffs
##roportion
armey
108
distraction
bitch
suns
teamwork
wrongly
obsess
bedouin
connois
banning
negara
fieldwork
motors
motifs
diners
fireplace
broadcas
imaginary
dioc
misuse
dispens
disproportion
decorate
verified
francaise
ethi
ode
lieu
1943
1951
tuned
conquering
reconquest
galax
fanat
bradshaw
1924
texture
textbook
maximizing
escaping
crisp
visionary
exposures
attendees
confidently
inventions
230
sabbath
plato
codification
joints
jointly
mahatma
cheerle
levada
astounding
conveniently
reservoir
plaques
summarize
decentral
ellis
greetings
reigning
acknowledges
promenades
gears
papa
##horetz
froze
stallion
reactor
conquerors
colourful
perceive
nutr
whitney
iconocl
upgraded
pipes
mesopotam
hippodrome
overdose
tulare
unquest
macroeconomic
anthropologists
jealousy
fronts
covenant
podhoretz
kidnapped
squirrels
gregory
jenkins
softer
madeiran
pivotal
morbidity
gospel
undesirable
macedonia
commuter
ferocious
seizure
turbulent
infertile
anglican
fannie
trousers
redemption
eszterhas
pretense
finkelstein
connoisse
broadcasters
340
9th
ail
bologna
cact
csa
dashed
fod
gm
hons
jais
kra
kwan
lago
lender
lakers
ludic
nao
pous
pats
rica
soutine
tat
tamp
vas
##rus
##uating
##ueless
##will
##yu
##ggen
##vie
##fax
##eras
##inav
##enne
##anz
inlet
##aris
##around
##omi
##ionally
rey
reinc
##urry
##ayana
##igue
heel
angers
ascent
notified
chopped
chimp
prostitution
##acom
##ppe
alarming
leagues
##okko
upside
##akuji
intervals
serp
##ittin
appreh
laf
commenced
roast
recapt
guggen
##ondo
##ometry
parry
##orns
phd
##ixed
##iento
reds
ministers
americas
careless
simova
medals
posture
##llows
emin
##ieth
retiring
2008
advises
porta
equestrian
1800
facsim
treason
infection
##lemente
johns
popularly
orderly
blackened
volta
##enggan
##incourt
representations
prominence
burke
filipp
##shed
sunburn
methodologists
shortages
modernized
modernize
##icultural
destined
destiny
doorstep
descriptive
sorted
expectancy
royale
madison
entrenched
jericho
eventual
acquitted
battled
battling
catfish
extract
bloodshed
##ooning
evaluates
suspension
multiplied
mortg
conservatism
beatrix
festivities
mixtec
complains
hanged
auguste
errone
conception
lifers
deceive
karen
robots
robbed
scandinav
eliminates
advisable
dynamics
abandoning
variance
dimension
dimensional
breeds
buffet
stairway
sumatra
enhancement
1905
nucleus
platforms
subscription
resembling
motionless
buttermere
trumpet
gleam
murmur
regretted
wrecked
1492
abbot
interpreting
chewing
tidy
oscars
imprisonment
chimps
dwp
constituents
durham
carlton
unheard
unrealistic
flawless
charismatic
neighbourhood
lombardy
chauff
allergies
omnibus
transcript
diclemente
backpack
yoritomo
valencia
futuristic
enriched
vaccine
##girls
residual
metabolife
handicrafts
prostitutes
dsm
chrysler
gyps
fundraising
nicaragua
ncaa
stanislas
unearthed
vesuvius
impoverished
numerical
honshu
jaisal
guggenheim
facsimile
6a
ace
aure
bing
bse
bitty
ding
dau
kame
kits
lays
nueva
ole
pb
pains
sap
sals
ved
wires
##las
##norm
##bach
##hpur
##jas
thumbs
##inform
##atural
##anse
insec
##aras
reapp
reyn
ish
hau
prix
##iris
##adia
ascer
asakusa
shades
shuman
shaky
##uli
##ereal
chenna
exley
##about
manpower
sped
spenc
spoon
plaint
##auer
unad
##embourg
saver
##ongate
##ibald
graced
groom
grudge
brist
perse
crust
crag
amass
quench
expanse
repay
intersect
scoop
poo
tails
commons
desir
carne
carlson
blum
finland
probation
flirt
invoke
invitations
parked
remorse
joao
##othe
scho
ida
##orne
handover
showc
showers
placement
capri
elusive
federalism
##azquez
restless
##rik
props
seeming
humorous
museu
employing
2009
menes
trait
sucked
##phone
involunt
pasture
healthier
103
choke
singular
paolo
paella
futures
authorizes
##retched
chev
imminent
learns
specials
moms
distorted
felony
euros
grands
doug
footing
memo
objectivity
castillo
murcia
polluted
hugely
commonplace
117
voiced
messiah
sandals
westerners
medicines
cornell
gardeners
##govern
venerated
sleek
imagining
manufactures
fixes
earthly
threatens
##axos
urging
raped
preventable
garment
veritable
qualifies
notebook
billionaire
rebutt
peters
dreary
##fficients
forgiven
ambience
lunchtime
brando
1957
criticize
criticisms
barefoot
gladly
mcg
profitability
fanatic
masked
sticker
freedoms
publisher
##awned
ashore
osiris
reminders
cracks
testimonies
bleach
pushes
padding
anticipation
enormously
embraces
enhancements
vitality
barrio
unconvent
impressionist
dunge
simplest
correspondents
collaborate
lynd
appease
stalagm
tortured
wireless
exhausting
quarterbacks
satellites
compounds
narayan
steamer
reassured
absentee
proserity
undermined
hanuman
populace
incumbents
velazquez
taman
fasb
colonnade
faaade
likeness
bourgeoisie
epidemi
jaume
merrion
passwords
groin
fujiwara
lynn
censure
sacrificing
embodies
boasting
refreshments
resignation
fitzg
chalk
landfill
hirose
monopolies
daimler
awakening
sylph
impartiality
coefficients
staggered
encyclopedia
aspirations
wendy
obedient
##hameha
hinterland
postcards
glimpses
remembrance
uninhabited
alzheimer
inaccessible
shenzhen
fodder
reincarn
kamehameha
##information
ascertain
rebuttal
bb
binge
cag
cec
dour
fos
fado
ian
kem
kanch
lama
lenn
naming
paving
sis
tate
ws
wack
##oie
##yans
##ykt
##kr
##gled
##dam
##daughter
##var
##bie
##jid
thund
##erb
##reted
ina
##itic
##omy
##omen
##ionale
releg
##starch
stocked
anonym
##thood
shaved
fray
chit
chern
chenon
butcher
##aciously
##acoteca
leaking
mankind
spat
aryans
##eload
unner
unrem
wills
justinian
myc
agora
usc
usable
resides
broo
broom
brune
brokers
geth
##orman
##agna
offend
sermon
scent
scares
appal
buen
strapped
vex
vehe
accents
guam
boiling
needn
desolate
bls
umeda
monitors
decipher
downright
greatness
evictions
belf
beforehand
idle
slides
slob
persisted
discarded
lloyd
obese
effected
putin
humane
curving
glenn
openings
palmer
explores
campuses
stature
villains
##income
holder
##apsed
##bois
1600
competitions
turrets
inflows
objected
beginnings
##eseen
##obic
137
133
diner
savoie
##hearted
characterization
cornstarch
##imsy
dorothy
seasoned
seasoning
crosses
climbs
climbers
checkbook
##neys
latino
besie
captures
cheaply
willingly
##bbing
microsc
steward
tribut
tribune
erratic
2016
luxembourg
rubbing
mcm
unsatis
fellowship
stupas
patiently
1927
smartest
masjid
memorand
symbolize
advancement
260
##itano
fueled
fortresses
kicking
scarlet
padded
outlaw
reprint
faulty
expansive
tinos
pinacoteca
distinguishing
myths
mythical
swordsman
nazionale
lyons
oakland
rabbi
lodging
ponta
fabricated
phenomen
commodore
synagogues
punched
commemorated
commemorating
yachting
therapist
friedman
inapplicable
exporting
stirring
ducal
eruptions
clutching
downloaded
contemplate
yankee
rothko
hustle
overrun
accusation
buttons
benedykt
impairment
obeyed
fragrant
contributor
unforgett
kazan
forfeited
drifting
hamburgers
humiliation
niece
misdeed
earnestly
allergic
tattoos
mazda
amarillo
shivered
fiancee
airplanes
almonds
ravenna
##birds
patrician
raptors
cambodia
exuberant
indignation
receptive
shoddy
staple
outsourcing
encircled
smeared
baffled
##through
kebap
vittorio
wheelchair
sumptuous
caddesi
skeletons
incongruous
superficial
etiquette
exodus
exorbitant
marvellous
reynolds
chenonce
brunei
vehement
4th
aired
cakes
cyl
duff
fury
fakes
gou
lore
ni
nort
noses
nero
tem
tian
vila
##rick
##lap
##uh
##oese
##fi
##fied
##18
##jac
thief
##alus
inert
##icter
##idy
stomp
staging
stumbling
forens
wastes
##igi
heating
anoint
##illian
chek
orsay
exac
exiled
trillion
aback
##outing
##ghada
##ivism
spins
##uma
##quoise
outing
sak
iff
##ibal
agaa
##ipes
perak
perverse
pervas
didion
incoming
feats
drill
##orship
preached
marino
desires
unden
##ordinate
programmed
parach
parake
parlor
downturn
busily
genoese
payers
basque
attic
redo
##azi
takayama
causal
metr
playful
##cester
muster
##teness
signaled
viewpoints
directives
waterloo
testifying
typing
##atsu
traits
topk
##riced
apologies
##brow
steering
105
figur
##ippings
towel
specialize
moma
##owski
grandest
sniff
summerh
##liners
appearances
pricey
1400
julie
##ikan
militant
banked
136
ensl
hurghada
honors
drawbacks
naturalistic
respecting
tara
urine
laden
titus
midi
strait
403
purposely
telecom
forwarded
graduation
hangs
bathe
bombings
inquire
ranged
carts
derive
concluding
monde
plainly
mouths
escort
smithy
predictably
clinicians
bonding
acidic
fooling
motivate
revolts
torii
astrology
excessively
temperament
contrasting
coda
portraying
toxicant
4000
elaborately
terenggan
partnering
inefficiencies
cleverly
azur
spoil
argentine
1889
cybers
##pitel
rosy
dickens
jetty
coloured
tyler
metaphys
barbecues
perpetr
cherpitel
manipulating
austrian
enforcing
ranchers
kinabal
mantle
mantel
mitigating
composers
pigeon
mammoth
jesuitical
martyrs
embodied
bullfight
sitcoms
antechamber
betrayal
wielder
muffler
dawson
miraculously
compulsory
handwriting
brochures
benedictine
tumult
paranoia
jockey
signposted
necklaces
hysterical
inquisition
dictatorship
gladiators
oyster
encryption
##ephren
grievances
sporades
theresa
asymmetrical
marigot
rodriguez
foreclosure
bromide
premiere
sulphur
multiracial
derivative
caesarea
##iscrimin
tgv
ludicrous
voltaire
mcgwire
cylind
exacerb
terengganu
kinabalu
1st
bake
bisc
bode
bunt
bowness
cb
cf
d9
etern
fiss
gep
hib
jars
lame
lash
lund
ml
mih
naxos
olig
pinto
sri
siesta
tah
vista
xavier
yasser
##iour
##lit
##lide
##lich
##sky
##notes
##witz
##kopf
##bag
##fn
theolog
inverse
##asos
##iser
##lyss
youells
stumble
hairc
hamas
shaping
##ilation
withstand
##odle
##illity
chu
cholester
##andra
butch
trian
alum
soared
abiding
abnorm
leaped
lemann
mement
meager
canongate
##apor
##ectory
dont
clinging
clueless
clippings
tearing
##izu
bras
##agio
sheen
crescent
amel
amber
amends
##ichi
expon
interrac
seren
drought
drained
##itte
twink
scopus
poetic
partying
partake
actresses
pref
##ecified
undisp
blah
blocking
betsy
colmar
##ucc
invites
##tex
fug
provoke
helpless
subvers
slabs
discreet
depictions
realised
redirect
##eney
popping
defensible
##ears
bigot
delaware
corr
corros
##eka
casellas
playwright
formats
speculate
##chnya
completeness
glancing
concede
insider
affir
afflic
procession
watered
swir
refectory
tremb
##ankind
currencies
##erged
generates
calam
##arkable
limous
listens
irate
bites
immature
accessories
christened
corpse
freud
##borough
louder
shrie
111
connot
##ssi
firearm
customary
preferential
principally
##heart
sweating
coldly
creators
##headed
engineered
verses
denis
macho
rainbow
titans
splashed
submerged
sacrist
weakening
briefings
janitor
petitions
clockwise
bordered
newsweeklies
golfing
grassmarket
dedicate
clientele
psyche
behavioral
bombard
challenger
saturated
austrians
scotch
gangster
hideaway
absorption
delicately
inventor
moonlight
improperly
coding
bolshe
taboo
darw
dilapid
1903
1904
sewage
novice
nonprofits
annoyance
celts
ellora
gestures
forecl
boosting
restricting
wrestlers
punches
bloomberg
worshipping
snorkel
tranquillity
bitterly
chartres
gerb
tossing
prevailing
attainment
tsim
tsui
insistence
amidst
xvi
diminishing
voucher
affiliation
acrosefrom
manuscript
holland
unspecified
crosethe
binding
quotation
theodos
vestig
devotion
gilbert
grammar
ipoh
cascade
jainism
issuers
kazin
epitome
neuf
crocodiles
daimyo
haggling
exuberance
handwritten
brochure
excerpts
cavalry
attachment
ibicenco
stylized
hercules
reloaded
##ogeneous
ushered
overshadowed
cliches
giacomet
tenements
adept
concessions
alligator
misman
herzl
frivolous
ensemble
bhairav
equilibrium
erroneous
hirosema
unremarkable
pervasive
summerhaye
gephardt
cholesterol
trianon
interracial
undisputed
dilapidated
5a
bess
bacteria
dine
gion
gim
jig
jub
josh
miya
nam
nol
nra
nipp
nyc
oig
pare
ration
sart
sass
sats
sacked
tether
upp
vogue
wist
##rera
##laim
##litz
##cule
##vation
##but
##jp
##zu
thasos
##enhaus
##anmen
##isner
##llor
isid
onward
onof
##etus
##seman
priors
##very
##igree
##impl
##amel
dex
cheng
chora
##istak
canv
manch
spies
plut
maury
unite
unmet
sauna
##actice
timeline
grose
brakes
brushed
##ipated
##ineering
##agena
crank
loch
impetus
exposes
overc
straps
commissions
recounted
##ountable
marin
##angs
carc
caric
carson
colts
undertook
##ords
relat
remake
empowered
obit
##ientious
elij
homemade
popped
##contr
defence
cured
booklet
glend
glories
glazed
histories
heady
waterways
walnuts
swap
pretentious
mussels
treks
##ellar
marketable
freeways
mattered
capitalized
##ercise
reasoned
authoritarian
cheval
chechnya
##aneum
##practice
##worker
distances
distortion
specificity
shoved
rivera
duel
##ofi
appropriateness
malpractice
fairfax
connery
scramb
trusts
sonny
expressly
chancellor
combust
embry
characterize
battlements
hopkins
gateways
camx
camacha
horrific
verge
verand
eyeballs
swimmers
hangover
televised
##ethical
augustine
2017
tonic
contacting
professionally
magnificently
dads
robber
praising
cartagena
brady
masse
emphasizing
bulldo
pillow
oversimpl
##imento
dustin
tenths
bleed
mutually
gorges
piercing
facilitating
buffer
skewed
anticipates
migrated
pitiful
cumbria
bosch
rotund
cabinets
unlaw
1902
dunn
1898
rods
monsanto
jazzercise
equivalents
reproductions
lsn
preparations
puppy
lionel
extraordinarily
scouting
fleeting
dwellers
feasibility
puzzles
9000
stimulate
maxwell
hauled
sprawl
lipstick
albania
unmistak
bergman
flanking
cosmetic
kofukuji
oasdi
bookstaver
conscientious
enacting
travellers
needlepoint
cypresses
reeves
endanger
kinship
scarcely
franchise
neighbouring
twentieth
mummies
pietro
subdiv
hardships
jodie
perpetual
idiotic
eugene
fostering
chantilly
lilies
razor
pragmat
ingenious
tartan
interconnected
multimedia
lauded
aaron
wellesley
alphabet
relentless
lesbian
locomotive
caverns
endowment
misstatements
inequality
disbelief
inadvert
overhaul
aurang
toshogu
abreast
vosges
eskdale
bequeathed
mesopotamia
jaisalmer
stalagmites
bbq
gethseman
darwinian
onofrio
elijah
gethsemane
cenot
dice
dender
eerie
gory
homet
khal
nac
nib
oc
osw
pok
pens
piety
rie
raged
sacks
tm
tins
torp
vat
vall
wes
wak
ym
yates
zap
##eers
##eff
##caster
##kim
##hon
##hire
##zena
theban
##org
##anters
##itans
##leen
beet
reut
reeng
stau
stint
staggering
##urate
prague
##aya
wasting
heinous
##imas
##adilly
ascr
shud
deft
##essing
segregation
##odan
doin
doom
dobson
oratory
exal
##andi
traps
##istice
##abra
##osterous
##iele
noh
unres
unto
unbeat
cloned
##ffer
agin
##ishable
##izen
resurrect
perd
crad
loading
exposing
interm
##arel
drav
cox
coex
disres
twists
sci
scree
scorp
scoot
1900s
parted
stricter
##avings
commens
reclining
indisc
##ferencing
carly
##ossa
probe
flair
foe
##icken
##amps
longab
parental
takeover
suppressed
handker
phased
realistically
edfu
hoarse
caus
humility
skidd
funders
technologically
##ierre
templ
directive
##stroms
typed
approves
##bleau
campers
collectors
morale
archetyp
currents
marketed
infancy
improb
generalize
analysed
magdal
waivers
102
activism
millionaires
brea
puritan
##rett
cheering
labeling
amounted
squab
##ynski
illusions
301
deadlines
floated
madr
norms
##obia
suffers
prepayment
preposterous
stonework
gallons
averaged
davids
doubles
commenting
innings
marta
permissible
candidacy
applause
212
shotgun
spreads
randall
1956
convento
academia
illustrious
1935
punishments
dismal
resisting
memorials
ratios
bodily
stormed
##iyama
sickness
overseers
osman
rhinos
jails
complications
pondering
kathleen
albu
disappearing
michelle
supplemented
sumo
wisely
paired
astronomy
aggregated
flavors
dictate
edwardian
victimized
exceptionally
fundamentalist
unnecessarily
##handed
diplomats
muddy
ribera
nonsm
molten
msnbc
sikkim
astonishment
presumed
vocab
wagonheim
contemplating
dyes
insulted
ponte
swamps
compassionate
maiden
quoting
quotations
irritated
fiduc
remedies
mossad
cascades
sevilla
refreshment
forfeiture
fiery
frieze
sandwiches
prowess
uninteresting
lingerie
contaminated
babysitter
yogurt
pragmatic
toppled
ruskin
fidelity
orphan
fontainebleau
withholding
apathy
waverley
luggage
spreadsheet
hesitant
shabby
unprepared
irresist
piccadilly
##speople
guerrilla
hemingway
parvati
spencer
slobodan
besieged
unforgettable
cenotaph
denderah
hometown
oswald
torped
ymca
dravid
disrespect
handkerchief
06
6th
boc
bair
cay
fath
fused
fumes
gam
gist
ghib
guts
hose
iwas
jag
jug
kad
kah
mural
mante
pest
pfe
pench
punt
rs
ras
rive
ridd
somm
tse
tending
toul
wits
##olly
##nstroms
##wald
##cian
##km
##gre
##gger
##mine
##fus
##55
##eson
inception
bees
##otics
##vet
##veau
##stant
##idav
##eto
##sexual
##igo
anom
##aman
##amiento
shap
debr
seize
##mentioned
doe
altr
##aba
##ortional
energ
spi
spitting
spider
arid
arbois
maver
unob
pec
clare
upro
teasing
agatha
bride
##grave
perry
cron
crabs
ames
feb
herm
intert
coz
disem
##ubstant
sco
scape
scoring
##igny
stride
guer
boeing
assorted
deccan
flop
paroch
helena
schm
genome
elway
redgrave
founders
editions
##uga
proportional
delle
delac
demeanor
barney
contends
speck
hume
humankind
skins
differentiate
emit
glaring
taxing
watchful
businesslike
affidav
transcend
##erries
confisc
configured
daunting
##gression
churchyard
sects
infid
##upi
summed
calvin
##eye
blackpool
winston
departing
nonpart
purification
courtesy
soundly
1700s
husky
eastwood
corpus
geld
distaste
stepson
domest
##holes
environmentally
foreground
murky
multitude
littered
replies
massively
spanned
selective
intric
deepest
wording
quarry
adjudic
variously
degli
casually
louisian
##beds
starvation
miser
dispers
##untamiento
springer
kenny
bien
guarding
africans
logically
flattened
semitism
sprayed
trois
robi
conquests
deranged
rowlett
##ettle
1925
1933
oxford
scandalous
reminding
bearings
dominican
facilitates
intentional
worshiped
skew
thernstroms
tailors
nepali
forums
nervously
nova
rivalries
editorialists
consolidate
discourse
lamma
chaotic
reproduce
reproductive
paraly
reactionary
prototyping
luke
quintess
papyrus
patriarch
stallone
dumping
flashes
hydrogen
insightful
reassuring
paso
massacred
ricard
hectare
dalmat
pearls
cassidy
contradictions
campsites
enlisted
diminished
flanks
rudy
mintz
donatello
corsica
ascended
penetrate
farewell
scrubbers
disparate
lacquer
thresholds
foresight
cultivated
stereotypes
imaginable
empowerment
phillips
ayuntamiento
palladian
kidnapping
awakened
whistle
shepherd
kudupi
wachter
conveying
thirsty
heterosexual
deflation
mameluke
hinges
pebbles
wizards
housewife
nouveau
comforts
pineapple
mourning
bungal
maneuver
delinquent
complacency
repository
masculine
painstakingly
rosewindow
neanderthals
lehman
guinness
nutrition
salsa
chennai
tiananmen
forensic
bolshev
foreclosed
reuters
commensurate
mantegna
penchant
shapiro
debris
altru
bert
dll
danced
dunk
fencing
fiesta
fpas
gy
gedi
hic
hmm
kooning
poth
rasp
ragged
rssi
sistine
tiring
vr
vistas
woe
wadi
##eon
##sons
##casts
##gain
##mu
##pipe
##dar
##dered
##frey
##escr
##orig
##oucester
##aney
tole
##alore
##alypt
##reja
##arthe
##enting
beam
stout
stardom
prick
##ayette
##chool
heed
heian
##amatic
##amachi
shi
shill
shaken
neolithic
##illusion
##ulk
knots
buttresses
##acur
yeh
abr
abusing
manic
manley
##umi
hash
##oughs
mapp
##quin
##auch
outpatient
##occo
clive
clift
adoration
graces
gripe
brine
bribe
##grade
##akov
crist
thinkin
loec
##uele
drab
disrep
disillusion
scatter
stray
strained
##uctory
indist
gull
marley
carve
bladed
finals
thrived
consp
decap
flam
flocked
##tech
firsthand
presorted
suppress
suppression
visually
differed
bash
kinder
instability
seth
popeye
minn
esth
estates
reviving
##rier
contag
formulate
performer
speculators
humming
gloria
gloucester
##bein
oppression
aparthe
raja
conduit
infrequ
calib
caltech
salem
salinger
greider
blackmail
limb
limbs
armistice
figs
choic
singles
nonm
responsiveness
bret
burr
judea
ird
irving
totals
fuller
saturn
shortest
distressed
encased
grounded
turquoise
boycott
snatch
snob
snoop
richland
castration
dueling
tvs
malt
tablecl
shrug
viral
sexes
scratched
breakthrough
momentous
juno
junct
tradeoff
secretive
caters
broadcasts
articulate
ordinarily
extracted
slowing
corrections
parisian
farmhouse
imagery
url
urg
skillful
dispersed
hostilities
beatles
horrifying
adopts
captive
qualification
telecon
tasteless
janina
introductory
crafting
trailing
dodged
randi
semantics
unsupp
hawth
dismounted
approximate
athe
allocating
wingers
baux
implication
nicola
breeders
deems
handedly
tuesdays
nurt
##biased
##olyn
batu
kosovars
smoothed
angered
cantal
brooke
ineffect
1895
1863
spirituality
owl
celeste
sequel
cheeses
lsu
##zenji
storied
elevation
ghosts
embarrassment
catalytic
orthodoxy
enclaves
pomposity
preceded
tactic
brutally
tragedies
whipmaster
diplomat
hydro
expedited
seduced
diagnostic
crews
massacres
bangalore
illuminating
astonished
theorists
boldly
dentists
brooks
conspirator
ruddy
unimag
rankings
dividend
##rakia
ascetic
1707
stitches
courageous
practitioner
fragmented
itineraries
blaze
playgrounds
rhetorical
mckay
tractor
anthropology
caucas
indifference
reruns
pioneers
hankinson
igreja
duchy
rediscover
narcotics
scratching
adherence
##building
hakone
sardinia
madrasa
foothills
emanuele
kohler
pissed
pupil
stigma
inheritance
decadence
stranded
ganesh
congested
hapsburg
enraged
goofy
arbitrary
placid
retrospective
beheaded
elicited
subgroups
rousseau
misleading
pacifist
oblivious
precarious
disbanded
warlords
infirmary
eucalypt
ketch
zercher
unquestion
ailments
dauph
fitzgerald
chitwan
mycena
memorandum
sartre
dexter
canvases
combustion
unresolved
iwasaki
disrepair
apartheid
eucalyptus
5th
bale
bubb
bounced
hd
hds
ili
jahang
kild
kiy
kastro
kkr
lard
laps
md
mph
munch
mocking
nil
naut
rah
rata
sally
tir
vows
wo
wade
wals
yen
##awe
##laught
##eel
##sight
##nalia
##watch
##gings
##mills
##vil
##bot
##bise
##buck
##fires
##hov
##14
##erog
##aton
##alysis
##enter
##llos
reap
prerog
##ayun
##irting
hei
hefty
anas
##amy
##iless
##ilight
##ulary
comical
prost
proactive
traction
byron
abide
spatial
##umann
ploy
##eli
unpar
clung
##ongated
gren
agers
usat
resided
pergam
perimeter
amm
amalgam
quota
tweed
twilight
bukit
poop
taur
##ecc
##associ
striving
stricken
##fert
##role
marl
desks
undec
carolyn
blouse
blouses
colgate
##ossed
leger
gott
floyd
fluffy
syr
parapher
helmet
##feit
wrang
idol
slots
phyll
editing
edged
soubise
correg
simulated
barque
facto
##atters
conceded
enticing
##strom
palis
trapp
suckers
archangel
conde
##brid
##phones
calmed
steaming
cheered
ballets
grandma
snatched
deval
huns
castilian
goldman
circled
literal
divinity
sexist
trusting
decidedly
copyp
preferably
sandal
fills
##lusion
cardo
extracur
denounced
naturalization
farmworker
predic
blooded
pleasurable
urb
midway
rapists
splitting
magnetic
camara
dispatches
horrified
commercially
verona
amazement
hangings
pete
listeners
hospitalized
cubic
brotherhood
branded
fatigue
vandal
##afel
fearful
220
##guin
##namon
prawn
rowe
licensing
adventurer
1938
blockade
subsidizing
dynastic
upsetting
escorial
athlete
hideous
absorbing
atlas
barbarian
dissolution
dissolved
nomads
nomadic
strolled
cloaks
mutiny
cinnamon
powerscourt
transitional
kathie
scarred
bolster
bolstered
uniformed
migrants
prompting
anthem
bourg
seedy
pizzas
schemes
recreate
bibli
hyde
ribbon
tranquility
bangl
dalai
anchored
carrots
albanians
abbaye
chewed
culpr
hustling
sociologist
nightclub
mounds
prejudices
thunderstorm
infantry
puddle
presorting
perfume
catastrophe
gillette
gonz
nashville
peanut
lunar
katz
sincerely
contradictory
rutgers
torchlight
cursing
carpenters
mormons
crippled
echoes
rooftops
patricia
shepherds
disbursed
pedestal
entrepreneurial
undergraduate
videotape
overpriced
indictment
coordinator
##etermined
dwindling
chowk
foreseeable
supermarket
blockbuster
disconn
berthel
petrified
picnics
plagiarism
lancaster
liqueurs
menhirs
jeopardize
discontinued
netherlands
ricksh
croatia
onslaught
anjou
pharmaceutical
giorgio
protagonist
belfry
phenomenal
cyberspace
##texts
unbeatable
longabaugh
vocabulary
jahangir
kildare
walsh
paraphernalia
correggio
extracurric
7pm
a1
a12
cic
cir
cary
dit
dior
fusion
gast
gink
gits
gilt
hord
hopping
kwh
kyc
kaye
mh
mice
moles
npr
ore
pug
puck
rin
sere
tou
tester
uff
zig
##iens
##lc
##lery
##eim
##yfus
##gis
##million
##hot
##hole
##88
##19
##journ
##eracy
##orian
##anum
##alin
##entin
rehn
reex
stero
whitt
whaling
anach
anarchy
##imilar
shacks
##opo
##esty
neal
frying
##erel
chol
chained
chests
knot
knitting
tracy
##mpanum
##ifl
##ieved
enroll
mania
spilled
noah
unify
unsett
claws
clenched
graz
##izi
resur
residency
brides
##ipse
perenn
##aksh
##agellation
incar
quizz
newman
replete
oversp
overgrown
interred
drake
cozy
scrapped
##oya
apparel
##berger
precon
prehe
strides
##avia
induce
marian
marne
undo
finale
monastic
backst
flops
flagellation
syrac
##lesia
downfall
evasion
supposing
slacks
sloping
obama
locker
elongated
worldclass
edith
revising
caj
barons
lifeguards
readings
contested
casey
audley
increment
emigr
retiro
engulf
insistent
socks
wallet
swans
swings
##plate
explosion
condomin
billable
authored
territorial
harland
10pm
foodst
sunb
antagon
1600s
squid
construed
protector
shoem
granting
foref
woodwork
tablets
##zeb
viollet
##obile
bedrock
1100
weathered
##ographers
broaden
##zzo
denom
predators
waitress
precurs
preventative
miscon
##cki
dispatch
decorating
swordfish
sudan
cashmere
biologist
dreyfus
hindsight
golfers
safari
cynics
cowork
dependency
altars
roseanne
familiarity
loaning
##guided
laughs
quantifying
rubbed
sammy
ranger
penalize
enhances
240
iceberg
falcon
encouragement
##ships
recycl
oversees
dissimilar
updates
jailed
ecology
knowingly
cetel
meditations
kilo
prosecute
prosecuted
clarence
accommodating
gracefully
gopur
tropic
astley
simplify
tricked
##omachi
retreats
fabrication
marvels
conjured
ickes
seafaring
chocol
leaflet
1885
princesses
hookup
commodities
replicate
sikh
anchors
incorrectly
1845
enlist
tympanum
perplex
swaying
albany
siegel
bassenth
aesthetics
overturned
reagents
confederacy
admirers
defects
chimney
vestments
mosquito
constituencies
shafts
dissemination
jargon
alcazar
mundell
hugging
fundamentals
rejoined
racket
bookshop
frowning
covenanters
grinding
incompetence
diligence
carthaginian
hkta
dawkins
pessimistic
peacocks
foothold
retrieved
kasich
outsourced
paranoid
disregard
nerds
suspenseful
pamph
rupert
plummeted
uncontrollable
delirium
acquaintance
slippery
rallied
apprentices
negligible
mcgrath
guadalest
##culture
camargue
chauffeur
topkape
alumni
sacristy
vestiges
giacometti
rotunda
unlawful
aurangzeb
fiduciary
parochial
delacroix
nonpartisan
ricardian
extracurricular
ditka
uffizi
preheater
syracuse
640
bbc
cated
dul
eid
eater
fag
gong
hue
jin
kand
kib
kai
kha
lurch
mct
mok
mistr
mesh
nd
nih
pne
pinsky
qut
rans
siding
vowed
##lest
##uu
##ugh
##ook
##ciously
##pierre
##bis
##fair
##jur
##zon
##enova
##anet
toast
tolls
inver
beacon
rex
##igor
anah
##olin
##olation
##olson
sht
shing
shave
shaving
notions
negev
sears
seizing
##odden
##atem
suw
knelt
tril
abl
aber
leland
##ghai
##ifully
##uding
enum
plight
##elcher
mazzar
outfl
donna
unle
unch
unass
unix
unbiased
clips
mys
gritty
crum
cropped
wellington
loos
amort
amster
quiver
heretics
disarmed
goodwill
laut
whichever
commits
guatem
undulating
carb
assists
mayors
cola
##lected
##issos
thress
decomp
longitudinal
fuk
##otha
evokes
countered
subpr
sloppy
empath
viscus
payback
els
realist
redund
edokko
planters
vale
ministr
##azard
postcard
curators
mainst
concedes
insure
insanity
runners
entail
turnaround
2006
transf
mails
swore
explode
##ccles
protr
protesters
portland
electr
annals
sucking
static
facet
powerless
calories
calmer
saletan
wai
excuses
sawyer
windmills
##array
burma
executing
stuffing
accords
killings
ratemaking
specializes
antics
baltic
liters
143
heartland
jung
##arching
copying
messenger
priori
primaries
cornwall
cookie
conductor
narration
indicative
survives
urs
##system
angelen
southerners
mixes
captiv
buddhas
expands
appliances
kidman
kidney
ethereal
conditioner
hospitalization
distributes
doctorate
comparatively
thorns
2011
225
radioactive
ghat
ghuri
cabb
unsur
lico
berger
borderline
gaya
mouthed
digenova
accomplishing
provencal
mutant
clarification
desktop
buffal
width
veneto
prohibition
dolom
levin
pinch
unharmed
inefficiency
mythic
nineties
1874
unnot
celest
horned
allegorical
azule
assigning
experimentation
biographies
biographical
hamper
barrens
motioned
uninsp
tackled
leafy
skeptics
altering
teddy
grimaced
railroads
##harth
duplication
ferns
salvation
dignified
clutch
discriminated
undermines
populism
gravy
pardons
hustler
dividing
ravages
stitching
plunging
reunions
needlework
schwartzkopf
overdue
adulthood
colonnades
florentines
pharmac
misunderstand
fluctuate
thriller
beaune
masturb
thighs
robespierre
neuharth
crammed
untouchables
clusters
concurrent
nondescr
shalit
cambodians
interdepend
disbursing
scowled
ornamented
necklace
disregarded
ibicenc
expatriate
expatriates
smuggled
huffington
fractured
##ableness
henderson
underscore
dizzy
bracero
oilskin
tribunal
intuitive
outbreak
caldera
contracept
treacherous
shanty
discharged
cappella
leopards
schoelcher
lennon
nolan
davidson
pfeiffer
toulouse
scapego
yehuda
decapitated
choicers
unsupported
unimagin
ketchup
hordes
rehnquist
bassenthwaite
catedral
mcteer
pneum
qutb
anaheim
amsterdam
subprime
viscusi
angelenos
nondescript
8a
aigu
bish
biting
bourn
ces
ccc
cpa
dord
eile
eaves
fong
gel
gass
gittin
homb
ji
kans
mama
mumbled
moust
ousted
pitted
piled
ripe
sind
##uy
##tu
##table
##yers
##cm
##cio
##dry
##free
##hun
##zed
##zko
##atious
##ousel
##regn
inpatient
##iski
##ento
rean
##oteric
whipping
haph
haiti
forear
heath
heaps
##imer
##olph
shu
seism
contexts
havel
doj
doses
chel
chased
goose
orbit
exits
##andie
##abil
##ighty
cana
enrolled
manually
spas
plumber
plastics
unra
##emis
##emouth
##ousing
##icelli
##actor
uphe
grub
grized
grains
residing
brent
brood
bribes
sheba
shells
impass
impuls
impregn
newborn
overboard
overarching
drople
coy
disarray
twir
taw
tapping
strives
strife
##ensky
##avagan
roaming
##angk
carrey
smoky
##onde
blois
monog
floss
foals
##teau
relish
keats
hugged
cityhall
legality
handsh
placebo
edifices
respa
earners
carelessly
metall
hardkn
poster
emanc
emulate
technicians
##bellows
milestone
histoire
##ashiyama
processors
palatial
proficient
profiled
landowners
risorg
20s
powerfully
rake
condo
condom
infused
##lius
clearest
mags
burgh
irca
sunbat
1700
killers
modernizing
docks
geisha
countenance
snows
snider
richness
multicultural
halluc
normandie
eroded
fifteenth
entrants
ranas
scrs
scripts
motels
bonnard
acquainted
intrins
langdale
maternity
extravagan
doric
initiating
quieted
germanic
learnt
##banks
midland
submissions
dispose
collin
garibald
botticelli
interventionist
graders
petron
petrole
murderous
hospitality
mercado
cube
ambig
thornton
births
racquet
counsels
mirage
shootings
##risk
bellies
semitic
cellul
breathless
dishwas
outcry
spectacularly
idealistic
napoleonic
nominating
wwii
motorway
iraqis
excesses
corrupted
tigon
stripes
transitioning
katharine
exceedingly
gauguin
anticipating
judgmental
tabern
gopnik
mahar
lindsey
mysteriously
rigged
heightened
ethnicity
breadth
##flowers
seeded
1897
malayan
sailboat
muncaster
discourages
lyd
compromises
dealership
allegation
fondue
saucepan
goddesses
penthouse
injected
inference
hubris
institutionalize
exquisitely
trumped
ribbons
baptism
prevail
meritocr
triangulation
booty
mtv
selana
asserting
sheds
exaggerate
loopholes
metaphors
theoretically
rooting
1857
buttoned
##noji
manipulate
dye
navigator
716
revelations
lavishly
hackath
pornographic
plunge
consciously
hypocritical
tulips
delegates
triggered
merrill
watteau
kerensky
belgians
cadill
hilary
scholarly
engraved
subdued
iglesia
tilted
blossoms
cramond
mingle
cursed
mongol
unseen
winked
peacock
perilous
remodeled
ovitz
preoccupied
misconduct
sagitt
moisture
kneeling
encompassing
wanniski
talmudic
##alleled
reconsid
miniskirts
caliph
rochelle
evacuated
funniest
gadgets
almighty
bribery
newsletter
carnegie
wsj
wacky
bigotry
corrosive
mismanagement
madrile
teleconferencing
unparalleled
sandalwood
shoemaker
buffaloes
aiguille
bournemouth
dordogne
moustache
haphazard
unravel
grizedale
handshake
risorgimento
sunbathing
garibaldi
petroleum
dishwasher
8am
8th
aik
bil
batch
buns
cinc
dab
dime
dipping
fah
gerry
giddy
jas
jai
kw
kut
kate
kamp
lens
mog
mashed
nailed
oates
ping
pith
pian
pater
pino
ries
rave
raced
rachel
tarr
tpc
uda
ulyss
verr
wong
wob
##rists
##rano
##iast
##iage
##iates
##iata
##iaries
##aways
##ukes
##uettes
##yd
##gals
##mnon
##die
##dress
##vd
##bek
##80
##17
##atre
##atories
##educ
##anos
##ingle
##alc
##iterated
##icion
##omics
##lethorp
rethy
##etes
##ctic
##chia
##adour
##adors
##olence
notch
deau
decept
semb
atrium
chino
chiant
##antically
##andt
tropez
abbe
##ifiably
canary
manet
spying
##arton
##artney
##umen
plush
aragon
arno
hasty
##elius
##aup
##endas
saga
willow
becket
upt
upris
timothy
agendas
##ipted
workings
amida
impecc
expensed
overfl
overweight
draped
disinter
twelf
polem
rohan
recourse
boasted
booths
righty
undis
beta
##ogany
coli
colin
whereabouts
seclusion
presided
schw
geneal
reportage
idpa
warhol
obe
handouts
worldly
endear
minne
caret
##riends
demoral
playboy
mustache
detained
glare
##beh
develops
concier
markers
ceracz
transp
mailstream
invests
protein
classrooms
2075
currie
infur
salinity
budgeted
villena
waits
109
begged
nonst
supers
authorizations
satin
cheung
britons
envious
antig
competency
devise
fightin
castile
circling
circulated
malicious
fairs
firebrand
peacekeeping
uncanny
selections
##ographs
catar
gallant
swelling
averaging
bodyguards
versed
tombstones
diwan
wealthier
tome
columned
preclude
preventive
misguided
garish
ibn
consummate
shopkeepers
gasp
jackie
petting
specter
introduces
minimally
foliage
dramas
forgiving
safaris
prospered
concentrating
occupations
ruben
mci
mccartney
crimson
shutters
1921
inept
shipyard
1937
explanatory
witnessing
appointing
craftsman
weaponry
332
sabot
suitcase
ome
accompanies
##inguishable
pondered
ponderous
striped
youths
jacopo
margar
fervent
aerial
mahogany
palazzi
yellowstone
infrastruct
gazu
dragons
anthology
yielding
1894
sailboats
discouraging
planetarium
entitlements
cosimo
renewable
accumulating
mildly
reigns
patronage
prophets
quintile
betraying
quantitatively
1805
collapsing
rosa
girlfriends
seductive
kuching
reacting
molesting
slaughtering
intrigue
hauling
1793
1755
discriminating
dentist
adamant
vieille
acrosea
bundles
fleming
phoenicians
pakistani
sociological
foolishness
ravines
sparkling
hippie
roused
hedge
inaugural
maidan
plasterwork
isolationist
heirs
golfer
rambling
escalator
apostle
aspire
1814
tyrant
infinitely
pharmacy
reinforcing
cascading
sullen
pledged
unforeseen
enclosures
lobos
pioneer
umbrellas
nagoya
congratulated
psychiatrists
alec
##ipuram
paralegals
frogs
sausages
uninterested
dyson
repetitive
darnley
shawls
negril
marathon
yoga
acrosethe
retrieve
quilts
vernon
bracelets
hannah
aarp
lizards
mamelukes
patriotism
repealed
sanctioned
##lifting
necks
frugal
claude
emphatically
trenches
avalon
marseilles
disproportionate
galaxy
decentralized
vasari
serpent
reappear
unconventional
relegated
##heartedly
chekhov
lsnj
causality
mavericks
gelding
mapplethorp
esthonia
rahman
##associates
predicament
bangladesh
berthelot
cirque
anachron
cholera
incarcer
mysore
eileen
hardknott
cincinn
pinochet
ulysses
##educated
rethymnon
deauville
uprisings
twelfth
minneapolis
mapplethorpe
07
bum
fences
gow
hr
hp
icr
jerem
kettle
lick
latch
lank
mitz
nico
pah
paw
ripp
tunk
tattered
touted
vass
wen
wies
wart
®t
##rings
##aj
##lal
##tler
##oge
##oena
##corn
##cock
##kor
##gang
##gias
##pers
##dlers
##bro
##inov
##enians
##rev
##itian
##itarians
##icher
##omani
beamed
reall
thatched
##owitz
##idos
stocking
##ldron
##ceived
##igian
##imony
##thora
dehydr
conner
fraternity
##ulas
##ulifl
atirc
goers
knum
knitted
trast
##istes
alte
##ustic
##ighted
lebu
leuch
allah
allure
spilling
##elos
##quets
unapp
unorth
unethical
savers
clones
claust
whatnot
##ishly
##ahi
compose
usd
resented
resounding
##ounces
acrob
brok
##agland
impla
inco
quits
queried
expulsion
reperc
##achian
overstate
intermar
drying
mull
buick
##ignano
tao
stroked
vegan
##aville
##angor
bled
bliss
##ogical
coloring
underdog
##kshire
afterlife
##issy
moody
backbone
syc
programmer
longtime
regiment
##onson
##tingu
##ermouth
schu
##lemakers
genn
genetically
idas
visc
deposed
payout
showroom
phony
caption
rump
endpoint
edgy
popcorn
defiance
farthest
revital
caulifl
meta
charlem
simulate
contention
emails
detention
##renhe
retorted
##venth
concurred
viewer
hotter
commune
swam
swims
profusion
crepe
facets
congressionally
oppressed
infested
patna
##uffed
pastel
stealth
lowers
lowland
lowincome
leastways
reasonableness
153
socialize
individualism
##shr
##erti
plethora
hilliker
giraff
docked
parker
paperback
simpsons
frenchman
##swing
domino
groundbreaking
granddaughter
turb
inflamm
##ovo
determinations
totaling
credentials
fleas
fleets
eleventh
pickles
hallow
royals
madd
contractual
connolly
sexism
ensued
unfl
forties
##ouched
swearing
ordeal
##burgs
primer
respectfully
sleaz
banker
diaries
mandir
mandarin
##undered
##olfo
waitresses
battleground
mastercard
magnolia
flynn
latitude
boxers
florid
sacre
benny
eyeing
weakest
kidron
215
railings
distribut
minimizing
dreaming
mallor
dieu
advocating
gentler
awarding
logistical
defeats
bellagio
flatly
seminal
dangerously
mobsters
bougain
shuttered
observable
cartouch
matured
confirming
licence
romeo
nurseries
bertha
hatfield
artistically
nyu
gangsters
symbolizing
rejects
validation
oxide
imperialism
busts
foolproof
supervise
dissol
motorized
sulfates
entryway
steadfast
aeros
deserving
pitfalls
1910
gazing
pulau
levied
1907
soliciting
blindly
aggregation
manuals
simplistic
corresponds
nineteenth
1875
1869
ramsey
instructive
elevating
obscured
triumphed
cockermouth
coronation
lobbyist
token
panoramas
withdrawals
590
brazen
cooperated
baldwin
##immons
##luence
sikhara
incompreh
roulette
##imbos
nutri
selangor
diminutive
swayamb
587
nestled
1490
swallowing
sobering
insulting
##matical
radicals
assaults
braun
herodian
somalia
ravaged
overrated
cautioned
catalogs
minerals
aspen
breakdowns
censorship
remnant
disapprove
adolescent
embassies
cauldron
predominant
annexed
lunatic
imbal
misdem
psychiatric
cmws
##2000
cantonese
stabilize
discontent
##productive
affectionately
discrepancy
longev
nominees
slumped
marauding
contamination
rendering
wachtler
staples
frenetic
ingenuity
multimillion
sensuality
attentively
herculaneum
infections
mgm
hittite
toothpaste
incarnation
proponent
precincts
euphem
thermal
accreditation
subpoena
ambivalence
inconsistencies
proprietary
irradiation
martyred
chandeliers
unbearable
kedah
congregate
sweatsh
fervor
mitsub
cactus
craggy
appalachian
norton
parachute
biscuits
fugitive
miyajima
coexist
ghiberti
shillings
kiyom
prostagland
prawns
chocolates
##juraho
mazzariello
guatemala
ministries
fahrenhe
tunku
wartime
trastever
altea
lebuh
leuchter
unorthodox
claustroph
repercuss
cauliflower
longevity
prostaglandin
fahrenheit
aura
bard
bach
bose
bounce
cud
dazed
fend
gurn
giff
ike
ios
kom
kub
kitten
lur
mists
nad
naft
og
pious
pung
pikes
rx
rames
tiff
vow
wager
yak
zu
##rot
##rimin
##ruder
##link
##lides
##oz
##nick
##wined
##kaw
##gos
##guns
##migian
##pipes
##deka
##vest
##vine
##fun
##figer
##zaa
thugs
##esia
##eno
##enia
##anks
toh
##itiveness
##isional
##leur
##leton
islets
hex
anita
##thex
nothin
notwith
dew
neural
necrop
nefert
##odend
frail
frenz
chung
goog
excr
knott
troupe
##usters
##oso
##osive
abe
##ortment
##ostro
leopard
mango
splin
##arta
nois
noir
haste
outlining
unarmed
saun
peered
pears
clara
clasp
gripped
compart
resh
workable
crump
amiable
quitting
expired
expended
##acht
overworked
intersp
intercourse
cob
sciss
scoff
scaling
scala
himmy
strode
##reating
centro
##avas
commence
rood
roaring
guilla
##intosh
##roft
marc
assures
blended
blowers
blinking
blasted
##ogi
##ogans
##uciating
decaying
parmigian
regimes
presume
##wept
governs
reportable
additive
additives
slay
slips
slogans
caller
locking
ruff
ruining
edu
valves
artemis
defying
hoof
persona
revises
soufri
souqs
putt
medal
medina
clement
humayun
curled
nationalities
emile
runway
typh
experimented
trajan
morant
opposes
receivable
archie
pataki
salz
missp
cutlery
windfall
burlington
irfa
sunken
horloge
accorded
coupons
althea
constructions
friendliness
favorably
illiterate
##version
pollsters
##yptic
malo
emerges
bedsp
erosion
##factory
influencing
banyan
suffoc
unfav
unfriend
reformer
reforming
displace
panaman
dams
articulated
embody
langkaw
annualized
forcefully
israelites
stationery
denby
santana
destroys
hospitable
webster
checklist
garments
bottled
layoffs
##nesian
trailed
burner
comforting
fearless
conflicted
roughing
consultations
samoth
earnhardt
jumps
counterculture
olathe
sarnath
maslin
ivan
faludi
coalitions
bullying
bodh
fabled
rumored
esque
esoteric
catalina
smelling
platoon
suspiciously
ridiculed
flowerbeds
exceeding
croce
jacu
windswept
outlaws
disappears
320
migrate
prudent
1918
smoother
tooling
1909
casualty
dictates
trickle
1872
sailor
##acci
liner
naomi
pumping
jeffords
refugee
luis
hipaa
vigilant
stallions
hatching
arresting
dcs
alterations
narthex
nuovo
fatalities
coppola
wiser
cruelty
luxuriant
grimly
bastard
##iatric
rhododend
spokeswoman
hectic
cords
simultaneous
contradiction
warehouses
campsite
adaptations
scriptures
diverted
bassin
gravestones
upgrades
boredom
717
apollon
mesqu
rousing
syndic
delegating
alpaugh
gymn
threads
devotees
await
awaited
disseminated
dialects
reinforces
cultivate
brahmins
hilfiger
rerun
kleinman
humiliating
mummification
phillies
blossom
shanghai
santorum
burying
pantry
loneliness
nebbishes
echizen
doughnuts
apocalyptic
madeirans
obstruction
##lieb
attentive
##querque
surmise
unabashed
gwen
improvised
brothel
chefs
sleeve
hawkshead
nubian
glacier
liggett
cochin
recounts
confinement
subtitles
epitomizes
monsoon
surpassed
raffles
acclimat
hewlett
worsened
twitched
pseudo
ethiopian
fanatics
kwanzaa
quenching
unsatisfactory
misdeeds
iffen
figurines
##butz
manchur
khalili
zapruder
carlyle
skiddaw
nautical
gottlieb
foodstuffs
kibbutz
unnoticed
jiang
racquetball
infrastructures
gifford
nafta
tiffany
notwithstanding
necropolis
excruciating
interspersed
guillaume
parmigianino
soufriyre
unfriendly
langkawi
aub
bacc
bingo
ct
ek
eut
fad
fists
gill
gare
gushing
hg
hounded
jugg
kass
kail
kund
laced
lille
lumber
mfn
ns
nak
rast
rife
raps
rowing
sance
tally
tipper
vod
wards
witz
yarn
zanne
##rated
##rlich
##lia
##lath
##tub
##tlen
##ooked
##nose
##ben
##bome
##bec
##bows
##xx
thaw
##atas
##enetr
##orie
##aline
##ionage
rethink
##owl
stellar
whim
whore
whips
hapless
wasdale
anarch
##opal
##esta
neap
como
comart
ori
knocks
buts
trac
trla
trucking
abus
lech
alluring
canche
##ieving
##iecki
nozz
plo
plaz
plural
plagues
arri
##quered
donnell
unen
uneducated
##endlath
##emic
pew
pell
clancy
##trow
##track
adore
gru
aga
bray
bros
braw
getaway
##agen
lojack
quirt
##acher
##achable
herds
intang
twain
##ultz
##oyama
appalling
lair
yourselves
prelude
##avy
boh
aficion
##roved
marital
maroons
undet
loth
lotta
assortment
blames
bettel
##ogenous
undercover
##ucopia
backf
decon
probate
##aterial
gotta
parsis
highbrow
##landish
providence
provocative
schor
wrenched
##lemy
##atingly
idyll
subtext
slut
bashing
elvis
modigl
minangk
este
##ewick
farce
demag
formulated
speculated
econometric
curry
nationals
emery
bookcase
glove
retarded
insiders
cerv
##aois
menacing
paltrow
traject
crem
annecy
passover
206
growled
mori
reviewer
terminate
improvis
##phal
projector
projecting
freezer
grecian
lowell
excused
cults
tenets
pausing
socialism
westin
westward
chechen
1715
egreg
shortcom
shortfalls
mindset
distort
penic
espionage
turtlen
existential
claimants
footman
civilizations
devol
casts
stopover
goldwater
pollitt
pollute
##iku
opting
eradic
detailing
11am
hurled
pictured
panicked
expressways
##ospitable
packers
##heed
intrago
swells
juicy
characteristically
medicinal
cornucopia
bodyguard
cookbooks
predetermined
candel
instituting
ledger
browning
originate
caseload
perme
reliant
##dhi
decorum
collision
clothed
entertainers
boxer
injun
northerners
rollers
augment
chaired
transporting
colonization
biking
hypers
brandishing
fatim
etched
criticizes
supplying
mcph
derives
galle
magician
watershed
punishing
porphy
dryer
craze
smithson
cereal
explorers
updike
pedoph
retrofitting
catalonian
implicated
astronaut
complicate
mysticism
fruitful
accommodated
ornith
ferre
##glass
erection
hamlets
recalling
blankly
levitt
astute
snapping
adsl
dunlap
unhooked
passionately
wheeler
crawford
lockheed
##asper
rabbis
tolerated
hinted
tasked
##ihu
mambo
applebome
transmittal
reorganized
polycr
rivoli
riviyre
proclamation
grinning
breeches
reconstruct
instinctively
laurels
49ers
flashy
nuanced
substitutes
cooperating
##immering
stiffly
faintly
bursting
attaining
whitman
alrighty
ehrlich
contemplation
manipulated
deference
oasdhi
keenly
tudor
kennewick
sliced
oldsm
indulged
devoting
intimidated
watendlath
gramm
awaits
disseminate
1453
martyrdom
robbing
misunderstood
ltcm
shepard
disruption
endorsing
detractors
gauntlets
tiberius
franks
franaois
mummified
lombards
inhuman
inhospitable
hutch
hopelessly
deployment
dissenting
yamuna
unimpressive
desserts
transcripts
brodkey
miraculous
acroseto
californian
pkk
mustangers
conveys
exhaustion
russell
unintended
relocated
deprived
dwindled
firefighters
mushrooms
appreciative
deleted
fontana
proponents
quadrup
meekly
cochran
monologues
soderbergh
ccls
specimens
refrain
boulogne
eclipse
wrynose
disprove
unicorn
tyson
agonized
shearer
dispensary
obediently
anointed
cfos
haircut
connotations
nippon
bulldozer
reengineering
albuquerque
irresistible
lacquerware
bungalows
pergamum
undecided
steroids
resurgence
tropicana
suwak
redundant
dolomites
pneumonia
intrinsic
celluloid
jasie
chianti
cincinnati
mitsubishi
repercussions
frenzied
baccarat
rastaf
neapolitan
arriaga
bettelheim
idyllic
modigliani
shortcomings
intragovernmental
04
30s
cah
dach
dale
deng
fou
ffa
gert
hod
jedi
jasper
kitano
licked
luminous
mch
momm
masons
nt
nour
nure
oeu
pix
rimin
razed
tp
tes
tis
tuc
tug
tann
tumbling
vip
vign
vio
woes
ya
yin
##rat
##iam
##log
##locked
##yman
##cies
##veston
##volent
##fal
##hoff
##28
##zar
##zia
threes
##erance
##inational
##infeld
##atian
##arle
##assemb
##omber
##omyr
rebe
##veigh
##eta
stoned
##sellers
##urried
proust
angl
##aments
##oled
shales
##opic
deception
nem
seym
segal
seinfeld
##odas
dobr
doges
dooms
orgy
knuck
##orementioned
leant
leaping
mellow
canico
enshr
mane
pelee
upfront
##ahon
resil
bracing
##akut
craps
loom
loathing
impres
inciner
quilt
quentin
offenses
repression
evergre
intens
dising
##owner
poised
taut
##ecca
##lica
centimeters
accom
inducing
boon
boar
afl
aforementioned
mario
smyr
##ilee
finer
moh
flimsy
programme
longing
downside
informally
costumed
preschool
polishing
joel
provost
proviso
lawfully
##ermost
supposition
systemic
idly
subterr
slav
sloth
visig
visibly
##orned
showgirls
elaine
modular
moderation
endlessly
respite
##vester
defiant
hoi
revamped
barker
##etsu
pointcast
emilia
deton
glide
developer
affinity
tempered
temperate
guesses
allowable
config
confluence
majoring
electroc
southward
northward
refute
statistically
statuettes
1850
morass
morro
natured
termed
archde
billed
##umps
generational
caliber
okra
pastures
pastoral
magi
harms
armour
##ervice
roadway
1566
pai
##arrow
awaken
judean
irons
##shund
beauties
satir
shortened
epith
episc
imax
##boise
felic
##ushima
turf
lineup
renown
footnotes
foreb
historique
multic
multinational
1450
treaties
malaria
referencing
democracies
romana
hearty
banquet
expresses
expressway
packaged
intrusive
seriousness
filly
fauna
##forth
creditors
traditionalists
versace
positioning
doubly
tarp
babur
diapers
wildflowers
blueprint
##iestas
guideline
mistresses
misbeh
disple
strauss
hostess
garuda
kali
##untled
southernmost
verifying
progresses
weaken
sampled
hyped
##azzi
baggage
fatih
fascism
feeds
tunis
snowy
boules
observant
galveston
brightest
austerity
falmouth
bodrum
stormy
baix
oxid
compensatory
tourisme
attendants
peddlers
poisonous
rebuke
liberalism
creationists
sweetheart
ringed
codified
paneled
staircases
disagreements
gauging
gainsborough
prohibiting
dolm
traumatic
transluc
1901
pinpoint
crowns
crowning
rodman
1866
catered
linens
sequential
orthoped
summarizing
gaping
milken
prepares
azincourt
bharat
obscurity
waned
hampered
rushes
arthrit
nicholson
mindedness
alterman
bankruptcies
glee
hondas
1822
dalt
pagodas
coincident
kauai
saladin
nesting
##economic
brewing
merchandising
endorsements
sarcastic
applauds
synthes
overlapping
zeus
alsatian
leveraging
inauguration
nephews
lyrical
subtracting
constituency
awaiting
tyranny
iznik
tractors
precipit
helmets
engravings
##folk
pencils
persistence
psychiatrist
puffed
vauban
crickets
omnip
disgruntled
shoveling
embarked
##writer
##product
broderick
diligent
sentimentality
uneven
repetition
snapshot
diaz
mccarthyism
immortality
nablus
accrued
portfolios
enigmatic
preoccupation
mailboxes
smuggling
apathetic
unabomber
nudity
crooks
conglomerates
scourge
talmud
eloquent
groaned
abbreviated
perceptions
repulsed
discredit
ledfords
exemplary
mpg
melodramatic
colombia
succumbed
ostrac
eyelid
loveliest
juxtaposition
schwarzene
lagoons
unadorned
desirade
anonymity
chernomyr
mcmahon
bessette
gimignano
jubilee
joshua
ocg
cradle
improbable
spiked
domestically
tablecloths
cantaloupe
rickshaws
khajuraho
cornwallis
impregnable
monogamy
aikman
nicolette
atircm
implausible
halloween
kiyomizu
tohoku
vodka
cervantes
dachshund
gertis
mchugh
oeuvre
rimini
seymour
dobrava
smyrna
subterranean
archdeacon
chernomyrdin
09
440
610
agh
bion
darts
ez
fiestas
gals
gatt
jingo
lri
mig
merm
nw
oim
oax
pem
sill
sizable
taco
vino
wakes
wimp
wjc
zoom
zona
##uer
##uen
##simmons
##gae
##pot
##fil
##fels
##25
##zel
##zira
##inat
##inet
##inath
##aning
topping
##alded
andr
##level
##enthal
regression
##etric
stil
whack
hamon
##cht
##chew
hef
##adder
##adero
shaven
##terfield
##opardy
##ilion
deuts
degrad
sewn
chili
##antaged
liby
lipped
prozac
extingu
##acp
trink
trite
trova
alto
##abu
##abah
##oser
soot
abst
worm
##ifty
##iell
##unaga
sput
spills
noct
##eles
mak
unrel
peeled
cling
ada
adrian
adorable
upkeep
usace
acorns
##iping
##ipation
loaf
amer
incess
incrimin
queries
newark
newport
offline
fec
heralded
disqu
disarm
##eryl
scold
taipa
strap
strands
centrist
reclaim
##angled
undone
smu
sms
blas
blob
blizz
bladder
coles
##ickers
paroled
evita
schong
sayin
##angelical
addictions
subsystem
slashing
housework
houseboats
dayak
warring
handguns
phlog
talbot
199z
edwards
townspeople
restful
carefree
hof
hoops
strewn
streaming
revoked
schooled
lessen
curzon
detest
glut
gliding
inserted
entice
openness
hotlines
walnut
walesa
seng
airbags
transist
##issioned
buds
##geries
traverse
trafal
crev
equiv
equations
morocco
continuation
infants
infring
policing
blackjack
magicians
sanche
1066
cultured
posner
burgers
immeas
regulator
christi
pleading
hillb
speciality
imitate
gezira
penit
professions
networking
commissioning
snub
##appa
oneself
hearth
305
##ourne
malone
malia
violates
divisive
jerome
scraps
##amba
moslem
##iscip
junky
attacker
packs
packard
combating
drawers
physi
characterizes
averse
averted
cornered
##goers
machia
##ooned
demonic
baba
##eshwar
brownell
urn
gatehouse
misty
404
besar
jeopardy
purposefully
giuse
analytic
sleeps
##itzner
arabian
searchable
minimized
hinder
comforted
errol
yardley
dependents
technicalities
loggias
lifeless
seminary
deceit
magnificence
matador
photographic
breaths
stupendous
dishe
speeding
sharpened
bullion
diversified
pounding
understated
delightfully
visionaries
appointees
dissu
disciple
pedal
forbade
ventured
resolute
kilow
incredulous
pierce
clarifying
harvested
scarab
paddle
paddies
##metics
mathews
ferret
[...]
