{
  "version": "1.0",
  "truncation": null,
  "padding": null,
  "added_tokens": [
    {
      "id": 0,
      "content": "[PAD]",
      "single_word": false,
      "lstrip": false,
      "rstrip": false,
      "normalized": false,
      "special": true
    },
    {
      "id": 1,
      "content": "[UNK]",
      "single_word": false,
      "lstrip": false,
      "rstrip": false,
      "normalized": false,
      "special": true
    },
    {
      "id": 2,
      "content": "[CLS]",
      "single_word": false,
      "lstrip": false,
      "rstrip": false,
      "normalized": false,
      "special": true
    },
    {
      "id": 3,
      "content": "[SEP]",
      "single_word": false,
      "lstrip": false,
      "rstrip": false,
      "normalized": false,
      "special": true
    },
    {
      "id": 4,
      "content": "[MASK]",
      "single_word": false,
      "lstrip": false,
      "rstrip": false,
      "normalized": false,
      "special": true
    }
  ],
  "normalizer": {
    "type": "BertNormalizer",
    "clean_text": true,
    "handle_chinese_chars": true,
    "strip_accents": null,
    "lowercase": true
  },
  "pre_tokenizer": {
    "type": "BertPreTokenizer"
  },
  "post_processor": {
    "type": "TemplateProcessing",
    "single": [
      {
        "SpecialToken": {
          "id": "[CLS]",
          "type_id": 0
        }
      },
      {
        "Sequence": {
          "id": "A",
          "type_id": 0
        }
      },
      {
        "SpecialToken": {
          "id": "[SEP]",
          "type_id": 0
        }
      }
    ],
    "pair": [
      {
        "SpecialToken": {
          "id": "[CLS]",
          "type_id": 0
        }
      },
      {
        "Sequence": {
          "id": "A",
          "type_id": 0
        }
      },
      {
        "SpecialToken": {
          "id": "[SEP]",
          "type_id": 0
        }
      },
      {
        "Sequence": {
          "id": "B",
          "type_id": 1
        }
      },
      {
        "SpecialToken": {
          "id": "[SEP]",
          "type_id": 1
        }
      }
    ],
    "special_tokens": {
      "[CLS]": {
        "id": "[CLS]",
        "ids": [
          2
        ],
        "tokens": [
          "[CLS]"
        ]
      },
      "[SEP]": {
        "id": "[SEP]",
        "ids": [
          3
        ],
        "tokens": [
          "[SEP]"
        ]
      }
    }
  },
  "decoder": {
    "type": "WordPiece",
    "prefix": "##",
    "cleanup": true
  },
  "model": {
    "type": "WordPiece",
    "unk_token": "[UNK]",
    "continuing_subword_prefix": "##",
    "max_input_chars_per_word": 100,
    "vocab": {
      "[PAD]": 0,
      "[UNK]": 1,
      "[CLS]": 2,
      "[SEP]": 3,
      "[MASK]": 4,
      "!": 5,
      "\"": 6,
      "#": 7,
      "$": 8,
      "%": 9,
      "&": 10,
      "'": 11,
      "(": 12,
      ")": 13,
      "*": 14,
      "+": 15,
      ",": 16,
      "-": 17,
      ".": 18,
      "/": 19,
      "0": 20,
      "1": 21,
      "2": 22,
      "3": 23,
      "4": 24,
      "5": 25,
      "6": 26,
      "7": 27,
      "8": 28,
      "9": 29,
      ":": 30,
      ";": 31,
      "<": 32,
      "=": 33,
      ">": 34,
      "?": 35,
      "@": 36,
      "[": 37,
      "\\": 38,
      "]": 39,
      "^": 40,
      "_": 41,
      "`": 42,
      "a": 43,
      "b": 44,
      "c": 45,
      "d": 46,
      "e": 47,
      "f": 48,
      "g": 49,
      "h": 50,
      "i": 51,
      "j": 52,
      "k": 53,
      "l": 54,
      "m": 55,
      "n": 56,
      "o": 57,
      "p": 58,
      "q": 59,
      "r": 60,
      "s": 61,
      "t": 62,
      "u": 63,
      "v": 64,
      "w": 65,
      "x": 66,
      "y": 67,
      "z": 68,
      "{": 69,
      "~": 70,
      "¡": 71,
      "£": 72,
      "¦": 73,
      "¨": 74,
      "ª": 75,
      "«": 76,
      "®": 77,
      "¯": 78,
      "°": 79,
      "º": 80,
      "œ": 81,
      "ȡ": 82,
      "ȥ": 83,
      "ˠ": 84,
      "α": 85,
      "β": 86,
      "γ": 87,
      "δ": 88,
      "ε": 89,
      "ζ": 90,
      "η": 91,
      "ι": 92,
      "κ": 93,
      "ρ": 94,
      "σ": 95,
      "τ": 96,
      "υ": 97,
      "χ": 98,
      "ω": 99,
      "ϳ": 100,
      "х": 101,
      "׺": 102,
      "ݳ": 103,
      "–": 104,
      "—": 105,
      "’": 106,
      "“": 107,
      "”": 108,
      "‡": 109,
      "…": 110,
      "‰": 111,
      "′": 112,
      "″": 113,
      "€": 114,
      "##i": 115,
      "##c": 116,
      "##t": 117,
      "##u": 118,
      "##r": 119,
      "##n": 120,
      "##g": 121,
      "##y": 122,
      "##e": 123,
      "##a": 124,
      "##s": 125,
      "##o": 126,
      "##l": 127,
      "##d": 128,
      "##w": 129,
      "##v": 130,
      "##f": 131,
      "##h": 132,
      "##b": 133,
      "##j": 134,
      "##p": 135,
      "##m": 136,
      "##3": 137,
      "##0": 138,
      "##k": 139,
      "##q": 140,
      "##z": 141,
      "##6": 142,
      "##2": 143,
      "##5": 144,
      "##8": 145,
      "##9": 146,
      "##1": 147,
      "##7": 148,
      "##x": 149,
      "##4": 150,
      "##°": 151,
      "##œ": 152,
      "##ε": 153,
      "##ζ": 154,
      "##€": 155,
      "##υ": 156,
      "##γ": 157,
      "##α": 158,
      "th": 159,
      "the": 160,
      "##er": 161,
      "##in": 162,
      "##at": 163,
      "##es": 164,
      "##on": 165,
      "##en": 166,
      "##or": 167,
      "##ed": 168,
      "##ou": 169,
      "##nd": 170,
      "##an": 171,
      "##ing": 172,
      "to": 173,
      "##al": 174,
      "of": 175,
      "##re": 176,
      "in": 177,
      "##it": 178,
      "##ar": 179,
      "and": 180,
      "##as": 181,
      "##is": 182,
      "##ic": 183,
      "##om": 184,
      "##ion": 185,
      "##le": 186,
      "##ent": 187,
      "##ll": 188,
      "be": 189,
      "it": 190,
      "re": 191,
      "##ot": 192,
      "is": 193,
      "##ve": 194,
      "that": 195,
      "##ly": 196,
      "##ow": 197,
      "##st": 198,
      "##ut": 199,
      "you": 200,
      "on": 201,
      "##id": 202,
      "##et": 203,
      "st": 204,
      "wh": 205,
      "##ct": 206,
      "ha": 207,
      "for": 208,
      "##se": 209,
      "##ur": 210,
      "pr": 211,
      "##ld": 212,
      "##ay": 213,
      "##ch": 214,
      "##ver": 215,
      "##ce": 216,
      "was": 217,
      "##ig": 218,
      "##ir": 219,
      "he": 220,
      "an": 221,
      "we": 222,
      "##im": 223,
      "##ation": 224,
      "##am": 225,
      "##th": 226,
      "are": 227,
      "##ad": 228,
      "as": 229,
      "##ol": 230,
      "##ith": 231,
      "sh": 232,
      "##ter": 233,
      "##op": 234,
      "##il": 235,
      "they": 236,
      "with": 237,
      "not": 238,
      "de": 239,
      "##ess": 240,
      "##est": 241,
      "ne": 242,
      "se": 243,
      "##od": 244,
      "##ke": 245,
      "##ment": 246,
      "con": 247,
      "fr": 248,
      "##ers": 249,
      "##ill": 250,
      "have": 251,
      "##ul": 252,
      "##ere": 253,
      "do": 254,
      "at": 255,
      "ch": 256,
      "go": 257,
      "com": 258,
      "##ould": 259,
      "or": 260,
      "##ate": 261,
      "su": 262,
      "##igh": 263,
      "##ant": 264,
      "##ge": 265,
      "##ain": 266,
      "li": 267,
      "pro": 268,
      "ex": 269,
      "kn": 270,
      "##and": 271,
      "there": 272,
      "but": 273,
      "##ac": 274,
      "##us": 275,
      "##pp": 276,
      "##ies": 277,
      "ye": 278,
      "know": 279,
      "tr": 280,
      "##ist": 281,
      "by": 282,
      "al": 283,
      "##ust": 284,
      "##ab": 285,
      "##ity": 286,
      "##os": 287,
      "so": 288,
      "ab": 289,
      "##ore": 290,
      "from": 291,
      "##ort": 292,
      "##mp": 293,
      "uh": 294,
      "##ome": 295,
      "##ive": 296,
      "##ight": 297,
      "##ost": 298,
      "le": 299,
      "me": 300,
      "wor": 301,
      "##out": 302,
      "##gh": 303,
      "this": 304,
      "##if": 305,
      "##ally": 306,
      "##ard": 307,
      "all": 308,
      "can": 309,
      "##iv": 310,
      "##all": 311,
      "##ie": 312,
      "##ap": 313,
      "##ud": 314,
      "##un": 315,
      "en": 316,
      "##ect": 317,
      "man": 318,
      "sp": 319,
      "##art": 320,
      "##um": 321,
      "##our": 322,
      "his": 323,
      "no": 324,
      "pl": 325,
      "ar": 326,
      "has": 327,
      "##ough": 328,
      "##el": 329,
      "ma": 330,
      "one": 331,
      "had": 332,
      "##qu": 333,
      "##au": 334,
      "like": 335,
      "out": 336,
      "were": 337,
      "don": 338,
      "##ast": 339,
      "un": 340,
      "##end": 341,
      "##oc": 342,
      "about": 343,
      "##em": 344,
      "sa": 345,
      "##ok": 346,
      "pe": 347,
      "cl": 348,
      "will": 349,
      "if": 350,
      "##tr": 351,
      "##ff": 352,
      "##ous": 353,
      "what": 354,
      "ad": 355,
      "their": 356,
      "would": 357,
      "##ice": 358,
      "##act": 359,
      "bec": 360,
      "up": 361,
      "##ink": 362,
      "te": 363,
      "just": 364,
      "tim": 365,
      "any": 366,
      "##ound": 367,
      "##one": 368,
      "##ind": 369,
      "my": 370,
      "more": 371,
      "##ong": 372,
      "##ib": 373,
      "gr": 374,
      "some": 375,
      "##ial": 376,
      "ag": 377,
      "##ish": 378,
      "##ah": 379,
      "comp": 380,
      "##ions": 381,
      "##ated": 382,
      "us": 383,
      "##iz": 384,
      "res": 385,
      "##oun": 386,
      "##ack": 387,
      "##her": 388,
      "them": 389,
      "ac": 390,
      "br": 391,
      "##ure": 392,
      "##ople": 393,
      "##gr": 394,
      "people": 395,
      "##ther": 396,
      "##ip": 397,
      "##ance": 398,
      "per": 399,
      "work": 400,
      "year": 401,
      "##ak": 402,
      "get": 403,
      "##ause": 404,
      "##ine": 405,
      "##age": 406,
      "##orm": 407,
      "##ag": 408,
      "she": 409,
      "who": 410,
      "cr": 411,
      "when": 412,
      "yeah": 413,
      "did": 414,
      "##ide": 415,
      "##ans": 416,
      "think": 417,
      "well": 418,
      "lo": 419,
      "am": 420,
      "imp": 421,
      "been": 422,
      "##ven": 423,
      "because": 424,
      "inc": 425,
      "##ings": 426,
      "time": 427,
      "qu": 428,
      "##ich": 429,
      "new": 430,
      "off": 431,
      "##ame": 432,
      "exp": 433,
      "rep": 434,
      "fe": 435,
      "##ence": 436,
      "##ays": 437,
      "ever": 438,
      "than": 439,
      "##ite": 440,
      "##ace": 441,
      "##ach": 442,
      "##able": 443,
      "##ations": 444,
      "other": 445,
      "her": 446,
      "over": 447,
      "##ue": 448,
      "inter": 449,
      "##ose": 450,
      "ser": 451,
      "##form": 452,
      "##are": 453,
      "int": 454,
      "dr": 455,
      "##ire": 456,
      "mu": 457,
      "co": 458,
      "its": 459,
      "dis": 460,
      "##ub": 461,
      "how": 462,
      "##ery": 463,
      "##itt": 464,
      "tw": 465,
      "##ree": 466,
      "sc": 467,
      "##hing": 468,
      "##ult": 469,
      "##oy": 470,
      "only": 471,
      "app": 472,
      "##ary": 473,
      "##ors": 474,
      "##00": 475,
      "##wn": 476,
      "bu": 477,
      "most": 478,
      "##ign": 479,
      "##own": 480,
      "good": 481,
      "po": 482,
      "##ber": 483,
      "19": 484,
      "could": 485,
      "ta": 486,
      "part": 487,
      "him": 488,
      "la": 489,
      "act": 490,
      "##pt": 491,
      "##enc": 492,
      "which": 493,
      "##ade": 494,
      "every": 495,
      "##ia": 496,
      "your": 497,
      "pre": 498,
      "##ec": 499,
      "##ass": 500,
      "##ical": 501,
      "str": 502,
      "said": 503,
      "##uct": 504,
      "##reat": 505,
      "##ments": 506,
      "##lic": 507,
      "ve": 508,
      "cent": 509,
      "##ied": 510,
      "see": 511,
      "acc": 512,
      "##ens": 513,
      "##ase": 514,
      "##ild": 515,
      "now": 516,
      "##av": 517,
      "comm": 518,
      "ro": 519,
      "rec": 520,
      "ind": 521,
      "gu": 522,
      "bo": 523,
      "very": 524,
      "right": 525,
      "##int": 526,
      "##ount": 527,
      "want": 528,
      "##fer": 529,
      "##ved": 530,
      "af": 531,
      "many": 532,
      "need": 533,
      "##ro": 534,
      "mar": 535,
      "des": 536,
      "##ates": 537,
      "##vel": 538,
      "really": 539,
      "##ep": 540,
      "##ang": 541,
      "into": 542,
      "should": 543,
      "##ory": 544,
      "two": 545,
      "und": 546,
      "car": 547,
      "lot": 548,
      "sm": 549,
      "serv": 550,
      "ass": 551,
      "##ond": 552,
      "##ian": 553,
      "##ile": 554,
      "##ition": 555,
      "here": 556,
      "fir": 557,
      "##ty": 558,
      "##ents": 559,
      "bl": 560,
      "may": 561,
      "##so": 562,
      "never": 563,
      "um": 564,
      "bet": 565,
      "much": 566,
      "these": 567,
      "##og": 568,
      "does": 569,
      "then": 570,
      "col": 571,
      "even": 572,
      "##omet": 573,
      "under": 574,
      "##ving": 575,
      "##oss": 576,
      "look": 577,
      "also": 578,
      "##ks": 579,
      "##anc": 580,
      "our": 581,
      "after": 582,
      "##ord": 583,
      "years": 584,
      "##lect": 585,
      "fin": 586,
      "##uc": 587,
      "##iss": 588,
      "thr": 589,
      "progr": 590,
      "cons": 591,
      "where": 592,
      "somet": 593,
      "##tain": 594,
      "leg": 595,
      "mon": 596,
      "mo": 597,
      "back": 598,
      "dec": 599,
      "##ail": 600,
      "##ices": 601,
      "prob": 602,
      "##ater": 603,
      "got": 604,
      "##ious": 605,
      "##ict": 606,
      "fl": 607,
      "fo": 608,
      "though": 609,
      "going": 610,
      "##eral": 611,
      "##ities": 612,
      "sy": 613,
      "inv": 614,
      "##cess": 615,
      "way": 616,
      "##ick": 617,
      "##te": 618,
      "old": 619,
      "rel": 620,
      "##les": 621,
      "program": 622,
      "##amp": 623,
      "long": 624,
      "##sel": 625,
      "par": 626,
      "sec": 627,
      "##vern": 628,
      "make": 629,
      "reg": 630,
      "dif": 631,
      "down": 632,
      "too": 633,
      "inform": 634,
      "##its": 635,
      "contr": 636,
      "##king": 637,
      "op": 638,
      "##ons": 639,
      "eff": 640,
      "high": 641,
      "##iver": 642,
      "made": 643,
      "fu": 644,
      "first": 645,
      "cost": 646,
      "pres": 647,
      "##ft": 648,
      "##ning": 649,
      "##we": 650,
      "govern": 651,
      "##mm": 652,
      "rem": 653,
      "##iew": 654,
      "##ry": 655,
      "pol": 656,
      "jo": 657,
      "##ual": 658,
      "##land": 659,
      "##oth": 660,
      "##thing": 661,
      "##ath": 662,
      "prov": 663,
      "##fore": 664,
      "information": 665,
      "ke": 666,
      "##ible": 667,
      "through": 668,
      "##ury": 669,
      "hel": 670,
      "##ouse": 671,
      "##way": 672,
      "requ": 673,
      "state": 674,
      "##fe": 675,
      "take": 676,
      "##lud": 677,
      "##gan": 678,
      "law": 679,
      "pub": 680,
      "great": 681,
      "##ful": 682,
      "those": 683,
      "##ting": 684,
      "still": 685,
      "##erm": 686,
      "##ily": 687,
      "##ational": 688,
      "ev": 689,
      "##ys": 690,
      "##ked": 691,
      "coun": 692,
      "help": 693,
      "##urn": 694,
      "didn": 695,
      "sch": 696,
      "used": 697,
      "hu": 698,
      "something": 699,
      "bel": 700,
      "##other": 701,
      "##ittle": 702,
      "bus": 703,
      "##ific": 704,
      "little": 705,
      "things": 706,
      "oh": 707,
      "supp": 708,
      "before": 709,
      "##ise": 710,
      "##ular": 711,
      "wr": 712,
      "##lem": 713,
      "##ility": 714,
      "cour": 715,
      "say": 716,
      "stud": 717,
      "gen": 718,
      "##ject": 719,
      "##stem": 720,
      "report": 721,
      "##ange": 722,
      "##get": 723,
      "add": 724,
      "##ative": 725,
      "system": 726,
      "##ating": 727,
      "id": 728,
      "mean": 729,
      "##ather": 730,
      "##als": 731,
      "sub": 732,
      "sl": 733,
      "use": 734,
      "call": 735,
      "city": 736,
      "includ": 737,
      "government": 738,
      "legal": 739,
      "house": 740,
      "##ts": 741,
      "find": 742,
      "emp": 743,
      "pers": 744,
      "disc": 745,
      "vis": 746,
      "##ually": 747,
      "ll": 748,
      "fam": 749,
      "##atch": 750,
      "##ood": 751,
      "day": 752,
      "war": 753,
      "own": 754,
      "ob": 755,
      "being": 756,
      "sur": 757,
      "dep": 758,
      "##uring": 759,
      "##ards": 760,
      "##ited": 761,
      "##ave": 762,
      "differ": 763,
      "##orn": 764,
      "##ways": 765,
      "##ures": 766,
      "again": 767,
      "loc": 768,
      "##mb": 769,
      "pay": 770,
      "bas": 771,
      "hand": 772,
      "show": 773,
      "such": 774,
      "small": 775,
      "ph": 776,
      "around": 777,
      "place": 778,
      "cap": 779,
      "##sp": 780,
      "kind": 781,
      "##ered": 782,
      "##olog": 783,
      "fed": 784,
      "interest": 785,
      "##ix": 786,
      "##ient": 787,
      "el": 788,
      "att": 789,
      "stand": 790,
      "mod": 791,
      "##ress": 792,
      "real": 793,
      "##air": 794,
      "red": 795,
      "ru": 796,
      "##oup": 797,
      "world": 798,
      "tal": 799,
      "##ics": 800,
      "agenc": 801,
      "##oney": 802,
      "found": 803,
      "inst": 804,
      "last": 805,
      "end": 806,
      "199": 807,
      "home": 808,
      "lar": 809,
      "##ene": 810,
      "prod": 811,
      "ed": 812,
      "##sc": 813,
      "plan": 814,
      "public": 815,
      "always": 816,
      "##ra": 817,
      "##ues": 818,
      "##eric": 819,
      "set": 820,
      "val": 821,
      "##ives": 822,
      "pop": 823,
      "min": 824,
      "resp": 825,
      "##self": 826,
      "ear": 827,
      "americ": 828,
      "##ves": 829,
      "##ants": 830,
      "organ": 831,
      "##lish": 832,
      "town": 833,
      "##ock": 834,
      "##con": 835,
      "##ug": 836,
      "##led": 837,
      "money": 838,
      "art": 839,
      "problem": 840,
      "three": 841,
      "countr": 842,
      "federal": 843,
      "est": 844,
      "same": 845,
      "century": 846,
      "##ew": 847,
      "import": 848,
      "##az": 849,
      "rest": 850,
      "while": 851,
      "start": 852,
      "##day": 853,
      "##cent": 854,
      "care": 855,
      "def": 856,
      "ho": 857,
      "##ower": 858,
      "tak": 859,
      "far": 860,
      "both": 861,
      "##ying": 862,
      "##ear": 863,
      "happ": 864,
      "##ident": 865,
      "stre": 866,
      "organiz": 867,
      "person": 868,
      "##red": 869,
      "sin": 870,
      "child": 871,
      "##ists": 872,
      "##ool": 873,
      "rev": 874,
      "big": 875,
      "##ri": 876,
      "thing": 877,
      "nor": 878,
      "prop": 879,
      "num": 880,
      "let": 881,
      "del": 882,
      "ca": 883,
      "best": 884,
      "seem": 885,
      "met": 886,
      "services": 887,
      "##ody": 888,
      "##osed": 889,
      "dem": 890,
      "sou": 891,
      "char": 892,
      "cor": 893,
      "##yp": 894,
      "effect": 895,
      "##ern": 896,
      "sim": 897,
      "##ines": 898,
      "##ek": 899,
      "##ably": 900,
      "bar": 901,
      "life": 902,
      "read": 903,
      "##ted": 904,
      "put": 905,
      "school": 906,
      "come": 907,
      "fact": 908,
      "##ets": 909,
      "anything": 910,
      "cont": 911,
      "build": 912,
      "case": 913,
      "few": 914,
      "eas": 915,
      "belie": 916,
      "play": 917,
      "form": 918,
      "##iness": 919,
      "med": 920,
      "perform": 921,
      "##ork": 922,
      "better": 923,
      "spec": 924,
      "each": 925,
      "less": 926,
      "might": 927,
      "cle": 928,
      "hard": 929,
      "##ces": 930,
      "point": 931,
      "during": 932,
      "post": 933,
      "lead": 934,
      "hum": 935,
      "av": 936,
      "econ": 937,
      "##io": 938,
      "##chn": 939,
      "##ween": 940,
      "thought": 941,
      "econom": 942,
      "between": 943,
      "cur": 944,
      "aud": 945,
      "sk": 946,
      "different": 947,
      "national": 948,
      "service": 949,
      "sure": 950,
      "comple": 951,
      "incre": 952,
      "main": 953,
      "fund": 954,
      "##llow": 955,
      "##atter": 956,
      "##ution": 957,
      "since": 958,
      "##velop": 959,
      "must": 960,
      "em": 961,
      "wom": 962,
      "chang": 963,
      "book": 964,
      "##ten": 965,
      "##istr": 966,
      "important": 967,
      "det": 968,
      "iss": 969,
      "tour": 970,
      "##iet": 971,
      "##ren": 972,
      "gl": 973,
      "another": 974,
      "techn": 975,
      "##xt": 976,
      "sign": 977,
      "##ized": 978,
      "compan": 979,
      "ret": 980,
      "tax": 981,
      "eng": 982,
      "##ars": 983,
      "##ior": 984,
      "##urch": 985,
      "##ism": 986,
      "bene": 987,
      "##ently": 988,
      "percent": 989,
      "result": 990,
      "##be": 991,
      "##ee": 992,
      "mil": 993,
      "##vent": 994,
      "##ided": 995,
      "aut": 996,
      "watch": 997,
      "##loy": 998,
      "develop": 999,
      "manage": 1000,
      "partic": 1001,
      "away": 1002,
      "##res": 1003,
      "consid": 1004,
      "conc": 1005,
      "business": 1006,
      "mark": 1007,
      "design": 1008,
      "ins": 1009,
      "##ids": 1010,
      "##cept": 1011,
      "feel": 1012,
      "##lly": 1013,
      "rule": 1014,
      "went": 1015,
      "##ier": 1016,
      "##hip": 1017,
      "hist": 1018,
      "muse": 1019,
      "island": 1020,
      "soc": 1021,
      "cer": 1022,
      "##irect": 1023,
      "##ope": 1024,
      "visit": 1025,
      "area": 1026,
      "aff": 1027,
      "benef": 1028,
      "##ute": 1029,
      "fun": 1030,
      "doesn": 1031,
      "why": 1032,
      "country": 1033,
      "run": 1034,
      "keep": 1035,
      "product": 1036,
      "##ilt": 1037,
      "temp": 1038,
      "##ata": 1039,
      "##ash": 1040,
      "##ever": 1041,
      "##uss": 1042,
      "ent": 1043,
      "##ize": 1044,
      "##der": 1045,
      "sit": 1046,
      "near": 1047,
      "##ao": 1048,
      "turn": 1049,
      "##ins": 1050,
      "head": 1051,
      "view": 1052,
      "open": 1053,
      "guess": 1054,
      "four": 1055,
      "states": 1056,
      "##ital": 1057,
      "times": 1058,
      "process": 1059,
      "##ired": 1060,
      "ide": 1061,
      "##gest": 1062,
      "##ason": 1063,
      "##tern": 1064,
      "quest": 1065,
      "direct": 1066,
      "##alth": 1067,
      "hot": 1068,
      "water": 1069,
      "wal": 1070,
      "##rew": 1071,
      "room": 1072,
      "##ward": 1073,
      "commun": 1074,
      "##str": 1075,
      "control": 1076,
      "##aw": 1077,
      "##ically": 1078,
      "##ling": 1079,
      "once": 1080,
      "sen": 1081,
      "employ": 1082,
      "air": 1083,
      "200": 1084,
      "management": 1085,
      "trans": 1086,
      "##err": 1087,
      "adm": 1088,
      "mr": 1089,
      "yes": 1090,
      "nothing": 1091,
      "allow": 1092,
      "cover": 1093,
      "number": 1094,
      "financ": 1095,
      "anal": 1096,
      "left": 1097,
      "mill": 1098,
      "sever": 1099,
      "large": 1100,
      "mail": 1101,
      "jon": 1102,
      "adv": 1103,
      "##ission": 1104,
      "invest": 1105,
      "##til": 1106,
      "data": 1107,
      "test": 1108,
      "bud": 1109,
      "week": 1110,
      "##ger": 1111,
      "sw": 1112,
      "men": 1113,
      "##ters": 1114,
      "##co": 1115,
      "##ural": 1116,
      "##ined": 1117,
      "##ains": 1118,
      "typ": 1119,
      "pal": 1120,
      "##pl": 1121,
      "##que": 1122,
      "account": 1123,
      "maj": 1124,
      "conf": 1125,
      "##orts": 1126,
      "expl": 1127,
      "without": 1128,
      "done": 1129,
      "prof": 1130,
      "tell": 1131,
      "##body": 1132,
      "exper": 1133,
      "museum": 1134,
      "month": 1135,
      "appro": 1136,
      "##ately": 1137,
      "##kes": 1138,
      "##ality": 1139,
      "children": 1140,
      "##ats": 1141,
      "da": 1142,
      "pret": 1143,
      "night": 1144,
      "follow": 1145,
      "doing": 1146,
      "##cc": 1147,
      "bad": 1148,
      "white": 1149,
      "##ides": 1150,
      "prot": 1151,
      "##read": 1152,
      "##ected": 1153,
      "##gress": 1154,
      "land": 1155,
      "mus": 1156,
      "##ron": 1157,
      "programs": 1158,
      "five": 1159,
      "gao": 1160,
      "tra": 1161,
      "probably": 1162,
      "##ends": 1163,
      "port": 1164,
      "enough": 1165,
      "hour": 1166,
      "##ees": 1167,
      "poss": 1168,
      "##ians": 1169,
      "##ble": 1170,
      "top": 1171,
      "##cr": 1172,
      "job": 1173,
      "cre": 1174,
      "##ology": 1175,
      "major": 1176,
      "built": 1177,
      "camp": 1178,
      "elect": 1179,
      "##ared": 1180,
      "000": 1181,
      "secur": 1182,
      "south": 1183,
      "president": 1184,
      "intern": 1185,
      "clint": 1186,
      "north": 1187,
      "next": 1188,
      "ann": 1189,
      "require": 1190,
      "##man": 1191,
      "church": 1192,
      "group": 1193,
      "##stand": 1194,
      "##ley": 1195,
      "give": 1196,
      "along": 1197,
      "##ought": 1198,
      "ref": 1199,
      "pain": 1200,
      "suc": 1201,
      "youn": 1202,
      "##ale": 1203,
      "clinton": 1204,
      "class": 1205,
      "pass": 1206,
      "office": 1207,
      "polit": 1208,
      "priv": 1209,
      "##wh": 1210,
      "fri": 1211,
      "##less": 1212,
      "##opp": 1213,
      "took": 1214,
      "ris": 1215,
      "equ": 1216,
      "##ric": 1217,
      "##ner": 1218,
      "##ton": 1219,
      "came": 1220,
      "kids": 1221,
      "stat": 1222,
      "18": 1223,
      "several": 1224,
      "20": 1225,
      "collect": 1226,
      "seen": 1227,
      "called": 1228,
      "change": 1229,
      "grow": 1230,
      "able": 1231,
      "until": 1232,
      "mor": 1233,
      "##joy": 1234,
      "##ral": 1235,
      "against": 1236,
      "fac": 1237,
      "##iven": 1238,
      "##ead": 1239,
      "today": 1240,
      "news": 1241,
      "##ness": 1242,
      "nat": 1243,
      "audit": 1244,
      "pretty": 1245,
      "tre": 1246,
      "congress": 1247,
      "enjoy": 1248,
      "review": 1249,
      "##ank": 1250,
      "crit": 1251,
      "opp": 1252,
      "##ced": 1253,
      "##ell": 1254,
      "##ases": 1255,
      "support": 1256,
      "##ages": 1257,
      "everything": 1258,
      "certain": 1259,
      "term": 1260,
      "##ially": 1261,
      "name": 1262,
      "power": 1263,
      "rece": 1264,
      "ap": 1265,
      "beh": 1266,
      "sect": 1267,
      "lsc": 1268,
      "pract": 1269,
      "##ote": 1270,
      "arch": 1271,
      "##augh": 1272,
      "family": 1273,
      "contin": 1274,
      "curr": 1275,
      "ra": 1276,
      "market": 1277,
      "cond": 1278,
      "inf": 1279,
      "financial": 1280,
      "##ional": 1281,
      "polic": 1282,
      "##up": 1283,
      "security": 1284,
      "var": 1285,
      "##ned": 1286,
      "##br": 1287,
      "##aper": 1288,
      "##ience": 1289,
      "wanted": 1290,
      "##ime": 1291,
      "agencies": 1292,
      "##erg": 1293,
      "known": 1294,
      "##ames": 1295,
      "happen": 1296,
      "##ision": 1297,
      "bill": 1298,
      "##ump": 1299,
      "american": 1300,
      "street": 1301,
      "second": 1302,
      "huh": 1303,
      "summ": 1304,
      "##ived": 1305,
      "##ified": 1306,
      "impro": 1307,
      "gener": 1308,
      "however": 1309,
      "##hn": 1310,
      "pat": 1311,
      "costs": 1312,
      "##els": 1313,
      "##ph": 1314,
      "auth": 1315,
      "mov": 1316,
      "level": 1317,
      "oper": 1318,
      "agency": 1319,
      "terr": 1320,
      "project": 1321,
      "free": 1322,
      "cal": 1323,
      "course": 1324,
      "##ither": 1325,
      "stay": 1326,
      "##lement": 1327,
      "general": 1328,
      "performance": 1329,
      "understand": 1330,
      "##uck": 1331,
      "ext": 1332,
      "meet": 1333,
      "trad": 1334,
      "john": 1335,
      "sal": 1336,
      "believe": 1337,
      "ok": 1338,
      "invol": 1339,
      "often": 1340,
      "analys": 1341,
      "else": 1342,
      "##aring": 1343,
      "##uff": 1344,
      "##ey": 1345,
      "local": 1346,
      "##ensive": 1347,
      "past": 1348,
      "repres": 1349,
      "hal": 1350,
      "##ering": 1351,
      "##ivers": 1352,
      "##ds": 1353,
      "ste": 1354,
      "gre": 1355,
      "popular": 1356,
      "##most": 1357,
      "miss": 1358,
      "##old": 1359,
      "live": 1360,
      "won": 1361,
      "##ased": 1362,
      "##rop": 1363,
      "##ised": 1364,
      "having": 1365,
      "avail": 1366,
      "##upp": 1367,
      "offic": 1368,
      "six": 1369,
      "##ark": 1370,
      "##uction": 1371,
      "matter": 1372,
      "##li": 1373,
      "##ients": 1374,
      "##ops": 1375,
      "clear": 1376,
      "order": 1377,
      "getting": 1378,
      "##ivid": 1379,
      "##used": 1380,
      "side": 1381,
      "days": 1382,
      "low": 1383,
      "saving": 1384,
      "examp": 1385,
      "##side": 1386,
      "##ether": 1387,
      "budget": 1388,
      "ey": 1389,
      "deliver": 1390,
      "story": 1391,
      "problems": 1392,
      "capital": 1393,
      "black": 1394,
      "mag": 1395,
      "##idd": 1396,
      "provide": 1397,
      "center": 1398,
      "least": 1399,
      "##ency": 1400,
      "thir": 1401,
      "study": 1402,
      "doll": 1403,
      "estim": 1404,
      "san": 1405,
      "##ember": 1406,
      "lim": 1407,
      "health": 1408,
      "arr": 1409,
      "sta": 1410,
      "vill": 1411,
      "wa": 1412,
      "isn": 1413,
      "##ending": 1414,
      "vol": 1415,
      "har": 1416,
      "##eng": 1417,
      "arm": 1418,
      "##ained": 1419,
      "exec": 1420,
      "win": 1421,
      "success": 1422,
      "##ention": 1423,
      "depart": 1424,
      "almost": 1425,
      "women": 1426,
      "based": 1427,
      "##erc": 1428,
      "list": 1429,
      "##inc": 1430,
      "try": 1431,
      "everyone": 1432,
      "##erv": 1433,
      "says": 1434,
      "##ibility": 1435,
      "10": 1436,
      "quite": 1437,
      "activ": 1438,
      "##ument": 1439,
      "fig": 1440,
      "##ulation": 1441,
      "cut": 1442,
      "young": 1443,
      "million": 1444,
      "united": 1445,
      "spe": 1446,
      "site": 1447,
      "ago": 1448,
      "##aph": 1449,
      "##ured": 1450,
      "asked": 1451,
      "rul": 1452,
      "##ability": 1453,
      "road": 1454,
      "##imes": 1455,
      "cho": 1456,
      "exc": 1457,
      "reason": 1458,
      "wasn": 1459,
      "whole": 1460,
      "##over": 1461,
      "cult": 1462,
      "ten": 1463,
      "beach": 1464,
      "##ateg": 1465,
      "##ances": 1466,
      "15": 1467,
      "##ench": 1468,
      "gard": 1469,
      "beg": 1470,
      "actually": 1471,
      "represent": 1472,
      "prom": 1473,
      "orig": 1474,
      "looked": 1475,
      "food": 1476,
      "saw": 1477,
      "##inal": 1478,
      "occ": 1479,
      "making": 1480,
      "##aut": 1481,
      "##aster": 1482,
      "wind": 1483,
      "##iving": 1484,
      "available": 1485,
      "addition": 1486,
      "analysis": 1487,
      "half": 1488,
      "sing": 1489,
      "mount": 1490,
      "nice": 1491,
      "building": 1492,
      "makes": 1493,
      "non": 1494,
      "discuss": 1495,
      "wall": 1496,
      "##ored": 1497,
      "told": 1498,
      "hous": 1499,
      "comput": 1500,
      "history": 1501,
      "among": 1502,
      "company": 1503,
      "idea": 1504,
      "pa": 1505,
      "lawy": 1506,
      "pie": 1507,
      "##iting": 1508,
      "respons": 1509,
      "##lf": 1510,
      "individ": 1511,
      "whether": 1512,
      "yet": 1513,
      "changes": 1514,
      "tupp": 1515,
      "bre": 1516,
      "love": 1517,
      "rather": 1518,
      "##arr": 1519,
      "##ources": 1520,
      "tuppence": 1521,
      "attr": 1522,
      "tomm": 1523,
      "aw": 1524,
      "fut": 1525,
      "pos": 1526,
      "tommy": 1527,
      "maybe": 1528,
      "##rist": 1529,
      "including": 1530,
      "rom": 1531,
      "##aces": 1532,
      "jap": 1533,
      "bur": 1534,
      "##line": 1535,
      "acr": 1536,
      "deal": 1537,
      "indust": 1538,
      "trying": 1539,
      "jud": 1540,
      "##idence": 1541,
      "sug": 1542,
      "japan": 1543,
      "##hod": 1544,
      "sup": 1545,
      "ce": 1546,
      "ir": 1547,
      "execut": 1548,
      "social": 1549,
      "##ipp": 1550,
      "individual": 1551,
      "ident": 1552,
      "question": 1553,
      "author": 1554,
      "tot": 1555,
      "full": 1556,
      "pur": 1557,
      "##acy": 1558,
      "resear": 1559,
      "distr": 1560,
      "research": 1561,
      "working": 1562,
      "##ended": 1563,
      "complete": 1564,
      "court": 1565,
      "benefits": 1566,
      "west": 1567,
      "##ife": 1568,
      "true": 1569,
      "sound": 1570,
      "king": 1571,
      "present": 1572,
      "##uation": 1573,
      "##ont": 1574,
      "within": 1575,
      "fil": 1576,
      "okay": 1577,
      "needed": 1578,
      "hold": 1579,
      "##omm": 1580,
      "##ina": 1581,
      "someone": 1582,
      "##ences": 1583,
      "##sh": 1584,
      "##ret": 1585,
      "manag": 1586,
      "##lished": 1587,
      "bit": 1588,
      "either": 1589,
      "sun": 1590,
      "##fu": 1591,
      "beaut": 1592,
      "##ert": 1593,
      "usually": 1594,
      "technology": 1595,
      "organizations": 1596,
      "private": 1597,
      "hor": 1598,
      "sat": 1599,
      "stuff": 1600,
      "later": 1601,
      "##na": 1602,
      "##ove": 1603,
      "che": 1604,
      "early": 1605,
      "17": 1606,
      "##ield": 1607,
      "heard": 1608,
      "enter": 1609,
      "train": 1610,
      "future": 1611,
      "tex": 1612,
      "accord": 1613,
      "agree": 1614,
      "oth": 1615,
      "##aking": 1616,
      "others": 1617,
      "##ison": 1618,
      "imm": 1619,
      "temple": 1620,
      "sol": 1621,
      "brit": 1622,
      "buy": 1623,
      "issues": 1624,
      "##ged": 1625,
      "income": 1626,
      "seems": 1627,
      "##aim": 1628,
      "tow": 1629,
      "travel": 1630,
      "method": 1631,
      "york": 1632,
      "##ination": 1633,
      "kill": 1634,
      "eg": 1635,
      "##att": 1636,
      "access": 1637,
      "postal": 1638,
      "regul": 1639,
      "##oke": 1640,
      "christ": 1641,
      "wond": 1642,
      "signific": 1643,
      "##lev": 1644,
      "fish": 1645,
      "outside": 1646,
      "across": 1647,
      "using": 1648,
      "estab": 1649,
      "poor": 1650,
      "example": 1651,
      "final": 1652,
      "rate": 1653,
      "short": 1654,
      "remember": 1655,
      "needs": 1656,
      "ple": 1657,
      "lab": 1658,
      "##ane": 1659,
      "amount": 1660,
      "interesting": 1661,
      "##pr": 1662,
      "talking": 1663,
      "hill": 1664,
      "quality": 1665,
      "modern": 1666,
      "##aps": 1667,
      "lear": 1668,
      "results": 1669,
      "##utes": 1670,
      "face": 1671,
      "given": 1672,
      "##hold": 1673,
      "hund": 1674,
      "hundred": 1675,
      "##ief": 1676,
      "env": 1677,
      "systems": 1678,
      "become": 1679,
      "address": 1680,
      "##ued": 1681,
      "##ense": 1682,
      "drug": 1683,
      "gir": 1684,
      "##ories": 1685,
      "12": 1686,
      "admin": 1687,
      "##ott": 1688,
      "include": 1689,
      "meas": 1690,
      "worth": 1691,
      "special": 1692,
      "possible": 1693,
      "##by": 1694,
      "easy": 1695,
      "jew": 1696,
      "close": 1697,
      "effective": 1698,
      "##ister": 1699,
      "standards": 1700,
      "coup": 1701,
      "staff": 1702,
      "vi": 1703,
      "miles": 1704,
      "##atic": 1705,
      "diff": 1706,
      "ep": 1707,
      "##ru": 1708,
      "hus": 1709,
      "##iod": 1710,
      "east": 1711,
      "doc": 1712,
      "init": 1713,
      "park": 1714,
      "##iety": 1715,
      "looking": 1716,
      "sometimes": 1717,
      "attract": 1718,
      "im": 1719,
      "fav": 1720,
      "##enty": 1721,
      "ant": 1722,
      "team": 1723,
      "knew": 1724,
      "period": 1725,
      "##bo": 1726,
      "##oci": 1727,
      "##ortun": 1728,
      "drew": 1729,
      "value": 1730,
      "##ready": 1731,
      "already": 1732,
      "held": 1733,
      "economic": 1734,
      "particular": 1735,
      "paper": 1736,
      "colle": 1737,
      "corp": 1738,
      "##par": 1739,
      "16": 1740,
      "suggest": 1741,
      "pot": 1742,
      "coast": 1743,
      "due": 1744,
      "##icult": 1745,
      "mind": 1746,
      "toget": 1747,
      "abs": 1748,
      "##ape": 1749,
      "policy": 1750,
      "##atory": 1751,
      "alth": 1752,
      "together": 1753,
      "mom": 1754,
      "##ows": 1755,
      "squ": 1756,
      "talk": 1757,
      "simp": 1758,
      "ge": 1759,
      "death": 1760,
      "associ": 1761,
      "##work": 1762,
      "started": 1763,
      "reach": 1764,
      "french": 1765,
      "dist": 1766,
      "compet": 1767,
      "##ny": 1768,
      "pen": 1769,
      "dest": 1770,
      "although": 1771,
      "##itions": 1772,
      "music": 1773,
      "record": 1774,
      "enc": 1775,
      "profess": 1776,
      "bal": 1777,
      "##ials": 1778,
      "daan": 1779,
      "difficult": 1780,
      "cann": 1781,
      "consider": 1782,
      "##uce": 1783,
      "##iding": 1784,
      "hours": 1785,
      "##band": 1786,
      "significant": 1787,
      "##ried": 1788,
      "foc": 1789,
      "taken": 1790,
      "step": 1791,
      "civ": 1792,
      "envir": 1793,
      "constr": 1794,
      "##fully": 1795,
      "esp": 1796,
      "##sw": 1797,
      "current": 1798,
      "fall": 1799,
      "door": 1800,
      "sty": 1801,
      "fel": 1802,
      "##0s": 1803,
      "dom": 1804,
      "##ush": 1805,
      "sil": 1806,
      "move": 1807,
      "##ising": 1808,
      "##where": 1809,
      "improve": 1810,
      "net": 1811,
      "environ": 1812,
      "god": 1813,
      "model": 1814,
      "ground": 1815,
      "couldn": 1816,
      "particip": 1817,
      "##ocr": 1818,
      "eur": 1819,
      "department": 1820,
      "##gle": 1821,
      "shows": 1822,
      "grand": 1823,
      "descr": 1824,
      "deb": 1825,
      "months": 1826,
      "##mbers": 1827,
      "contain": 1828,
      "computer": 1829,
      "tur": 1830,
      "count": 1831,
      "##ica": 1832,
      "##aint": 1833,
      "human": 1834,
      "fail": 1835,
      "##ilar": 1836,
      "##vious": 1837,
      "assist": 1838,
      "##ished": 1839,
      "line": 1840,
      "members": 1841,
      "boy": 1842,
      "ren": 1843,
      "repub": 1844,
      "infl": 1845,
      "fine": 1846,
      "woman": 1847,
      "##unch": 1848,
      "husband": 1849,
      "commission": 1850,
      "behind": 1851,
      "##graph": 1852,
      "approach": 1853,
      "protect": 1854,
      "according": 1855,
      "exist": 1856,
      "arg": 1857,
      "risk": 1858,
      "girl": 1859,
      "himself": 1860,
      "##aur": 1861,
      "dollars": 1862,
      "educ": 1863,
      "sn": 1864,
      "sort": 1865,
      "sent": 1866,
      "##ov": 1867,
      "##itting": 1868,
      "##hol": 1869,
      "republic": 1870,
      "areas": 1871,
      "##ming": 1872,
      "organization": 1873,
      "walk": 1874,
      "movie": 1875,
      "beautif": 1876,
      "increase": 1877,
      "##ening": 1878,
      "environment": 1879,
      "necess": 1880,
      "studies": 1881,
      "summer": 1882,
      "##ilities": 1883,
      "##ature": 1884,
      "##app": 1885,
      "##selves": 1886,
      "administr": 1887,
      "sell": 1888,
      "implement": 1889,
      "dou": 1890,
      "##ume": 1891,
      "claim": 1892,
      "required": 1893,
      "pu": 1894,
      "tradition": 1895,
      "thous": 1896,
      "specific": 1897,
      "rich": 1898,
      "cases": 1899,
      "thousand": 1900,
      "strateg": 1901,
      "return": 1902,
      "##rin": 1903,
      "scre": 1904,
      "##ms": 1905,
      "determ": 1906,
      "answ": 1907,
      "considered": 1908,
      "lost": 1909,
      "age": 1910,
      "anyone": 1911,
      "foot": 1912,
      "civil": 1913,
      "mem": 1914,
      "planning": 1915,
      "political": 1916,
      "friend": 1917,
      "europe": 1918,
      "requirements": 1919,
      "became": 1920,
      "##itive": 1921,
      "wouldn": 1922,
      "ones": 1923,
      "eight": 1924,
      "famous": 1925,
      "concern": 1926,
      "##ius": 1927,
      "light": 1928,
      "eval": 1929,
      "companies": 1930,
      "impact": 1931,
      "alco": 1932,
      "fre": 1933,
      "object": 1934,
      "dev": 1935,
      "ach": 1936,
      "##irc": 1937,
      "##orp": 1938,
      "cannot": 1939,
      "rules": 1940,
      "##aves": 1941,
      "community": 1942,
      "haven": 1943,
      "justice": 1944,
      "employees": 1945,
      "alcohol": 1946,
      "texas": 1947,
      "gave": 1948,
      "development": 1949,
      "sho": 1950,
      "##son": 1951,
      "##ogn": 1952,
      "defin": 1953,
      "resources": 1954,
      "bring": 1955,
      "exact": 1956,
      "grant": 1957,
      "##rect": 1958,
      "total": 1959,
      "regard": 1960,
      "works": 1961,
      "workers": 1962,
      "hun": 1963,
      "##lin": 1964,
      "appear": 1965,
      "##amed": 1966,
      "cred": 1967,
      "demand": 1968,
      "single": 1969,
      "ital": 1970,
      "##ropri": 1971,
      "delivery": 1972,
      "press": 1973,
      "##oad": 1974,
      "fight": 1975,
      "##itted": 1976,
      "collection": 1977,
      "leave": 1978,
      "##ama": 1979,
      "similar": 1980,
      "british": 1981,
      "accept": 1982,
      "const": 1983,
      "cast": 1984,
      "felt": 1985,
      "fle": 1986,
      "ele": 1987,
      "desp": 1988,
      "favor": 1989,
      "achie": 1990,
      "river": 1991,
      "rout": 1992,
      "turned": 1993,
      "##bor": 1994,
      "fur": 1995,
      "##ony": 1996,
      "##rem": 1997,
      "anc": 1998,
      "eyes": 1999,
      "fore": 2000,
      "personal": 2001,
      "##ator": 2002,
      "##thern": 2003,
      "##ify": 2004,
      "pick": 2005,
      "lou": 2006,
      "univers": 2007,
      "takes": 2008,
      "espec": 2009,
      "##itch": 2010,
      "couple": 2011,
      "wrong": 2012,
      "type": 2013,
      "especially": 2014,
      "##yn": 2015,
      "stop": 2016,
      "##ball": 2017,
      "##omp": 2018,
      "quick": 2019,
      "restaur": 2020,
      "begin": 2021,
      "##ake": 2022,
      "ill": 2023,
      "##tion": 2024,
      "##omes": 2025,
      "##uced": 2026,
      "wife": 2027,
      "##ese": 2028,
      "subject": 2029,
      "##aft": 2030,
      "expect": 2031,
      "entire": 2032,
      "##vers": 2033,
      "strong": 2034,
      "mur": 2035,
      "soon": 2036,
      "recogn": 2037,
      "vict": 2038,
      "related": 2039,
      "sir": 2040,
      "goes": 2041,
      "activities": 2042,
      "self": 2043,
      "gold": 2044,
      "poll": 2045,
      "wonder": 2046,
      "sea": 2047,
      "##ium": 2048,
      "##atives": 2049,
      "du": 2050,
      "teach": 2051,
      "assess": 2052,
      "circ": 2053,
      "##urs": 2054,
      "##of": 2055,
      "##ened": 2056,
      "histor": 2057,
      "tv": 2058,
      "famil": 2059,
      "mult": 2060,
      "hear": 2061,
      "houses": 2062,
      "price": 2063,
      "comments": 2064,
      "lit": 2065,
      "longer": 2066,
      "##ival": 2067,
      "##bs": 2068,
      "comes": 2069,
      "14": 2070,
      "adrin": 2071,
      "##yc": 2072,
      "##ges": 2073,
      "proposed": 2074,
      "likely": 2075,
      "taking": 2076,
      "involved": 2077,
      "##ypt": 2078,
      "offer": 2079,
      "treat": 2080,
      "30": 2081,
      "college": 2082,
      "midd": 2083,
      "began": 2084,
      "beautiful": 2085,
      "nation": 2086,
      "##asing": 2087,
      "aren": 2088,
      "provided": 2089,
      "obs": 2090,
      "board": 2091,
      "themselves": 2092,
      "##ators": 2093,
      "figure": 2094,
      "issue": 2095,
      "base": 2096,
      "america": 2097,
      "wood": 2098,
      "appropri": 2099,
      "population": 2100,
      "##temp": 2101,
      "cath": 2102,
      "##ourn": 2103,
      "proper": 2104,
      "aid": 2105,
      "drink": 2106,
      "reports": 2107,
      "hall": 2108,
      "mal": 2109,
      "standard": 2110,
      "parents": 2111,
      "middle": 2112,
      "huge": 2113,
      "france": 2114,
      "living": 2115,
      "jul": 2116,
      "instead": 2117,
      "morning": 2118,
      "table": 2119,
      "section": 2120,
      "##hib": 2121,
      "charact": 2122,
      "visitors": 2123,
      "##ze": 2124,
      "refer": 2125,
      "democr": 2126,
      "coming": 2127,
      "roy": 2128,
      "roman": 2129,
      "worked": 2130,
      "##ential": 2131,
      "dead": 2132,
      "##umb": 2133,
      "reporting": 2134,
      "ii": 2135,
      "viol": 2136,
      "flo": 2137,
      "##den": 2138,
      "village": 2139,
      "mad": 2140,
      "heart": 2141,
      "industry": 2142,
      "198": 2143,
      "minutes": 2144,
      "##uses": 2145,
      "bir": 2146,
      "chec": 2147,
      "##use": 2148,
      "poir": 2149,
      "contract": 2150,
      "above": 2151,
      "intervent": 2152,
      "sense": 2153,
      "##fect": 2154,
      "relig": 2155,
      "poirot": 2156,
      "##ique": 2157,
      "evidence": 2158,
      "key": 2159,
      "##bert": 2160,
      "attorn": 2161,
      "tried": 2162,
      "central": 2163,
      "emerg": 2164,
      "##ring": 2165,
      "shr": 2166,
      "##ik": 2167,
      "norm": 2168,
      "speak": 2169,
      "recomm": 2170,
      "late": 2171,
      "friends": 2172,
      "executive": 2173,
      "##istic": 2174,
      "means": 2175,
      "cust": 2176,
      "##icient": 2177,
      "##ob": 2178,
      "##isions": 2179,
      "repl": 2180,
      "rock": 2181,
      "archit": 2182,
      "labor": 2183,
      "further": 2184,
      "hope": 2185,
      "common": 2186,
      "fair": 2187,
      "milit": 2188,
      "opt": 2189,
      "lawyers": 2190,
      "expensive": 2191,
      "bed": 2192,
      "er": 2193,
      "architect": 2194,
      "experience": 2195,
      "sett": 2196,
      "questions": 2197,
      "fif": 2198,
      "##fact": 2199,
      "##oring": 2200,
      "economy": 2201,
      "palace": 2202,
      "vir": 2203,
      "detail": 2204,
      "##val": 2205,
      "##aced": 2206,
      "sold": 2207,
      "##aged": 2208,
      "struct": 2209,
      "front": 2210,
      "lake": 2211,
      "brought": 2212,
      "ask": 2213,
      "received": 2214,
      "11": 2215,
      "perh": 2216,
      "mrs": 2217,
      "exactly": 2218,
      "##ots": 2219,
      "conn": 2220,
      "influ": 2221,
      "twenty": 2222,
      "##epend": 2223,
      "perhaps": 2224,
      "##opped": 2225,
      "purp": 2226,
      "describ": 2227,
      "ban": 2228,
      "surpr": 2229,
      "hands": 2230,
      "13": 2231,
      "entr": 2232,
      "div": 2233,
      "sex": 2234,
      "jer": 2235,
      "neg": 2236,
      "journ": 2237,
      "ens": 2238,
      "avo": 2239,
      "##let": 2240,
      "##aign": 2241,
      "##ledge": 2242,
      "chall": 2243,
      "leaders": 2244,
      "hur": 2245,
      "bush": 2246,
      "ran": 2247,
      "books": 2248,
      "vo": 2249,
      "field": 2250,
      "ancient": 2251,
      "campaign": 2252,
      "scr": 2253,
      "contrib": 2254,
      "inside": 2255,
      "100": 2256,
      "funding": 2257,
      "places": 2258,
      "changed": 2259,
      "destr": 2260,
      "mot": 2261,
      "third": 2262,
      "lived": 2263,
      "party": 2264,
      "recent": 2265,
      "opportun": 2266,
      "trust": 2267,
      "##ler": 2268,
      "bon": 2269,
      "independ": 2270,
      "hotel": 2271,
      "surr": 2272,
      "weather": 2273,
      "suff": 2274,
      "happened": 2275,
      "unf": 2276,
      "##opping": 2277,
      "##amb": 2278,
      "foreign": 2279,
      "##reme": 2280,
      "gets": 2281,
      "gone": 2282,
      "reform": 2283,
      "pict": 2284,
      "allowed": 2285,
      "style": 2286,
      "completely": 2287,
      "##ization": 2288,
      "##ann": 2289,
      "corpor": 2290,
      "happy": 2291,
      "fort": 2292,
      "##ires": 2293,
      "spend": 2294,
      "##ss": 2295,
      "event": 2296,
      "rates": 2297,
      "displ": 2298,
      "egypt": 2299,
      "break": 2300,
      "mass": 2301,
      "plans": 2302,
      "green": 2303,
      "district": 2304,
      "square": 2305,
      "##airs": 2306,
      "neigh": 2307,
      "son": 2308,
      "saint": 2309,
      "moment": 2310,
      "washing": 2311,
      "##ols": 2312,
      "##gn": 2313,
      "investment": 2314,
      "germ": 2315,
      "wide": 2316,
      "kept": 2317,
      "chap": 2318,
      "hon": 2319,
      "pan": 2320,
      "drive": 2321,
      "##oll": 2322,
      "trou": 2323,
      "piece": 2324,
      "lower": 2325,
      "span": 2326,
      "words": 2327,
      "mos": 2328,
      "din": 2329,
      "##ades": 2330,
      "perfect": 2331,
      "mer": 2332,
      "##ai": 2333,
      "##erous": 2334,
      "julius": 2335,
      "##isc": 2336,
      "household": 2337,
      "rid": 2338,
      "epa": 2339,
      "fire": 2340,
      "jun": 2341,
      "anim": 2342,
      "designed": 2343,
      "##iqu": 2344,
      "james": 2345,
      "exce": 2346,
      "located": 2347,
      "buildings": 2348,
      "expected": 2349,
      "attention": 2350,
      "original": 2351,
      "itself": 2352,
      "applic": 2353,
      "peace": 2354,
      "express": 2355,
      "decision": 2356,
      "ways": 2357,
      "##ores": 2358,
      "created": 2359,
      "decided": 2360,
      "higher": 2361,
      "request": 2362,
      "seven": 2363,
      "##imin": 2364,
      "##urance": 2365,
      "knowledge": 2366,
      "##rupt": 2367,
      "plant": 2368,
      "acqu": 2369,
      "chines": 2370,
      "##ips": 2371,
      "saying": 2372,
      "dam": 2373,
      "mother": 2374,
      "following": 2375,
      "prep": 2376,
      "paid": 2377,
      "##ites": 2378,
      "chinese": 2379,
      "##arch": 2380,
      "##ky": 2381,
      "##isl": 2382,
      "necessary": 2383,
      "unc": 2384,
      "sav": 2385,
      "military": 2386,
      "##osp": 2387,
      "geor": 2388,
      "recently": 2389,
      "washington": 2390,
      "##iled": 2391,
      "game": 2392,
      "royal": 2393,
      "hit": 2394,
      "dog": 2395,
      "culture": 2396,
      "insp": 2397,
      "trade": 2398,
      "##lo": 2399,
      "##issions": 2400,
      "##eter": 2401,
      "funds": 2402,
      "batt": 2403,
      "action": 2404,
      "trees": 2405,
      "custom": 2406,
      "##estern": 2407,
      "select": 2408,
      "2000": 2409,
      "princ": 2410,
      "color": 2411,
      "attack": 2412,
      "pack": 2413,
      "valley": 2414,
      "moved": 2415,
      "chance": 2416,
      "clean": 2417,
      "cop": 2418,
      "stone": 2419,
      "english": 2420,
      "##osing": 2421,
      "mess": 2422,
      "taxes": 2423,
      "groups": 2424,
      "vot": 2425,
      "##venue": 2426,
      "prefer": 2427,
      "princip": 2428,
      "range": 2429,
      "secret": 2430,
      "seemed": 2431,
      "sand": 2432,
      "##ograph": 2433,
      "lack": 2434,
      "situation": 2435,
      "##he": 2436,
      "exam": 2437,
      "soft": 2438,
      "cat": 2439,
      "legisl": 2440,
      "intr": 2441,
      "##med": 2442,
      "broad": 2443,
      "##ike": 2444,
      "eat": 2445,
      "whate": 2446,
      "practices": 2447,
      "whatever": 2448,
      "spending": 2449,
      "##ction": 2450,
      "relations": 2451,
      "gall": 2452,
      "##ouch": 2453,
      "education": 2454,
      "##ns": 2455,
      "item": 2456,
      "prior": 2457,
      "##olution": 2458,
      "artic": 2459,
      "bey": 2460,
      "except": 2461,
      "super": 2462,
      "serious": 2463,
      "fill": 2464,
      "altern": 2465,
      "surround": 2466,
      "apart": 2467,
      "##akes": 2468,
      "swe": 2469,
      "complex": 2470,
      "gun": 2471,
      "gree": 2472,
      "comb": 2473,
      "##apers": 2474,
      "##ronic": 2475,
      "shops": 2476,
      "separ": 2477,
      "spent": 2478,
      "draw": 2479,
      "##itely": 2480,
      "scen": 2481,
      "views": 2482,
      "##ification": 2483,
      "clients": 2484,
      "fa": 2485,
      "deep": 2486,
      "included": 2487,
      "doct": 2488,
      "##lus": 2489,
      "cold": 2490,
      "creat": 2491,
      "finally": 2492,
      "##ios": 2493,
      "##for": 2494,
      "##ental": 2495,
      "emb": 2496,
      "lang": 2497,
      "phys": 2498,
      "countries": 2499,
      "annual": 2500,
      "ord": 2501,
      "focus": 2502,
      "ju": 2503,
      "save": 2504,
      "crow": 2505,
      "training": 2506,
      "character": 2507,
      "##itten": 2508,
      "##aught": 2509,
      "##head": 2510,
      "committ": 2511,
      "credit": 2512,
      "##thorp": 2513,
      "western": 2514,
      "##izing": 2515,
      "medic": 2516,
      "##hic": 2517,
      "word": 2518,
      "guy": 2519,
      "benefit": 2520,
      "engine": 2521,
      "streets": 2522,
      "##bur": 2523,
      "prim": 2524,
      "##ams": 2525,
      "aver": 2526,
      "force": 2527,
      "growth": 2528,
      "fell": 2529,
      "mater": 2530,
      "reported": 2531,
      "##port": 2532,
      "heav": 2533,
      "paint": 2534,
      "ingle": 2535,
      "efforts": 2536,
      "supposed": 2537,
      "cause": 2538,
      "corn": 2539,
      "assistance": 2540,
      "traditional": 2541,
      "garden": 2542,
      "##ims": 2543,
      "card": 2544,
      "laws": 2545,
      "cele": 2546,
      "##zz": 2547,
      "islands": 2548,
      "body": 2549,
      "mich": 2550,
      "provides": 2551,
      "auditors": 2552,
      "notice": 2553,
      "##uries": 2554,
      "mary": 2555,
      "inglethorp": 2556,
      "isra": 2557,
      "impress": 2558,
      "israel": 2559,
      "retire": 2560,
      "extr": 2561,
      "former": 2562,
      "died": 2563,
      "##igr": 2564,
      "##ource": 2565,
      "slow": 2566,
      "despite": 2567,
      "cook": 2568,
      "celebr": 2569,
      "share": 2570,
      "conduct": 2571,
      "vers": 2572,
      "prices": 2573,
      "throughout": 2574,
      "##xic": 2575,
      "scul": 2576,
      "beyond": 2577,
      "##ises": 2578,
      "wants": 2579,
      "university": 2580,
      "none": 2581,
      "##ipment": 2582,
      "quar": 2583,
      "sculpt": 2584,
      "wish": 2585,
      "station": 2586,
      "anyway": 2587,
      "correct": 2588,
      "##ded": 2589,
      "tomb": 2590,
      "additional": 2591,
      "##hood": 2592,
      "den": 2593,
      "sant": 2594,
      "##go": 2595,
      "link": 2596,
      "##oint": 2597,
      "tourist": 2598,
      "exhib": 2599,
      "adj": 2600,
      "dor": 2601,
      "russ": 2602,
      "paris": 2603,
      "natural": 2604,
      "document": 2605,
      "older": 2606,
      "feat": 2607,
      "##aries": 2608,
      "critical": 2609,
      "ven": 2610,
      "farm": 2611,
      "increased": 2612,
      "km": 2613,
      "mach": 2614,
      "various": 2615,
      "##ware": 2616,
      "remains": 2617,
      "ti": 2618,
      "##ana": 2619,
      "pred": 2620,
      "position": 2621,
      "thinking": 2622,
      "internet": 2623,
      "##uary": 2624,
      "manu": 2625,
      "covered": 2626,
      "dav": 2627,
      "establish": 2628,
      "narr": 2629,
      "##idents": 2630,
      "remain": 2631,
      "blood": 2632,
      "##oph": 2633,
      "##ength": 2634,
      "cand": 2635,
      "nobody": 2636,
      "initi": 2637,
      "maintain": 2638,
      "##ude": 2639,
      "50": 2640,
      "##arily": 2641,
      "dark": 2642,
      "society": 2643,
      "dall": 2644,
      "respect": 2645,
      "reflect": 2646,
      "equipment": 2647,
      "subst": 2648,
      "season": 2649,
      "doub": 2650,
      "instit": 2651,
      "##ological": 2652,
      "size": 2653,
      "comment": 2654,
      "sle": 2655,
      "role": 2656,
      "##set": 2657,
      "interested": 2658,
      "imag": 2659,
      "manufact": 2660,
      "myself": 2661,
      "voice": 2662,
      "bank": 2663,
      "##oon": 2664,
      "written": 2665,
      "americans": 2666,
      "indic": 2667,
      "vote": 2668,
      "emissions": 2669,
      "dallas": 2670,
      "destroy": 2671,
      "tar": 2672,
      "##itor": 2673,
      "##uth": 2674,
      "##vert": 2675,
      "communic": 2676,
      "langu": 2677,
      "upon": 2678,
      "demon": 2679,
      "father": 2680,
      "led": 2681,
      "bab": 2682,
      "gardens": 2683,
      "page": 2684,
      "china": 2685,
      "running": 2686,
      "##to": 2687,
      "region": 2688,
      "discover": 2689,
      "shopping": 2690,
      "##ights": 2691,
      "##rec": 2692,
      "crime": 2693,
      "sad": 2694,
      "##esh": 2695,
      "below": 2696,
      "di": 2697,
      "wee": 2698,
      "install": 2699,
      "movies": 2700,
      "answer": 2701,
      "tourists": 2702,
      "wealth": 2703,
      "cross": 2704,
      "patients": 2705,
      "definitely": 2706,
      "proced": 2707,
      "everybody": 2708,
      "increasing": 2709,
      "spanish": 2710,
      "lives": 2711,
      "construction": 2712,
      "quickly": 2713,
      "deg": 2714,
      "alone": 2715,
      "##more": 2716,
      "brown": 2717,
      "##orr": 2718,
      "round": 2719,
      "wild": 2720,
      "##iction": 2721,
      "affect": 2722,
      "fix": 2723,
      "published": 2724,
      "bay": 2725,
      "rights": 2726,
      "slate": 2727,
      "origin": 2728,
      "##ole": 2729,
      "attemp": 2730,
      "sites": 2731,
      "mand": 2732,
      "25": 2733,
      "developed": 2734,
      "##een": 2735,
      "toward": 2736,
      "inn": 2737,
      "insurance": 2738,
      "international": 2739,
      "##ocks": 2740,
      "hosp": 2741,
      "japanese": 2742,
      "regulatory": 2743,
      "surv": 2744,
      "##oses": 2745,
      "accounting": 2746,
      "continue": 2747,
      "floor": 2748,
      "glass": 2749,
      "pleas": 2750,
      "##oming": 2751,
      "established": 2752,
      "encour": 2753,
      "entities": 2754,
      "generally": 2755,
      "evalu": 2756,
      "goals": 2757,
      "effects": 2758,
      "tend": 2759,
      "sky": 2760,
      "rain": 2761,
      "named": 2762,
      "quiet": 2763,
      "clim": 2764,
      "##estic": 2765,
      "phot": 2766,
      "german": 2767,
      "##ode": 2768,
      "restr": 2769,
      "certainly": 2770,
      "horse": 2771,
      "##egr": 2772,
      "includes": 2773,
      "##uments": 2774,
      "weeks": 2775,
      "largest": 2776,
      "pull": 2777,
      "earth": 2778,
      "emergency": 2779,
      "web": 2780,
      "learn": 2781,
      "opin": 2782,
      "phil": 2783,
      "leading": 2784,
      "cit": 2785,
      "dress": 2786,
      "##xim": 2787,
      "jes": 2788,
      "##asons": 2789,
      "##ift": 2790,
      "choice": 2791,
      "looks": 2792,
      "consist": 2793,
      "nature": 2794,
      "bought": 2795,
      "hol": 2796,
      "cas": 2797,
      "ign": 2798,
      "##eal": 2799,
      "##pect": 2800,
      "volume": 2801,
      "recommend": 2802,
      "##ino": 2803,
      "difference": 2804,
      "##und": 2805,
      "practice": 2806,
      "cathed": 2807,
      "absol": 2808,
      "appropriate": 2809,
      "##iff": 2810,
      "lots": 2811,
      "##ging": 2812,
      "threat": 2813,
      "susp": 2814,
      "club": 2815,
      "afford": 2816,
      "authority": 2817,
      "blue": 2818,
      "mart": 2819,
      "carry": 2820,
      "average": 2821,
      "##view": 2822,
      "basis": 2823,
      "##bers": 2824,
      "##iate": 2825,
      "investig": 2826,
      "favorite": 2827,
      "multip": 2828,
      "indian": 2829,
      "letter": 2830,
      "internal": 2831,
      "neighbor": 2832,
      "relationship": 2833,
      "officials": 2834,
      "##iques": 2835,
      "watching": 2836,
      "walls": 2837,
      "terms": 2838,
      "drugs": 2839,
      "ali": 2840,
      "##ax": 2841,
      "##ivity": 2842,
      "trouble": 2843,
      "##iest": 2844,
      "senior": 2845,
      "##olf": 2846,
      "##leg": 2847,
      "wrote": 2848,
      "terrible": 2849,
      "meeting": 2850,
      "mic": 2851,
      "##ux": 2852,
      "integr": 2853,
      "ur": 2854,
      "reduce": 2855,
      "wait": 2856,
      "hotels": 2857,
      "battle": 2858,
      "hop": 2859,
      "previous": 2860,
      "events": 2861,
      "fast": 2862,
      "##ches": 2863,
      "medical": 2864,
      "mort": 2865,
      "beaches": 2866,
      "##ex": 2867,
      "students": 2868,
      "lad": 2869,
      "tit": 2870,
      "##sy": 2871,
      "bye": 2872,
      "absolute": 2873,
      "stock": 2874,
      "sens": 2875,
      "lawyer": 2876,
      "spot": 2877,
      "guid": 2878,
      "##aughter": 2879,
      "sched": 2880,
      "growing": 2881,
      "families": 2882,
      "offers": 2883,
      "##scape": 2884,
      "schools": 2885,
      "skill": 2886,
      "##ban": 2887,
      "trip": 2888,
      "197": 2889,
      "space": 2890,
      "whose": 2891,
      "easily": 2892,
      "excell": 2893,
      "##uted": 2894,
      "check": 2895,
      "##ceed": 2896,
      "louis": 2897,
      "restaurants": 2898,
      "sounds": 2899,
      "##utions": 2900,
      "agre": 2901,
      "gate": 2902,
      "mid": 2903,
      "##yr": 2904,
      "##pped": 2905,
      "serve": 2906,
      "ded": 2907,
      "occur": 2908,
      "##usal": 2909,
      "##owers": 2910,
      "##ables": 2911,
      "safe": 2912,
      "##iling": 2913,
      "##enced": 2914,
      "pieces": 2915,
      "fash": 2916,
      "perm": 2917,
      "particularly": 2918,
      "##ne": 2919,
      "retirement": 2920,
      "feet": 2921,
      "regular": 2922,
      "products": 2923,
      "measure": 2924,
      "individuals": 2925,
      "managers": 2926,
      "##astic": 2927,
      "nearly": 2928,
      "dut": 2929,
      "##bed": 2930,
      "achieve": 2931,
      "fem": 2932,
      "purch": 2933,
      "rad": 2934,
      "types": 2935,
      "dang": 2936,
      "##ining": 2937,
      "helped": 2938,
      "administration": 2939,
      "rap": 2940,
      "tom": 2941,
      "cities": 2942,
      "weap": 2943,
      "colum": 2944,
      "winter": 2945,
      "path": 2946,
      "##ustr": 2947,
      "ensure": 2948,
      "luck": 2949,
      "treas": 2950,
      "##idge": 2951,
      "spl": 2952,
      "master": 2953,
      "flex": 2954,
      "revenue": 2955,
      "##sequ": 2956,
      "somebody": 2957,
      "frequ": 2958,
      "##erved": 2959,
      "prec": 2960,
      "reli": 2961,
      "levels": 2962,
      "magn": 2963,
      "film": 2964,
      "killed": 2965,
      "subm": 2966,
      "1996": 2967,
      "accomp": 2968,
      "respond": 2969,
      "savings": 2970,
      "dave": 2971,
      "##ici": 2972,
      "simply": 2973,
      "ess": 2974,
      "payments": 2975,
      "ball": 2976,
      "stood": 2977,
      "closed": 2978,
      "cam": 2979,
      "prevent": 2980,
      "##erry": 2981,
      "payment": 2982,
      "jewish": 2983,
      "immed": 2984,
      "language": 2985,
      "mention": 2986,
      "fly": 2987,
      "star": 2988,
      "production": 2989,
      "60": 2990,
      "extreme": 2991,
      "simple": 2992,
      "##like": 2993,
      "mountains": 2994,
      "##asc": 2995,
      "thirty": 2996,
      "##wide": 2997,
      "##ma": 2998,
      "##onse": 2999,
      "##iced": 3000,
      "conv": 3001,
      "knows": 3002,
      "conserv": 3003,
      "##ung": 3004,
      "##dh": 3005,
      "##aving": 3006,
      "added": 3007,
      "mist": 3008,
      "##ara": 3009,
      "smaller": 3010,
      "steps": 3011,
      "fashion": 3012,
      "equal": 3013,
      "christian": 3014,
      "##iny": 3015,
      "##ibly": 3016,
      "mostly": 3017,
      "committee": 3018,
      "mis": 3019,
      "display": 3020,
      "items": 3021,
      "response": 3022,
      "##ively": 3023,
      "effort": 3024,
      "phone": 3025,
      "excellent": 3026,
      "196": 3027,
      "decl": 3028,
      "2001": 3029,
      "connect": 3030,
      "journal": 3031,
      "##ck": 3032,
      "##ls": 3033,
      "playing": 3034,
      "mission": 3035,
      "actions": 3036,
      "successful": 3037,
      "george": 3038,
      "sports": 3039,
      "##ipped": 3040,
      "hong": 3041,
      "disp": 3042,
      "stra": 3043,
      "decor": 3044,
      "operations": 3045,
      "policies": 3046,
      "##erve": 3047,
      "##ones": 3048,
      "india": 3049,
      "religious": 3050,
      "methods": 3051,
      "host": 3052,
      "obvious": 3053,
      "beat": 3054,
      "coll": 3055,
      "rooms": 3056,
      "40": 3057,
      "david": 3058,
      "gar": 3059,
      "kong": 3060,
      "##back": 3061,
      "tower": 3062,
      "fest": 3063,
      "prison": 3064,
      "##ster": 3065,
      "sword": 3066,
      "horr": 3067,
      "##uit": 3068,
      "accur": 3069,
      "official": 3070,
      "omb": 3071,
      "magaz": 3072,
      "kal": 3073,
      "centuries": 3074,
      "##room": 3075,
      "yourself": 3076,
      "industr": 3077,
      "cloth": 3078,
      "limited": 3079,
      "structure": 3080,
      "obtain": 3081,
      "estimates": 3082,
      "bott": 3083,
      "##unt": 3084,
      "participants": 3085,
      "##usalem": 3086,
      "jerusalem": 3087,
      "fisc": 3088,
      "##come": 3089,
      "##uctions": 3090,
      "challeng": 3091,
      "truth": 3092,
      "entertain": 3093,
      "avoid": 3094,
      "lat": 3095,
      "ange": 3096,
      "requires": 3097,
      "ability": 3098,
      "southern": 3099,
      "box": 3100,
      "vac": 3101,
      "cars": 3102,
      "passed": 3103,
      "army": 3104,
      "paying": 3105,
      "ft": 3106,
      "mix": 3107,
      "inj": 3108,
      "##ament": 3109,
      "advert": 3110,
      "reasons": 3111,
      "media": 3112,
      "cathedral": 3113,
      "anymore": 3114,
      "##teen": 3115,
      "bes": 3116,
      "##ira": 3117,
      "##ulf": 3118,
      "receive": 3119,
      "spoke": 3120,
      "catch": 3121,
      "constant": 3122,
      "newsp": 3123,
      "giving": 3124,
      "hans": 3125,
      "served": 3126,
      "nearby": 3127,
      "beginning": 3128,
      "discount": 3129,
      "propos": 3130,
      "track": 3131,
      "spir": 3132,
      "gives": 3133,
      "##ask": 3134,
      "commerc": 3135,
      "judge": 3136,
      "compl": 3137,
      "believed": 3138,
      "potential": 3139,
      "alternative": 3140,
      "fiscal": 3141,
      "flor": 3142,
      "setting": 3143,
      "ver": 3144,
      "estimate": 3145,
      "environmental": 3146,
      "castle": 3147,
      "experi": 3148,
      "property": 3149,
      "##iar": 3150,
      "independent": 3151,
      "ready": 3152,
      "calif": 3153,
      "lay": 3154,
      "##aters": 3155,
      "##vey": 3156,
      "##iring": 3157,
      "adop": 3158,
      "greek": 3159,
      "goods": 3160,
      "director": 3161,
      "liber": 3162,
      "##ground": 3163,
      "guide": 3164,
      "coff": 3165,
      "article": 3166,
      "sac": 3167,
      "relative": 3168,
      "ben": 3169,
      "##ille": 3170,
      "##anced": 3171,
      "mountain": 3172,
      "##iation": 3173,
      "ut": 3174,
      "currently": 3175,
      "responsible": 3176,
      "debt": 3177,
      "capt": 3178,
      "electric": 3179,
      "je": 3180,
      "buddh": 3181,
      "sud": 3182,
      "pun": 3183,
      "stories": 3184,
      "##aded": 3185,
      "contains": 3186,
      "##aud": 3187,
      "points": 3188,
      "county": 3189,
      "##omb": 3190,
      "sector": 3191,
      "candid": 3192,
      "reading": 3193,
      "watched": 3194,
      "raised": 3195,
      "associated": 3196,
      "demonstr": 3197,
      "##wise": 3198,
      "##ergy": 3199,
      "purpose": 3200,
      "absolutely": 3201,
      "regulations": 3202,
      "spring": 3203,
      "##ornia": 3204,
      "larger": 3205,
      "republicans": 3206,
      "##fort": 3207,
      "##owing": 3208,
      "shar": 3209,
      "qual": 3210,
      "empire": 3211,
      "parts": 3212,
      "married": 3213,
      "band": 3214,
      "las": 3215,
      "charge": 3216,
      "##eed": 3217,
      "##ado": 3218,
      "useful": 3219,
      "interview": 3220,
      "adjust": 3221,
      "##change": 3222,
      "ib": 3223,
      "oil": 3224,
      "expand": 3225,
      "agreed": 3226,
      "touch": 3227,
      "multiple": 3228,
      "confer": 3229,
      "narrow": 3230,
      "##lier": 3231,
      "consum": 3232,
      "eye": 3233,
      "gi": 3234,
      "born": 3235,
      "hate": 3236,
      "tele": 3237,
      "italian": 3238,
      "influence": 3239,
      "hair": 3240,
      "series": 3241,
      "entrance": 3242,
      "note": 3243,
      "appl": 3244,
      "variety": 3245,
      "date": 3246,
      "##oud": 3247,
      "##asion": 3248,
      "decisions": 3249,
      "intervention": 3250,
      "hanson": 3251,
      "shop": 3252,
      "politics": 3253,
      "progress": 3254,
      "cash": 3255,
      "worse": 3256,
      "stopped": 3257,
      "forward": 3258,
      "##icians": 3259,
      "domestic": 3260,
      "convers": 3261,
      "greater": 3262,
      "basic": 3263,
      "critics": 3264,
      "tast": 3265,
      "exerc": 3266,
      "northern": 3267,
      "quarter": 3268,
      "roll": 3269,
      "providing": 3270,
      "eastern": 3271,
      "create": 3272,
      "oppos": 3273,
      "micr": 3274,
      "##ners": 3275,
      "therefore": 3276,
      "amaz": 3277,
      "liter": 3278,
      "statements": 3279,
      "daily": 3280,
      "tick": 3281,
      "billion": 3282,
      "constit": 3283,
      "source": 3284,
      "##ula": 3285,
      "citiz": 3286,
      "##ety": 3287,
      "analy": 3288,
      "##chan": 3289,
      "professional": 3290,
      "grad": 3291,
      "towards": 3292,
      "fishing": 3293,
      "##mon": 3294,
      "weak": 3295,
      "continued": 3296,
      "##oted": 3297,
      "directly": 3298,
      "opportunity": 3299,
      "sudden": 3300,
      "rele": 3301,
      "wear": 3302,
      "##put": 3303,
      "prin": 3304,
      "assessment": 3305,
      "kid": 3306,
      "jobs": 3307,
      "franc": 3308,
      "spain": 3309,
      "##eys": 3310,
      "heavy": 3311,
      "1999": 3312,
      "resort": 3313,
      "factors": 3314,
      "sleep": 3315,
      "##cil": 3316,
      "swim": 3317,
      "estimated": 3318,
      "eth": 3319,
      "##gas": 3320,
      "warm": 3321,
      "destroyed": 3322,
      "gas": 3323,
      "autom": 3324,
      "animals": 3325,
      "statement": 3326,
      "wonderful": 3327,
      "bono": 3328,
      "talked": 3329,
      "##nes": 3330,
      "##icted": 3331,
      "funny": 3332,
      "activity": 3333,
      "features": 3334,
      "behav": 3335,
      "discussed": 3336,
      "##cl": 3337,
      "thousands": 3338,
      "##wood": 3339,
      "rural": 3340,
      "apply": 3341,
      "##ously": 3342,
      "brief": 3343,
      "followed": 3344,
      "jan": 3345,
      "##umption": 3346,
      "##wor": 3347,
      "starting": 3348,
      "##itz": 3349,
      "existing": 3350,
      "hang": 3351,
      "offered": 3352,
      "21": 3353,
      "aug": 3354,
      "majority": 3355,
      "condition": 3356,
      "mine": 3357,
      "##ule": 3358,
      "extra": 3359,
      "rail": 3360,
      "worry": 3361,
      "500": 3362,
      "cheap": 3363,
      "reb": 3364,
      "meant": 3365,
      "straight": 3366,
      "caught": 3367,
      "jack": 3368,
      "telev": 3369,
      "opened": 3370,
      "unless": 3371,
      "prem": 3372,
      "representation": 3373,
      "loss": 3374,
      "imposs": 3375,
      "ended": 3376,
      "clos": 3377,
      "willing": 3378,
      "sight": 3379,
      "shot": 3380,
      "thus": 3381,
      "chief": 3382,
      "association": 3383,
      "attorney": 3384,
      "pet": 3385,
      "choose": 3386,
      "categ": 3387,
      "pil": 3388,
      "##iers": 3389,
      "spect": 3390,
      "seeing": 3391,
      "entity": 3392,
      "enjoyed": 3393,
      "route": 3394,
      "games": 3395,
      "european": 3396,
      "california": 3397,
      "treatment": 3398,
      "introd": 3399,
      "jesus": 3400,
      "##ada": 3401,
      "##ucing": 3402,
      "efficient": 3403,
      "paintings": 3404,
      "procedures": 3405,
      "los": 3406,
      "nine": 3407,
      "rent": 3408,
      "##ael": 3409,
      "claims": 3410,
      "jama": 3411,
      "lose": 3412,
      "evening": 3413,
      "writ": 3414,
      "murder": 3415,
      "##bb": 3416,
      "disapp": 3417,
      "england": 3418,
      "##force": 3419,
      "meaning": 3420,
      "opinion": 3421,
      "##ibilities": 3422,
      "ahead": 3423,
      "##ests": 3424,
      "fresh": 3425,
      "dub": 3426,
      "##oes": 3427,
      "##eth": 3428,
      "chair": 3429,
      "ul": 3430,
      "listen": 3431,
      "craft": 3432,
      "eventually": 3433,
      "##tions": 3434,
      "frank": 3435,
      "stores": 3436,
      "sus": 3437,
      "##week": 3438,
      "attorneys": 3439,
      "science": 3440,
      "assets": 3441,
      "1998": 3442,
      "decre": 3443,
      "played": 3444,
      "affected": 3445,
      "target": 3446,
      "##itable": 3447,
      "clock": 3448,
      "##izes": 3449,
      "hospital": 3450,
      "ideas": 3451,
      "match": 3452,
      "distrib": 3453,
      "separate": 3454,
      "commercial": 3455,
      "liked": 3456,
      "firm": 3457,
      "transport": 3458,
      "##uing": 3459,
      "##gin": 3460,
      "march": 3461,
      "##oft": 3462,
      "##inct": 3463,
      "violence": 3464,
      "walking": 3465,
      "energy": 3466,
      "##ague": 3467,
      "clearly": 3468,
      "##ham": 3469,
      "store": 3470,
      "bridge": 3471,
      "strategic": 3472,
      "impossible": 3473,
      "emper": 3474,
      "grew": 3475,
      "appar": 3476,
      "reached": 3477,
      "bord": 3478,
      "electronic": 3479,
      "aware": 3480,
      "ken": 3481,
      "rare": 3482,
      "arab": 3483,
      "compared": 3484,
      "boat": 3485,
      "sales": 3486,
      "doctor": 3487,
      "nap": 3488,
      "##ena": 3489,
      "search": 3490,
      "##ulated": 3491,
      "merc": 3492,
      "shouldn": 3493,
      "coffee": 3494,
      "##oken": 3495,
      "daughter": 3496,
      "sor": 3497,
      "minute": 3498,
      "doubt": 3499,
      "cav": 3500,
      "##emp": 3501,
      "##key": 3502,
      "acquis": 3503,
      "minor": 3504,
      "minim": 3505,
      "robert": 3506,
      "standing": 3507,
      "noted": 3508,
      "apprec": 3509,
      "##ps": 3510,
      "##action": 3511,
      "vegas": 3512,
      "newsweek": 3513,
      "gore": 3514,
      "sitting": 3515,
      "remained": 3516,
      "defense": 3517,
      "italy": 3518,
      "rue": 3519,
      "samp": 3520,
      "##ander": 3521,
      "originally": 3522,
      "##antage": 3523,
      "fol": 3524,
      "trail": 3525,
      "immigr": 3526,
      "od": 3527,
      "colon": 3528,
      "theater": 3529,
      "mel": 3530,
      "wine": 3531,
      "doro": 3532,
      "surpl": 3533,
      "bi": 3534,
      "shown": 3535,
      "evaluation": 3536,
      "architecture": 3537,
      "burn": 3538,
      "dre": 3539,
      "assum": 3540,
      "risks": 3541,
      "mexic": 3542,
      "unit": 3543,
      "positive": 3544,
      "objectives": 3545,
      "##tim": 3546,
      "lew": 3547,
      "location": 3548,
      "software": 3549,
      "corner": 3550,
      "television": 3551,
      "shall": 3552,
      "protection": 3553,
      "hurt": 3554,
      "vide": 3555,
      "regarding": 3556,
      "feeling": 3557,
      "testing": 3558,
      "##inating": 3559,
      "##inated": 3560,
      "earlier": 3561,
      "##ffic": 3562,
      "compar": 3563,
      "temples": 3564,
      "cub": 3565,
      "immedi": 3566,
      "##kn": 3567,
      "##reg": 3568,
      "sund": 3569,
      "cultural": 3570,
      "sources": 3571,
      "write": 3572,
      "towns": 3573,
      "##ca": 3574,
      "police": 3575,
      "easier": 3576,
      "dod": 3577,
      "hind": 3578,
      "hyp": 3579,
      "brother": 3580,
      "dollar": 3581,
      "limit": 3582,
      "waiting": 3583,
      "retr": 3584,
      "fully": 3585,
      "function": 3586,
      "moving": 3587,
      "immediately": 3588,
      "##can": 3589,
      "calls": 3590,
      "nin": 3591,
      "dram": 3592,
      "holy": 3593,
      "send": 3594,
      "interventions": 3595,
      "via": 3596,
      "forg": 3597,
      "parties": 3598,
      "completed": 3599,
      "jury": 3600,
      "interior": 3601,
      "identified": 3602,
      "ride": 3603,
      "thinks": 3604,
      "numbers": 3605,
      "controls": 3606,
      "generation": 3607,
      "##liance": 3608,
      "initial": 3609,
      "screening": 3610,
      "amb": 3611,
      "council": 3612,
      "##itude": 3613,
      "starr": 3614,
      "conditions": 3615,
      "##aped": 3616,
      "values": 3617,
      "camping": 3618,
      "matters": 3619,
      "identify": 3620,
      "19th": 3621,
      "oldest": 3622,
      "statue": 3623,
      "golf": 3624,
      "homes": 3625,
      "failed": 3626,
      "thorn": 3627,
      "thanks": 3628,
      "relax": 3629,
      "##azz": 3630,
      "papers": 3631,
      "##ifying": 3632,
      "race": 3633,
      "##ta": 3634,
      "##ney": 3635,
      "forced": 3636,
      "##oles": 3637,
      "##riage": 3638,
      "picture": 3639,
      "breat": 3640,
      "##los": 3641,
      "bron": 3642,
      "july": 3643,
      "martin": 3644,
      "mall": 3645,
      "##light": 3646,
      "satis": 3647,
      "member": 3648,
      "baby": 3649,
      "##ae": 3650,
      "##onna": 3651,
      "cool": 3652,
      "restaurant": 3653,
      "##dom": 3654,
      "intended": 3655,
      "prepared": 3656,
      "wer": 3657,
      "susan": 3658,
      "die": 3659,
      "##levant": 3660,
      "implementation": 3661,
      "birth": 3662,
      "micros": 3663,
      "extremely": 3664,
      "##ago": 3665,
      "stayed": 3666,
      "draft": 3667,
      "advoc": 3668,
      "august": 3669,
      "bow": 3670,
      "grass": 3671,
      "strange": 3672,
      "symb": 3673,
      "caused": 3674,
      "flexibility": 3675,
      "##mer": 3676,
      "plants": 3677,
      "saf": 3678,
      "stew": 3679,
      "compliance": 3680,
      "explain": 3681,
      "dedic": 3682,
      "lunch": 3683,
      "##antic": 3684,
      "##acity": 3685,
      "spee": 3686,
      "arts": 3687,
      "1997": 3688,
      "neighborhood": 3689,
      "engage": 3690,
      "employee": 3691,
      "painted": 3692,
      "##iveness": 3693,
      "uses": 3694,
      "psy": 3695,
      "tough": 3696,
      "union": 3697,
      "tall": 3698,
      "##istics": 3699,
      "##aza": 3700,
      "##rid": 3701,
      "##men": 3702,
      "print": 3703,
      "16th": 3704,
      "bag": 3705,
      "gain": 3706,
      "comfort": 3707,
      "##iel": 3708,
      "filled": 3709,
      "brand": 3710,
      "survey": 3711,
      "grantees": 3712,
      "executives": 3713,
      "il": 3714,
      "client": 3715,
      "suggested": 3716,
      "records": 3717,
      "dinner": 3718,
      "rac": 3719,
      "##iday": 3720,
      "trib": 3721,
      "offices": 3722,
      "guard": 3723,
      "writing": 3724,
      "biggest": 3725,
      "projects": 3726,
      "routes": 3727,
      "psych": 3728,
      "cyn": 3729,
      "counsel": 3730,
      "clothes": 3731,
      "dan": 3732,
      "fat": 3733,
      "responsibility": 3734,
      "err": 3735,
      "##burgh": 3736,
      "weren": 3737,
      "unlike": 3738,
      "finance": 3739,
      "determine": 3740,
      "reduction": 3741,
      "republican": 3742,
      "fifty": 3743,
      "##mber": 3744,
      "##mos": 3745,
      "overall": 3746,
      "##ji": 3747,
      "lie": 3748,
      "incent": 3749,
      "actual": 3750,
      "monument": 3751,
      "concerned": 3752,
      "##ycle": 3753,
      "performed": 3754,
      "material": 3755,
      "industrial": 3756,
      "18th": 3757,
      "thank": 3758,
      "foundation": 3759,
      "career": 3760,
      "hills": 3761,
      "##eless": 3762,
      "instr": 3763,
      "mir": 3764,
      "stands": 3765,
      "fasc": 3766,
      "##ston": 3767,
      "residents": 3768,
      "17th": 3769,
      "libr": 3770,
      "importance": 3771,
      "anti": 3772,
      "commit": 3773,
      "golden": 3774,
      "otherwise": 3775,
      "historical": 3776,
      "welf": 3777,
      "exchange": 3778,
      "normal": 3779,
      "welfare": 3780,
      "processes": 3781,
      "pictures": 3782,
      "##oh": 3783,
      "manufacturing": 3784,
      "##ieval": 3785,
      "discussion": 3786,
      "et": 3787,
      "wed": 3788,
      "##unk": 3789,
      "##centr": 3790,
      "situ": 3791,
      "greatest": 3792,
      "powerful": 3793,
      "pollution": 3794,
      "microsoft": 3795,
      "##pper": 3796,
      "afric": 3797,
      "highly": 3798,
      "editor": 3799,
      "feed": 3800,
      "cow": 3801,
      "rulem": 3802,
      "recognized": 3803,
      "201": 3804,
      "eld": 3805,
      "##da": 3806,
      "anywhere": 3807,
      "households": 3808,
      "behavior": 3809,
      "guys": 3810,
      "yard": 3811,
      "novel": 3812,
      "guar": 3813,
      "citizens": 3814,
      "spread": 3815,
      "willi": 3816,
      "##ancy": 3817,
      "gent": 3818,
      "weight": 3819,
      "prosp": 3820,
      "housing": 3821,
      "emperor": 3822,
      "194": 3823,
      "1995": 3824,
      "senate": 3825,
      "##ushed": 3826,
      "conference": 3827,
      "lux": 3828,
      "interp": 3829,
      "slight": 3830,
      "kinds": 3831,
      "revolution": 3832,
      "cert": 3833,
      "gather": 3834,
      "repe": 3835,
      "purs": 3836,
      "learned": 3837,
      "acquisition": 3838,
      "##tered": 3839,
      "cru": 3840,
      "depend": 3841,
      "cafe": 3842,
      "changing": 3843,
      "##iles": 3844,
      "concentr": 3845,
      "windows": 3846,
      "hell": 3847,
      "concept": 3848,
      "medieval": 3849,
      "conclus": 3850,
      "accounts": 3851,
      "competition": 3852,
      "rulemaking": 3853,
      "rise": 3854,
      "##raid": 3855,
      "lady": 3856,
      "award": 3857,
      "ton": 3858,
      "unfortun": 3859,
      "mortality": 3860,
      "unique": 3861,
      "alt": 3862,
      "rand": 3863,
      "theory": 3864,
      "##erate": 3865,
      "contact": 3866,
      "imagine": 3867,
      "van": 3868,
      "##outh": 3869,
      "##adem": 3870,
      "vand": 3871,
      "##af": 3872,
      "understanding": 3873,
      "fear": 3874,
      "findings": 3875,
      "capacity": 3876,
      "technical": 3877,
      "musl": 3878,
      "machine": 3879,
      "goal": 3880,
      "##asts": 3881,
      "hundreds": 3882,
      "michael": 3883,
      "substant": 3884,
      "22": 3885,
      "happens": 3886,
      "##nie": 3887,
      "plenty": 3888,
      "advice": 3889,
      "involve": 3890,
      "chapel": 3891,
      "nod": 3892,
      "patter": 3893,
      "trial": 3894,
      "195": 3895,
      "showed": 3896,
      "guarant": 3897,
      "##eria": 3898,
      "busy": 3899,
      "rose": 3900,
      "##etic": 3901,
      "boil": 3902,
      "traffic": 3903,
      "##ested": 3904,
      "recip": 3905,
      "appeal": 3906,
      "virgin": 3907,
      "bother": 3908,
      "register": 3909,
      "businesses": 3910,
      "calc": 3911,
      "profession": 3912,
      "suppose": 3913,
      "worst": 3914,
      "wel": 3915,
      "scient": 3916,
      "##berg": 3917,
      "abuse": 3918,
      "unp": 3919,
      "log": 3920,
      "familiar": 3921,
      "degree": 3922,
      "oct": 3923,
      "veget": 3924,
      "magazine": 3925,
      "##west": 3926,
      "forces": 3927,
      "june": 3928,
      "##olic": 3929,
      "strug": 3930,
      "afraid": 3931,
      "concerns": 3932,
      "drinking": 3933,
      "legislation": 3934,
      "version": 3935,
      "hors": 3936,
      "##irt": 3937,
      "##oking": 3938,
      "artists": 3939,
      "student": 3940,
      "speaking": 3941,
      "mosque": 3942,
      "bul": 3943,
      "election": 3944,
      "described": 3945,
      "##lig": 3946,
      "##ba": 3947,
      "sevent": 3948,
      "merch": 3949,
      "recommendations": 3950,
      "exercise": 3951,
      "shad": 3952,
      "leadership": 3953,
      "##otic": 3954,
      "produced": 3955,
      "bath": 3956,
      "pic": 3957,
      "##reh": 3958,
      "circum": 3959,
      "tun": 3960,
      "cards": 3961,
      "jane": 3962,
      "tri": 3963,
      "reduced": 3964,
      "transfer": 3965,
      "roof": 3966,
      "factor": 3967,
      "pleasant": 3968,
      "##has": 3969,
      "gotten": 3970,
      "virt": 3971,
      "cup": 3972,
      "##sid": 3973,
      "##endish": 3974,
      "congressional": 3975,
      "courts": 3976,
      "founded": 3977,
      "##rel": 3978,
      "relevant": 3979,
      "doz": 3980,
      "mont": 3981,
      "players": 3982,
      "critic": 3983,
      "opposite": 3984,
      "defe": 3985,
      "##aging": 3986,
      "##ald": 3987,
      "##using": 3988,
      "hadn": 3989,
      "younger": 3990,
      "angeles": 3991,
      "spirit": 3992,
      "tree": 3993,
      "##eries": 3994,
      "##ocked": 3995,
      "imper": 3996,
      "status": 3997,
      "##orrow": 3998,
      "radio": 3999,
      "leaving": 4000,
      "loan": 4001,
      "##ension": 4002,
      "shoot": 4003,
      "iron": 4004,
      "neither": 4005,
      "cavendish": 4006,
      "##ris": 4007,
      "chem": 4008,
      "determined": 4009,
      "ultim": 4010,
      "amp": 4011,
      "names": 4012,
      "units": 4013,
      "pool": 4014,
      "strength": 4015,
      "conflic": 4016,
      "bare": 4017,
      "##anch": 4018,
      "lies": 4019,
      "facilities": 4020,
      "##gd": 4021,
      "bell": 4022,
      "lif": 4023,
      "##ictions": 4024,
      "schedule": 4025,
      "tiny": 4026,
      "##gu": 4027,
      "##ender": 4028,
      "keeping": 4029,
      "burden": 4030,
      "construct": 4031,
      "mac": 4032,
      "frame": 4033,
      "##mas": 4034,
      "skin": 4035,
      "topic": 4036,
      "bomb": 4037,
      "hi": 4038,
      "##gry": 4039,
      "handle": 4040,
      "totally": 4041,
      "gallery": 4042,
      "amazing": 4043,
      "peak": 4044,
      "twice": 4045,
      "network": 4046,
      "##abor": 4047,
      "challenges": 4048,
      "waste": 4049,
      "flat": 4050,
      "##place": 4051,
      "reviews": 4052,
      "democrats": 4053,
      "inqu": 4054,
      "##ulate": 4055,
      "advantage": 4056,
      "painting": 4057,
      "forget": 4058,
      "speech": 4059,
      "library": 4060,
      "song": 4061,
      "##ented": 4062,
      "helps": 4063,
      "irish": 4064,
      "inspect": 4065,
      "dublin": 4066,
      "##ket": 4067,
      "sem": 4068,
      "highest": 4069,
      "produce": 4070,
      "portug": 4071,
      "arrived": 4072,
      "fortun": 4073,
      "##era": 4074,
      "window": 4075,
      "entertainment": 4076,
      "##oo": 4077,
      "##oked": 4078,
      "adult": 4079,
      "occup": 4080,
      "freed": 4081,
      "aspect": 4082,
      "developing": 4083,
      "steel": 4084,
      "figures": 4085,
      "leader": 4086,
      "##idden": 4087,
      "fighting": 4088,
      "corporate": 4089,
      "laugh": 4090,
      "resident": 4091,
      "differences": 4092,
      "negative": 4093,
      "online": 4094,
      "users": 4095,
      "organizational": 4096,
      "presented": 4097,
      "measures": 4098,
      "rough": 4099,
      "##ha": 4100,
      "quant": 4101,
      "##ologies": 4102,
      "options": 4103,
      "##inary": 4104,
      "consult": 4105,
      "finished": 4106,
      "##inger": 4107,
      "accountability": 4108,
      "fit": 4109,
      "##oned": 4110,
      "dece": 4111,
      "enem": 4112,
      "gothic": 4113,
      "planned": 4114,
      "snow": 4115,
      "rub": 4116,
      "##ancing": 4117,
      "announ": 4118,
      "##amic": 4119,
      "dangerous": 4120,
      "##ties": 4121,
      "##ortion": 4122,
      "requirement": 4123,
      "sam": 4124,
      "repor": 4125,
      "walked": 4126,
      "scenar": 4127,
      "##ctions": 4128,
      "forth": 4129,
      "glad": 4130,
      "double": 4131,
      "##ste": 4132,
      "chic": 4133,
      "believes": 4134,
      "girls": 4135,
      "faith": 4136,
      "##ii": 4137,
      "##ries": 4138,
      "tea": 4139,
      "decide": 4140,
      "primary": 4141,
      "magnific": 4142,
      "##eyer": 4143,
      "opportunities": 4144,
      "dedicated": 4145,
      "##apes": 4146,
      "football": 4147,
      "gd": 4148,
      "##ini": 4149,
      "##lex": 4150,
      "concer": 4151,
      "vehic": 4152,
      "helping": 4153,
      "jews": 4154,
      "illeg": 4155,
      "aim": 4156,
      "buying": 4157,
      "supply": 4158,
      "hen": 4159,
      "kar": 4160,
      "mc": 4161,
      "##erly": 4162,
      "##agon": 4163,
      "santa": 4164,
      "weapons": 4165,
      "era": 4166,
      "vast": 4167,
      "gh": 4168,
      "convent": 4169,
      "mob": 4170,
      "depends": 4171,
      "dad": 4172,
      "mile": 4173,
      "heat": 4174,
      "conversation": 4175,
      "vandem": 4176,
      "rang": 4177,
      "##equ": 4178,
      "##well": 4179,
      "edin": 4180,
      "leads": 4181,
      "selling": 4182,
      "fairly": 4183,
      "compon": 4184,
      "monaster": 4185,
      "numerous": 4186,
      "profit": 4187,
      "skills": 4188,
      "mcc": 4189,
      "spr": 4190,
      "territ": 4191,
      "reve": 4192,
      "loved": 4193,
      "funded": 4194,
      "refused": 4195,
      "victor": 4196,
      "honor": 4197,
      "vandemeyer": 4198,
      "stated": 4199,
      "resorts": 4200,
      "aftern": 4201,
      "surprised": 4202,
      "massive": 4203,
      "academ": 4204,
      "##akers": 4205,
      "indeed": 4206,
      "earn": 4207,
      "edinburgh": 4208,
      "lines": 4209,
      "##onom": 4210,
      "tro": 4211,
      "marble": 4212,
      "stret": 4213,
      "tests": 4214,
      "##ront": 4215,
      "apr": 4216,
      "##house": 4217,
      "jamaica": 4218,
      "bou": 4219,
      "cio": 4220,
      "crim": 4221,
      "rob": 4222,
      "rena": 4223,
      "medicare": 4224,
      "guidance": 4225,
      "ira": 4226,
      "bob": 4227,
      "governments": 4228,
      "reductions": 4229,
      "responsibilities": 4230,
      "carri": 4231,
      "restored": 4232,
      "markets": 4233,
      "coverage": 4234,
      "challen": 4235,
      "shut": 4236,
      "penal": 4237,
      "illustr": 4238,
      "##nam": 4239,
      "conqu": 4240,
      "finding": 4241,
      "visited": 4242,
      "observ": 4243,
      "slaves": 4244,
      "gdp": 4245,
      "length": 4246,
      "##unte": 4247,
      "cab": 4248,
      "hearing": 4249,
      "driving": 4250,
      "productivity": 4251,
      "corporation": 4252,
      "engineering": 4253,
      "furn": 4254,
      "##gs": 4255,
      "##ida": 4256,
      "##incol": 4257,
      "satur": 4258,
      "horses": 4259,
      "ou": 4260,
      "##nel": 4261,
      "pra": 4262,
      "examples": 4263,
      "volunte": 4264,
      "accepted": 4265,
      "##do": 4266,
      "##adel": 4267,
      "carp": 4268,
      "conducted": 4269,
      "jump": 4270,
      "recon": 4271,
      "desert": 4272,
      "##issance": 4273,
      "weekend": 4274,
      "firms": 4275,
      "models": 4276,
      "forms": 4277,
      "task": 4278,
      "perman": 4279,
      "manager": 4280,
      "cart": 4281,
      "cell": 4282,
      "der": 4283,
      "sept": 4284,
      "lincol": 4285,
      "mat": 4286,
      "seek": 4287,
      "carved": 4288,
      "elig": 4289,
      "holly": 4290,
      "impressive": 4291,
      "row": 4292,
      "##yl": 4293,
      "holding": 4294,
      "suddenly": 4295,
      "renaissance": 4296,
      "uns": 4297,
      "surrounding": 4298,
      "slowly": 4299,
      "meat": 4300,
      "smiled": 4301,
      "raise": 4302,
      "crowd": 4303,
      "photograph": 4304,
      "relatively": 4305,
      "mere": 4306,
      "herself": 4307,
      "##enses": 4308,
      "breath": 4309,
      "##tom": 4310,
      "fellow": 4311,
      "decline": 4312,
      "title": 4313,
      "sunday": 4314,
      "##ette": 4315,
      "##sec": 4316,
      "##ayed": 4317,
      "centre": 4318,
      "confir": 4319,
      "gal": 4320,
      "stup": 4321,
      "owned": 4322,
      "wit": 4323,
      "bure": 4324,
      "please": 4325,
      "apparently": 4326,
      "##ession": 4327,
      "marriage": 4328,
      "improved": 4329,
      "distance": 4330,
      "principles": 4331,
      "circumst": 4332,
      "documents": 4333,
      "##arian": 4334,
      "asking": 4335,
      "compreh": 4336,
      "##ardship": 4337,
      "entirely": 4338,
      "festival": 4339,
      "tools": 4340,
      "##icks": 4341,
      "hasn": 4342,
      "somewhere": 4343,
      "returned": 4344,
      "noticed": 4345,
      "scott": 4346,
      "fgd": 4347,
      "extent": 4348,
      "sorry": 4349,
      "lincoln": 4350,
      "##ett": 4351,
      "manner": 4352,
      "grown": 4353,
      "provid": 4354,
      "consistent": 4355,
      "##ita": 4356,
      "gradu": 4357,
      "apartment": 4358,
      "vacation": 4359,
      "fan": 4360,
      "##uk": 4361,
      "enh": 4362,
      "defic": 4363,
      "climb": 4364,
      "moral": 4365,
      "physical": 4366,
      "criminal": 4367,
      "scand": 4368,
      "stake": 4369,
      "eleg": 4370,
      "##hab": 4371,
      "pia": 4372,
      "##uous": 4373,
      "##bon": 4374,
      "##aming": 4375,
      "brad": 4376,
      "conclud": 4377,
      "addressed": 4378,
      "april": 4379,
      "lic": 4380,
      "carter": 4381,
      "madeira": 4382,
      "statues": 4383,
      "reasonable": 4384,
      "##ulous": 4385,
      "counter": 4386,
      "techniques": 4387,
      "##iated": 4388,
      "realize": 4389,
      "irs": 4390,
      "managed": 4391,
      "ol": 4392,
      "shel": 4393,
      "worried": 4394,
      "facility": 4395,
      "patient": 4396,
      "swimming": 4397,
      "whom": 4398,
      "consequ": 4399,
      "challenge": 4400,
      "rome": 4401,
      "advent": 4402,
      "bright": 4403,
      "broke": 4404,
      "192": 4405,
      "malays": 4406,
      "william": 4407,
      "piazz": 4408,
      "dish": 4409,
      "retain": 4410,
      "text": 4411,
      "audits": 4412,
      "harbor": 4413,
      "mechan": 4414,
      "dropped": 4415,
      "approved": 4416,
      "agreement": 4417,
      "movement": 4418,
      "details": 4419,
      "##gen": 4420,
      "compr": 4421,
      "1990": 4422,
      "tours": 4423,
      "##insky": 4424,
      "cuts": 4425,
      "agric": 4426,
      "smart": 4427,
      "elimin": 4428,
      "bureau": 4429,
      "24": 4430,
      "ine": 4431,
      "##iture": 4432,
      "remark": 4433,
      "advis": 4434,
      "telling": 4435,
      "sufficient": 4436,
      "selection": 4437,
      "unfortunately": 4438,
      "agricult": 4439,
      "lond": 4440,
      "##hi": 4441,
      "##othing": 4442,
      "monica": 4443,
      "fourth": 4444,
      "magic": 4445,
      "spectac": 4446,
      "aust": 4447,
      "pm": 4448,
      "saved": 4449,
      "queen": 4450,
      "instance": 4451,
      "silver": 4452,
      "ice": 4453,
      "nurs": 4454,
      "waters": 4455,
      "stage": 4456,
      "attractions": 4457,
      "##time": 4458,
      "##ais": 4459,
      "becoming": 4460,
      "screen": 4461,
      "flowers": 4462,
      "effectively": 4463,
      "message": 4464,
      "fixed": 4465,
      "nodded": 4466,
      "mond": 4467,
      "sar": 4468,
      "##ford": 4469,
      "strategy": 4470,
      "##cer": 4471,
      "ship": 4472,
      "boys": 4473,
      "##stein": 4474,
      "magnificent": 4475,
      "cry": 4476,
      "pover": 4477,
      "pointed": 4478,
      "museums": 4479,
      "damage": 4480,
      "haw": 4481,
      "conver": 4482,
      "scene": 4483,
      "symp": 4484,
      "nav": 4485,
      "193": 4486,
      "runs": 4487,
      "explan": 4488,
      "attractive": 4489,
      "mas": 4490,
      "neat": 4491,
      "fraud": 4492,
      "basically": 4493,
      "argument": 4494,
      "surrounded": 4495,
      "punish": 4496,
      "london": 4497,
      "scot": 4498,
      "owner": 4499,
      "speed": 4500,
      "sister": 4501,
      "maxim": 4502,
      "lawn": 4503,
      "chapter": 4504,
      "iv": 4505,
      "##amble": 4506,
      "kingdom": 4507,
      "dism": 4508,
      "emphas": 4509,
      "oblig": 4510,
      "elements": 4511,
      "video": 4512,
      "fal": 4513,
      "##ding": 4514,
      "##holders": 4515,
      "##exp": 4516,
      "afternoon": 4517,
      "bound": 4518,
      "boring": 4519,
      "kitch": 4520,
      "##50": 4521,
      "stick": 4522,
      "resist": 4523,
      "negot": 4524,
      "safety": 4525,
      "##itation": 4526,
      "##encies": 4527,
      "##iously": 4528,
      "advertising": 4529,
      "freedom": 4530,
      "poverty": 4531,
      "drop": 4532,
      "issued": 4533,
      "sections": 4534,
      "religion": 4535,
      "##ois": 4536,
      "isl": 4537,
      "##ulations": 4538,
      "interests": 4539,
      "##ashed": 4540,
      "2002": 4541,
      "sharp": 4542,
      "ber": 4543,
      "##atically": 4544,
      "##enn": 4545,
      "boats": 4546,
      "block": 4547,
      "defend": 4548,
      "attempt": 4549,
      "innov": 4550,
      "##aked": 4551,
      "coal": 4552,
      "memor": 4553,
      "lakes": 4554,
      "##itors": 4555,
      "seat": 4556,
      "##ipt": 4557,
      "##iption": 4558,
      "300": 4559,
      "##eness": 4560,
      "proceed": 4561,
      "plain": 4562,
      "amend": 4563,
      "subsid": 4564,
      "putting": 4565,
      "##phere": 4566,
      "por": 4567,
      "click": 4568,
      "conservative": 4569,
      "##com": 4570,
      "orient": 4571,
      "bull": 4572,
      "letters": 4573,
      "proposal": 4574,
      "rat": 4575,
      "provisions": 4576,
      "communities": 4577,
      "encourage": 4578,
      "hollywood": 4579,
      "dyn": 4580,
      "female": 4581,
      "constitution": 4582,
      "gamb": 4583,
      "pill": 4584,
      "##oom": 4585,
      "overs": 4586,
      "explained": 4587,
      "succeed": 4588,
      "rennie": 4589,
      "shrine": 4590,
      "aliens": 4591,
      "##what": 4592,
      "customers": 4593,
      "##iciency": 4594,
      "january": 4595,
      "leather": 4596,
      "##aret": 4597,
      "computers": 4598,
      "alive": 4599,
      "centers": 4600,
      "improvement": 4601,
      "##ils": 4602,
      "picked": 4603,
      "depos": 4604,
      "direction": 4605,
      "archae": 4606,
      "historic": 4607,
      "russian": 4608,
      "border": 4609,
      "carried": 4610,
      "replace": 4611,
      "##off": 4612,
      "##ville": 4613,
      "placed": 4614,
      "processing": 4615,
      "upper": 4616,
      "##pm": 4617,
      "##izz": 4618,
      "pressure": 4619,
      "discovered": 4620,
      "alex": 4621,
      "##tery": 4622,
      "aband": 4623,
      "somewhat": 4624,
      "millions": 4625,
      "approxim": 4626,
      "specifically": 4627,
      "gay": 4628,
      "unable": 4629,
      "increases": 4630,
      "reliability": 4631,
      "bottom": 4632,
      "bod": 4633,
      "##eration": 4634,
      "adequ": 4635,
      "##iza": 4636,
      "skies": 4637,
      "newspaper": 4638,
      "##icip": 4639,
      "likes": 4640,
      "##ght": 4641,
      "owners": 4642,
      "forest": 4643,
      "belong": 4644,
      "column": 4645,
      "mouth": 4646,
      "vice": 4647,
      "##east": 4648,
      "howard": 4649,
      "scale": 4650,
      "supreme": 4651,
      "russia": 4652,
      "divers": 4653,
      "storm": 4654,
      "outc": 4655,
      "reput": 4656,
      "decades": 4657,
      "publish": 4658,
      "duty": 4659,
      "##iy": 4660,
      "##rence": 4661,
      "plus": 4662,
      "upset": 4663,
      "dry": 4664,
      "balance": 4665,
      "electricity": 4666,
      "edge": 4667,
      "vari": 4668,
      "splend": 4669,
      "##pie": 4670,
      "dole": 4671,
      "champ": 4672,
      "fee": 4673,
      "typically": 4674,
      "eighty": 4675,
      "##nic": 4676,
      "tru": 4677,
      "presence": 4678,
      "##while": 4679,
      "illegal": 4680,
      "sather": 4681,
      "harm": 4682,
      "focused": 4683,
      "craz": 4684,
      "employment": 4685,
      "gonna": 4686,
      "landscape": 4687,
      "friendly": 4688,
      "madrid": 4689,
      "september": 4690,
      "piazza": 4691,
      "cable": 4692,
      "loans": 4693,
      "guil": 4694,
      "2a": 4695,
      "##mar": 4696,
      "enforce": 4697,
      "##elve": 4698,
      "fees": 4699,
      "detailed": 4700,
      "background": 4701,
      "reviewed": 4702,
      "occasion": 4703,
      "ought": 4704,
      "male": 4705,
      "sick": 4706,
      "wil": 4707,
      "##hs": 4708,
      "##agan": 4709,
      "shook": 4710,
      "applied": 4711,
      "intel": 4712,
      "fired": 4713,
      "entered": 4714,
      "regardless": 4715,
      "dance": 4716,
      "experienced": 4717,
      "##oved": 4718,
      "##iment": 4719,
      "sharing": 4720,
      "content": 4721,
      "experts": 4722,
      "privacy": 4723,
      "application": 4724,
      "fascinating": 4725,
      "##water": 4726,
      "wearing": 4727,
      "teams": 4728,
      "perfectly": 4729,
      "esc": 4730,
      "##ched": 4731,
      "anse": 4732,
      "accident": 4733,
      "explore": 4734,
      "protest": 4735,
      "ath": 4736,
      "shape": 4737,
      "##wards": 4738,
      "##bit": 4739,
      "##ero": 4740,
      "onto": 4741,
      "defined": 4742,
      "audience": 4743,
      "churches": 4744,
      "roads": 4745,
      "strategies": 4746,
      "hat": 4747,
      "disag": 4748,
      "smith": 4749,
      "reducing": 4750,
      "contributions": 4751,
      "80": 4752,
      "cave": 4753,
      "kent": 4754,
      "##awn": 4755,
      "bars": 4756,
      "operating": 4757,
      "##orpor": 4758,
      "appeared": 4759,
      "##mosphere": 4760,
      "pound": 4761,
      "classical": 4762,
      "christmas": 4763,
      "predict": 4764,
      "contemp": 4765,
      "anybody": 4766,
      "loud": 4767,
      "##gment": 4768,
      "##ico": 4769,
      "proud": 4770,
      "atmosphere": 4771,
      "##elines": 4772,
      "realized": 4773,
      "materials": 4774,
      "initiative": 4775,
      "taste": 4776,
      "##owned": 4777,
      "clin": 4778,
      "wooden": 4779,
      "initiatives": 4780,
      "gates": 4781,
      "##ober": 4782,
      "##itative": 4783,
      "webs": 4784,
      "schol": 4785,
      "artist": 4786,
      "salt": 4787,
      "missed": 4788,
      "secretary": 4789,
      "thick": 4790,
      "##orary": 4791,
      "strict": 4792,
      "recover": 4793,
      "incentives": 4794,
      "october": 4795,
      "witness": 4796,
      "##antly": 4797,
      "supported": 4798,
      "awful": 4799,
      "##thia": 4800,
      "alloc": 4801,
      "active": 4802,
      "underst": 4803,
      "delight": 4804,
      "native": 4805,
      "va": 4806,
      "whe": 4807,
      "democratic": 4808,
      "##aints": 4809,
      "launch": 4810,
      "regional": 4811,
      "belief": 4812,
      "penins": 4813,
      "napole": 4814,
      "pyr": 4815,
      "sult": 4816,
      "tired": 4817,
      "broken": 4818,
      "honest": 4819,
      "mentioned": 4820,
      "ny": 4821,
      "##alia": 4822,
      "##imp": 4823,
      "expend": 4824,
      "consumption": 4825,
      "##iverse": 4826,
      "baseball": 4827,
      "sexual": 4828,
      "besides": 4829,
      "forgot": 4830,
      "criteria": 4831,
      "debate": 4832,
      "urban": 4833,
      "stewardship": 4834,
      "guilty": 4835,
      "gang": 4836,
      "ash": 4837,
      "conven": 4838,
      "chann": 4839,
      "incorpor": 4840,
      "##road": 4841,
      "happening": 4842,
      "learning": 4843,
      "columns": 4844,
      "surpluses": 4845,
      "hom": 4846,
      "##apt": 4847,
      "chicago": 4848,
      "27": 4849,
      "ba": 4850,
      "pray": 4851,
      "dise": 4852,
      "##igned": 4853,
      "phase": 4854,
      "##scr": 4855,
      "limits": 4856,
      "villages": 4857,
      "eating": 4858,
      "tel": 4859,
      "worksh": 4860,
      "courty": 4861,
      "charles": 4862,
      "cynthia": 4863,
      "interpret": 4864,
      "ky": 4865,
      "carefully": 4866,
      "guns": 4867,
      "pulled": 4868,
      "symbol": 4869,
      "random": 4870,
      "hide": 4871,
      "##aled": 4872,
      "technologies": 4873,
      "collections": 4874,
      "##umptions": 4875,
      "teleph": 4876,
      "cris": 4877,
      "finish": 4878,
      "##ship": 4879,
      "brill": 4880,
      "purposes": 4881,
      "adopted": 4882,
      "circumstances": 4883,
      "scotland": 4884,
      "trading": 4885,
      "package": 4886,
      "##lying": 4887,
      "command": 4888,
      "transform": 4889,
      "reject": 4890,
      "prime": 4891,
      "reality": 4892,
      "valid": 4893,
      "emot": 4894,
      "outcomes": 4895,
      "ot": 4896,
      "ox": 4897,
      "##ses": 4898,
      "##ilit": 4899,
      "bigger": 4900,
      "decorated": 4901,
      "wing": 4902,
      "##lers": 4903,
      "byz": 4904,
      "clothing": 4905,
      "expert": 4906,
      "possibly": 4907,
      "extensive": 4908,
      "grounds": 4909,
      "bond": 4910,
      "cere": 4911,
      "##han": 4912,
      "##okes": 4913,
      "controll": 4914,
      "facts": 4915,
      "hardly": 4916,
      "buried": 4917,
      "sculpture": 4918,
      "spectacular": 4919,
      "bau": 4920,
      "fought": 4921,
      "##lies": 4922,
      "aside": 4923,
      "acid": 4924,
      "offering": 4925,
      "recyc": 4926,
      "selected": 4927,
      "copy": 4928,
      "paul": 4929,
      "distinct": 4930,
      "obviously": 4931,
      "oce": 4932,
      "overse": 4933,
      "contained": 4934,
      "closer": 4935,
      "hindu": 4936,
      "hers": 4937,
      "beauty": 4938,
      "absor": 4939,
      "soldiers": 4940,
      "communication": 4941,
      "byzant": 4942,
      "cats": 4943,
      "dig": 4944,
      "##pa": 4945,
      "atl": 4946,
      "##umes": 4947,
      "formal": 4948,
      "richard": 4949,
      "connection": 4950,
      "assumptions": 4951,
      "yester": 4952,
      "comfortable": 4953,
      "imperial": 4954,
      "kings": 4955,
      "sides": 4956,
      "functions": 4957,
      "yesterday": 4958,
      "bust": 4959,
      "code": 4960,
      "delic": 4961,
      "##acts": 4962,
      "governor": 4963,
      "1994": 4964,
      "recognize": 4965,
      "monday": 4966,
      "##tress": 4967,
      "grants": 4968,
      "decade": 4969,
      "empty": 4970,
      "convin": 4971,
      "##ari": 4972,
      "hole": 4973,
      "advance": 4974,
      "meetings": 4975,
      "independence": 4976,
      "elderly": 4977,
      "##hen": 4978,
      "stars": 4979,
      "fool": 4980,
      "##others": 4981,
      "ideal": 4982,
      "peninsula": 4983,
      "##iance": 4984,
      "calling": 4985,
      "vision": 4986,
      "barb": 4987,
      "calm": 4988,
      "superv": 4989,
      "permanent": 4990,
      "truly": 4991,
      "##ef": 4992,
      "unus": 4993,
      "depict": 4994,
      "directors": 4995,
      "implemented": 4996,
      "option": 4997,
      "motiv": 4998,
      "primarily": 4999,
      "treasury": 5000,
      "slightly": 5001,
      "os": 5002,
      "fewer": 5003,
      "image": 5004,
      "comprehensive": 5005,
      "##ivals": 5006,
      "##aker": 5007,
      "statewide": 5008,
      "allowances": 5009,
      "arms": 5010,
      "dogs": 5011,
      "##heim": 5012,
      "creating": 5013,
      "eag": 5014,
      "fab": 5015,
      "hire": 5016,
      "##alls": 5017,
      "hunt": 5018,
      "surf": 5019,
      "detect": 5020,
      "visiting": 5021,
      "allows": 5022,
      "doctors": 5023,
      "elegant": 5024,
      "70": 5025,
      "expos": 5026,
      "everywhere": 5027,
      "barg": 5028,
      "portion": 5029,
      "teen": 5030,
      "appoint": 5031,
      "preamble": 5032,
      "parks": 5033,
      "organized": 5034,
      "readers": 5035,
      "explor": 5036,
      "alien": 5037,
      "horrible": 5038,
      "bout": 5039,
      "##uts": 5040,
      "coord": 5041,
      "percentage": 5042,
      "ibiza": 5043,
      "mexico": 5044,
      "napoleon": 5045,
      "rum": 5046,
      "plaza": 5047,
      "hero": 5048,
      "##ateau": 5049,
      "compens": 5050,
      "diss": 5051,
      "produc": 5052,
      "effectiveness": 5053,
      "egyptian": 5054,
      "notes": 5055,
      "plays": 5056,
      "assume": 5057,
      "league": 5058,
      "gross": 5059,
      "mainten": 5060,
      "medicine": 5061,
      "appreciate": 5062,
      "lewinsky": 5063,
      "##ares": 5064,
      "reputation": 5065,
      "vren": 5066,
      "covers": 5067,
      "catholic": 5068,
      "surprising": 5069,
      "frequently": 5070,
      "vrenna": 5071,
      "##oto": 5072,
      "##anged": 5073,
      "tourism": 5074,
      "eligible": 5075,
      "approximately": 5076,
      "intellect": 5077,
      "nom": 5078,
      "##sa": 5079,
      "##itals": 5080,
      "attend": 5081,
      "dust": 5082,
      "leaves": 5083,
      "discip": 5084,
      "wars": 5085,
      "improvements": 5086,
      "kentuck": 5087,
      "##essed": 5088,
      "cliff": 5089,
      "##actions": 5090,
      "depress": 5091,
      "turning": 5092,
      "teacher": 5093,
      "customer": 5094,
      "chemical": 5095,
      "confidence": 5096,
      "purchase": 5097,
      "accomplish": 5098,
      "crazy": 5099,
      "ah": 5100,
      "rh": 5101,
      "chronic": 5102,
      "##acing": 5103,
      "crus": 5104,
      "relief": 5105,
      "subsequ": 5106,
      "showing": 5107,
      "delivered": 5108,
      "departments": 5109,
      "devoted": 5110,
      "guidelines": 5111,
      "upd": 5112,
      "administrative": 5113,
      "tickets": 5114,
      "transportation": 5115,
      "mercury": 5116,
      "##lets": 5117,
      "hey": 5118,
      "##aka": 5119,
      "committed": 5120,
      "##uable": 5121,
      "##dy": 5122,
      "##hal": 5123,
      "##ertain": 5124,
      "##illy": 5125,
      "append": 5126,
      "uncertain": 5127,
      "orders": 5128,
      "accurate": 5129,
      "dramatic": 5130,
      "vary": 5131,
      "ww": 5132,
      "ped": 5133,
      "forb": 5134,
      "sport": 5135,
      "carol": 5136,
      "join": 5137,
      "displays": 5138,
      "doors": 5139,
      "sov": 5140,
      "twelve": 5141,
      "poison": 5142,
      "lawrence": 5143,
      "journey": 5144,
      "motor": 5145,
      "feature": 5146,
      "perspect": 5147,
      "britain": 5148,
      "professor": 5149,
      "retrof": 5150,
      "syn": 5151,
      "15th": 5152,
      "holds": 5153,
      "solution": 5154,
      "crafts": 5155,
      "scandal": 5156,
      "es": 5157,
      "crimes": 5158,
      "revol": 5159,
      "protected": 5160,
      "fifteen": 5161,
      "13th": 5162,
      "released": 5163,
      "ocean": 5164,
      "fant": 5165,
      "tons": 5166,
      "partners": 5167,
      "previously": 5168,
      "26": 5169,
      "90": 5170,
      "##cious": 5171,
      "representatives": 5172,
      "maintenance": 5173,
      "##icial": 5174,
      "jewel": 5175,
      "expectations": 5176,
      "litig": 5177,
      "catal": 5178,
      "lucky": 5179,
      "##ox": 5180,
      "shore": 5181,
      "nep": 5182,
      "implic": 5183,
      "approval": 5184,
      "oversight": 5185,
      "tent": 5186,
      "coop": 5187,
      "typical": 5188,
      "significantly": 5189,
      "voters": 5190,
      "institution": 5191,
      "##irts": 5192,
      "chose": 5193,
      "scared": 5194,
      "remind": 5195,
      "jones": 5196,
      "31": 5197,
      "smell": 5198,
      "cutting": 5199,
      "gods": 5200,
      "victims": 5201,
      "surprise": 5202,
      "schedul": 5203,
      "peter": 5204,
      "##entially": 5205,
      "##lls": 5206,
      "stuck": 5207,
      "##erson": 5208,
      "controver": 5209,
      "confident": 5210,
      "##ellig": 5211,
      "sultan": 5212,
      "gift": 5213,
      "tor": 5214,
      "##ixon": 5215,
      "amounts": 5216,
      "submitted": 5217,
      "candidates": 5218,
      "astr": 5219,
      "pages": 5220,
      "soph": 5221,
      "scenes": 5222,
      "weapon": 5223,
      "rebu": 5224,
      "bradley": 5225,
      "signs": 5226,
      "facade": 5227,
      "franklin": 5228,
      "##greg": 5229,
      "##how": 5230,
      "##urb": 5231,
      "mans": 5232,
      "smoke": 5233,
      "iii": 5234,
      "replaced": 5235,
      "banks": 5236,
      "bunch": 5237,
      "##lled": 5238,
      "politicians": 5239,
      "vent": 5240,
      "throw": 5241,
      "possibility": 5242,
      "achieved": 5243,
      "ordered": 5244,
      "latest": 5245,
      "henry": 5246,
      "iraq": 5247,
      "comed": 5248,
      "resol": 5249,
      "affairs": 5250,
      "expression": 5251,
      "splendid": 5252,
      "33": 5253,
      "cig": 5254,
      "caves": 5255,
      "thor": 5256,
      "lift": 5257,
      "nox": 5258,
      "upst": 5259,
      "columb": 5260,
      "invent": 5261,
      "##text": 5262,
      "continues": 5263,
      "23": 5264,
      "jim": 5265,
      "kos": 5266,
      "##nis": 5267,
      "##lines": 5268,
      "##osen": 5269,
      "careful": 5270,
      "glob": 5271,
      "##book": 5272,
      "fields": 5273,
      "animal": 5274,
      "jail": 5275,
      "becomes": 5276,
      "intellig": 5277,
      "artif": 5278,
      "tested": 5279,
      "recommended": 5280,
      "liberal": 5281,
      "kenned": 5282,
      "troops": 5283,
      "kir": 5284,
      "##aling": 5285,
      "arc": 5286,
      "##astr": 5287,
      "appears": 5288,
      "##front": 5289,
      "##here": 5290,
      "alf": 5291,
      "cried": 5292,
      "efficiency": 5293,
      "poland": 5294,
      "failure": 5295,
      "philos": 5296,
      "courtyard": 5297,
      "##uration": 5298,
      "angry": 5299,
      "complic": 5300,
      "florida": 5301,
      "ec": 5302,
      "sab": 5303,
      "viet": 5304,
      "forty": 5305,
      "##ola": 5306,
      "##acted": 5307,
      "tells": 5308,
      "rapid": 5309,
      "pilgr": 5310,
      "losing": 5311,
      "nations": 5312,
      "##omas": 5313,
      "bear": 5314,
      "coach": 5315,
      "satisf": 5316,
      "tub": 5317,
      "ug": 5318,
      "stations": 5319,
      "##ura": 5320,
      "##usion": 5321,
      "spons": 5322,
      "plat": 5323,
      "helpful": 5324,
      "##ifications": 5325,
      "nixon": 5326,
      "riding": 5327,
      "forever": 5328,
      "moon": 5329,
      "opera": 5330,
      "replied": 5331,
      "describes": 5332,
      "newspapers": 5333,
      "saturday": 5334,
      "lord": 5335,
      "whitting": 5336,
      "suit": 5337,
      "stroll": 5338,
      "bird": 5339,
      "essential": 5340,
      "om": 5341,
      "##kish": 5342,
      "proven": 5343,
      "knowing": 5344,
      "ends": 5345,
      "supporting": 5346,
      "silence": 5347,
      "dating": 5348,
      "##itan": 5349,
      "terror": 5350,
      "virginia": 5351,
      "appendix": 5352,
      "cet": 5353,
      "##fo": 5354,
      "turns": 5355,
      "volcan": 5356,
      "institute": 5357,
      "sale": 5358,
      "##rees": 5359,
      "excess": 5360,
      "albert": 5361,
      "crack": 5362,
      "depending": 5363,
      "testim": 5364,
      "solid": 5365,
      "residential": 5366,
      "fans": 5367,
      "fda": 5368,
      "##ipping": 5369,
      "whittington": 5370,
      "hidden": 5371,
      "##agas": 5372,
      "corrupt": 5373,
      "portra": 5374,
      "falling": 5375,
      "ignored": 5376,
      "monastery": 5377,
      "escape": 5378,
      "ga": 5379,
      "##outs": 5380,
      "ages": 5381,
      "basket": 5382,
      "stream": 5383,
      "temper": 5384,
      "bills": 5385,
      "exclus": 5386,
      "domin": 5387,
      "divor": 5388,
      "giant": 5389,
      "tonight": 5390,
      "##asty": 5391,
      "gray": 5392,
      "summary": 5393,
      "cheaper": 5394,
      "##kyo": 5395,
      "tomorrow": 5396,
      "frequent": 5397,
      "sample": 5398,
      "territory": 5399,
      "penalty": 5400,
      "auditor": 5401,
      "projected": 5402,
      "suspic": 5403,
      "candidate": 5404,
      "##fa": 5405,
      "friday": 5406,
      "opening": 5407,
      "presidential": 5408,
      "assumed": 5409,
      "crisis": 5410,
      "##arts": 5411,
      "improp": 5412,
      "sentence": 5413,
      "sensitive": 5414,
      "sacr": 5415,
      "literature": 5416,
      "oz": 5417,
      "laid": 5418,
      "definition": 5419,
      "december": 5420,
      "##bby": 5421,
      "investments": 5422,
      "treated": 5423,
      "exhibits": 5424,
      "##gers": 5425,
      "clo": 5426,
      "monit": 5427,
      "greatly": 5428,
      "investors": 5429,
      "competitive": 5430,
      "substantial": 5431,
      "punishment": 5432,
      "thorough": 5433,
      "##cas": 5434,
      "tokyo": 5435,
      "fuel": 5436,
      "minimum": 5437,
      "dream": 5438,
      "daniel": 5439,
      "##agger": 5440,
      "studied": 5441,
      "represented": 5442,
      "sadd": 5443,
      "##isted": 5444,
      "1993": 5445,
      "##raw": 5446,
      "medit": 5447,
      "keeps": 5448,
      "raising": 5449,
      "bronze": 5450,
      "##ota": 5451,
      "whis": 5452,
      "brain": 5453,
      "visits": 5454,
      "##azar": 5455,
      "colorado": 5456,
      "##going": 5457,
      "mistake": 5458,
      "##works": 5459,
      "railway": 5460,
      "odd": 5461,
      "conflict": 5462,
      "stupid": 5463,
      "##aven": 5464,
      "myst": 5465,
      "expressed": 5466,
      "voting": 5467,
      "wealthy": 5468,
      "accompan": 5469,
      "##cing": 5470,
      "discr": 5471,
      "silent": 5472,
      "14th": 5473,
      "avoided": 5474,
      "sacred": 5475,
      "exposure": 5476,
      "fortress": 5477,
      "##amber": 5478,
      "resource": 5479,
      "regulation": 5480,
      "officers": 5481,
      "positions": 5482,
      "germany": 5483,
      "understood": 5484,
      "kick": 5485,
      "contrast": 5486,
      "severe": 5487,
      "largely": 5488,
      "attraction": 5489,
      "shadow": 5490,
      "pock": 5491,
      "##pay": 5492,
      "##illed": 5493,
      "trend": 5494,
      "ruins": 5495,
      "signed": 5496,
      "promot": 5497,
      "films": 5498,
      "participate": 5499,
      "aspects": 5500,
      "##bles": 5501,
      "##esco": 5502,
      "improving": 5503,
      "turkish": 5504,
      "shoes": 5505,
      "scottish": 5506,
      "providers": 5507,
      "ble": 5508,
      "hated": 5509,
      "pc": 5510,
      "util": 5511,
      "##iber": 5512,
      "blade": 5513,
      "joined": 5514,
      "arrange": 5515,
      "argue": 5516,
      "observed": 5517,
      "stared": 5518,
      "flood": 5519,
      "begun": 5520,
      "ceiling": 5521,
      "##box": 5522,
      "remaining": 5523,
      "intellectual": 5524,
      "##ingu": 5525,
      "expenses": 5526,
      "johnson": 5527,
      "dozen": 5528,
      "constructed": 5529,
      "reporters": 5530,
      "pyram": 5531,
      "pig": 5532,
      "##inent": 5533,
      "cruc": 5534,
      "##ached": 5535,
      "slim": 5536,
      "ski": 5537,
      "mainly": 5538,
      "collected": 5539,
      "bauer": 5540,
      "kil": 5541,
      "pond": 5542,
      "##ona": 5543,
      "##abilities": 5544,
      "harder": 5545,
      "attrib": 5546,
      "occurred": 5547,
      "ire": 5548,
      "push": 5549,
      "sulf": 5550,
      "tight": 5551,
      "highway": 5552,
      "suggests": 5553,
      "memory": 5554,
      "normally": 5555,
      "uncle": 5556,
      "ottom": 5557,
      "global": 5558,
      "##wan": 5559,
      "thoughts": 5560,
      "valuable": 5561,
      "heads": 5562,
      "admitted": 5563,
      "elsewhere": 5564,
      "sugar": 5565,
      "##employ": 5566,
      "cu": 5567,
      "chain": 5568,
      "serves": 5569,
      "minister": 5570,
      "reference": 5571,
      "entry": 5572,
      "distribution": 5573,
      "chest": 5574,
      "neighb": 5575,
      "artifacts": 5576,
      "##life": 5577,
      "incred": 5578,
      "considering": 5579,
      "victory": 5580,
      "consumer": 5581,
      "welcome": 5582,
      "mut": 5583,
      "nic": 5584,
      "stri": 5585,
      "legend": 5586,
      "facing": 5587,
      "necessarily": 5588,
      "structures": 5589,
      "dim": 5590,
      "##load": 5591,
      "thomas": 5592,
      "stamp": 5593,
      "weir": 5594,
      "asian": 5595,
      "enth": 5596,
      "worker": 5597,
      "marked": 5598,
      "settlement": 5599,
      "francis": 5600,
      "gor": 5601,
      "tig": 5602,
      "theat": 5603,
      "##sey": 5604,
      "anton": 5605,
      "prosec": 5606,
      "whenever": 5607,
      "quit": 5608,
      "destination": 5609,
      "peaceful": 5610,
      "prepare": 5611,
      "ultimately": 5612,
      "lately": 5613,
      "veter": 5614,
      "unemploy": 5615,
      "monet": 5616,
      "birds": 5617,
      "folks": 5618,
      "nile": 5619,
      "##point": 5620,
      "overlo": 5621,
      "##encing": 5622,
      "indians": 5623,
      "visibility": 5624,
      "##bell": 5625,
      "ridic": 5626,
      "pier": 5627,
      "##ias": 5628,
      "so2": 5629,
      "equally": 5630,
      "johnny": 5631,
      "officer": 5632,
      "writer": 5633,
      "boulev": 5634,
      "cin": 5635,
      "##isms": 5636,
      "feels": 5637,
      "breed": 5638,
      "scholars": 5639,
      "28": 5640,
      "##aic": 5641,
      "inner": 5642,
      "guided": 5643,
      "##ogue": 5644,
      "occas": 5645,
      "ireland": 5646,
      "ferry": 5647,
      "les": 5648,
      "prove": 5649,
      "##ishing": 5650,
      "drawn": 5651,
      "strip": 5652,
      "hunting": 5653,
      "disease": 5654,
      "powers": 5655,
      "communications": 5656,
      "35": 5657,
      "dates": 5658,
      "luc": 5659,
      "brings": 5660,
      "framework": 5661,
      "nursing": 5662,
      "telephone": 5663,
      "deem": 5664,
      "clar": 5665,
      "ozone": 5666,
      "bork": 5667,
      "##my": 5668,
      "youth": 5669,
      "fruit": 5670,
      "##iform": 5671,
      "handed": 5672,
      "creation": 5673,
      "survive": 5674,
      "carrying": 5675,
      "boss": 5676,
      "hy": 5677,
      "seeking": 5678,
      "accomm": 5679,
      "transition": 5680,
      "involving": 5681,
      "increasingly": 5682,
      "barely": 5683,
      "gambling": 5684,
      "accommod": 5685,
      "kath": 5686,
      "taught": 5687,
      "vul": 5688,
      "##mark": 5689,
      "pride": 5690,
      "finest": 5691,
      "preserved": 5692,
      "player": 5693,
      "sixty": 5694,
      "celebrated": 5695,
      "##aver": 5696,
      "teaching": 5697,
      "sweet": 5698,
      "investigation": 5699,
      "decrease": 5700,
      "derry": 5701,
      "##inations": 5702,
      "##oys": 5703,
      "flower": 5704,
      "evolution": 5705,
      "personnel": 5706,
      "surely": 5707,
      "exhibit": 5708,
      "pleasure": 5709,
      "reliable": 5710,
      "commitment": 5711,
      "usual": 5712,
      "colors": 5713,
      "admit": 5714,
      "facilit": 5715,
      "combination": 5716,
      "categories": 5717,
      "furniture": 5718,
      "kennedy": 5719,
      "user": 5720,
      "monuments": 5721,
      "##uese": 5722,
      "faced": 5723,
      "harv": 5724,
      "##anean": 5725,
      "democracy": 5726,
      "improper": 5727,
      "interim": 5728,
      "scar": 5729,
      "flow": 5730,
      "steep": 5731,
      "romans": 5732,
      "styles": 5733,
      "violent": 5734,
      "repeated": 5735,
      "portuguese": 5736,
      "gp": 5737,
      "pad": 5738,
      "tob": 5739,
      "shif": 5740,
      "gran": 5741,
      "principle": 5742,
      "examined": 5743,
      "seriously": 5744,
      "maryland": 5745,
      "bor": 5746,
      "ring": 5747,
      "##bel": 5748,
      "input": 5749,
      "intent": 5750,
      "elections": 5751,
      "rising": 5752,
      "2010": 5753,
      "earned": 5754,
      "##attered": 5755,
      "listening": 5756,
      "exceed": 5757,
      "soviet": 5758,
      "##aken": 5759,
      "202": 5760,
      "claimed": 5761,
      "rarely": 5762,
      "testimony": 5763,
      "asia": 5764,
      "output": 5765,
      "cro": 5766,
      "warri": 5767,
      "disappoint": 5768,
      "cuba": 5769,
      "element": 5770,
      "##12": 5771,
      "ours": 5772,
      "emission": 5773,
      "articles": 5774,
      "restrictions": 5775,
      "immigration": 5776,
      "prospect": 5777,
      "desk": 5778,
      "serving": 5779,
      "estate": 5780,
      "documentation": 5781,
      "cod": 5782,
      "pac": 5783,
      "rocks": 5784,
      "##met": 5785,
      "stable": 5786,
      "sole": 5787,
      "driven": 5788,
      "buff": 5789,
      "poet": 5790,
      "phar": 5791,
      "requests": 5792,
      "expanded": 5793,
      "unusual": 5794,
      "jac": 5795,
      "math": 5796,
      "pure": 5797,
      "##estone": 5798,
      "worship": 5799,
      "parli": 5800,
      "publication": 5801,
      "measured": 5802,
      "legislative": 5803,
      "innoc": 5804,
      "beside": 5805,
      "##aining": 5806,
      "alb": 5807,
      "alle": 5808,
      "staying": 5809,
      "choices": 5810,
      "winds": 5811,
      "sculptures": 5812,
      "muslim": 5813,
      "weird": 5814,
      "bol": 5815,
      "##ja": 5816,
      "rein": 5817,
      "stead": 5818,
      "unkn": 5819,
      "exciting": 5820,
      "begins": 5821,
      "enforcement": 5822,
      "carolina": 5823,
      "wore": 5824,
      "chick": 5825,
      "scary": 5826,
      "promote": 5827,
      "lovely": 5828,
      "links": 5829,
      "earthqu": 5830,
      "malaysia": 5831,
      "kr": 5832,
      "lying": 5833,
      "##cast": 5834,
      "##obe": 5835,
      "context": 5836,
      "sust": 5837,
      "lee": 5838,
      "##aks": 5839,
      "attest": 5840,
      "economics": 5841,
      "faces": 5842,
      "dial": 5843,
      "ment": 5844,
      "##verse": 5845,
      "spell": 5846,
      "residence": 5847,
      "winning": 5848,
      "implementing": 5849,
      "bringing": 5850,
      "accuracy": 5851,
      "adults": 5852,
      "ske": 5853,
      "##nn": 5854,
      "chateau": 5855,
      "orn": 5856,
      "marg": 5857,
      "attitude": 5858,
      "1992": 5859,
      "##board": 5860,
      "characters": 5861,
      "fifth": 5862,
      "weakness": 5863,
      "remarkable": 5864,
      "abandoned": 5865,
      "##case": 5866,
      "##oster": 5867,
      "outl": 5868,
      "outcome": 5869,
      "shoulder": 5870,
      "finn": 5871,
      "joint": 5872,
      "palest": 5873,
      "classes": 5874,
      "listed": 5875,
      "panel": 5876,
      "core": 5877,
      "kore": 5878,
      "stair": 5879,
      "sets": 5880,
      "excited": 5881,
      "turkey": 5882,
      "settle": 5883,
      "category": 5884,
      "stakeholders": 5885,
      "cazar": 5886,
      "fer": 5887,
      "latter": 5888,
      "pow": 5889,
      "wid": 5890,
      "##right": 5891,
      "reward": 5892,
      "assass": 5893,
      "applicable": 5894,
      "masterpie": 5895,
      "www": 5896,
      "29": 5897,
      "aer": 5898,
      "outdo": 5899,
      "graph": 5900,
      "branch": 5901,
      "deser": 5902,
      "##oupe": 5903,
      "successfully": 5904,
      "judges": 5905,
      "consideration": 5906,
      "tombs": 5907,
      "disagree": 5908,
      "gau": 5909,
      "ramp": 5910,
      "##standing": 5911,
      "approaches": 5912,
      "unknown": 5913,
      "fount": 5914,
      "uniform": 5915,
      "affair": 5916,
      "anticip": 5917,
      "galleries": 5918,
      "priority": 5919,
      "75": 5920,
      "dome": 5921,
      "proved": 5922,
      "##ensity": 5923,
      "metal": 5924,
      "excuse": 5925,
      "settled": 5926,
      "dining": 5927,
      "clubs": 5928,
      "writers": 5929,
      "comparison": 5930,
      "scenario": 5931,
      "mccain": 5932,
      "merely": 5933,
      "pink": 5934,
      "##town": 5935,
      "grace": 5936,
      "modest": 5937,
      "applications": 5938,
      "superb": 5939,
      "venet": 5940,
      "parliament": 5941,
      "tap": 5942,
      "##uze": 5943,
      "##rad": 5944,
      "reven": 5945,
      "##anta": 5946,
      "scope": 5947,
      "musee": 5948,
      "##fast": 5949,
      "##pan": 5950,
      "##otyp": 5951,
      "shared": 5952,
      "writes": 5953,
      "locals": 5954,
      "mailers": 5955,
      "remembered": 5956,
      "attacks": 5957,
      "cooking": 5958,
      "precise": 5959,
      "stretch": 5960,
      "mental": 5961,
      "tues": 5962,
      "##icing": 5963,
      "shift": 5964,
      "orange": 5965,
      "febr": 5966,
      "sulfur": 5967,
      "february": 5968,
      "##cend": 5969,
      "##acco": 5970,
      "stress": 5971,
      "##ensus": 5972,
      "smile": 5973,
      "##resp": 5974,
      "##ternal": 5975,
      "natalia": 5976,
      "judgment": 5977,
      "cous": 5978,
      "##iant": 5979,
      "enorm": 5980,
      "expense": 5981,
      "carib": 5982,
      "farther": 5983,
      "combined": 5984,
      "heavily": 5985,
      "buddhist": 5986,
      "disappear": 5987,
      "##gl": 5988,
      "reagan": 5989,
      "finds": 5990,
      "basil": 5991,
      "analyses": 5992,
      "contracts": 5993,
      "kyoto": 5994,
      "ugly": 5995,
      "##cel": 5996,
      "##ushing": 5997,
      "formed": 5998,
      "practical": 5999,
      "healthy": 6000,
      "folk": 6001,
      "bodies": 6002,
      "perspective": 6003,
      "mediterr": 6004,
      "ae": 6005,
      "##pro": 6006,
      "##ulating": 6007,
      "mayor": 6008,
      "charming": 6009,
      "20th": 6010,
      "hoping": 6011,
      "regularly": 6012,
      "tab": 6013,
      "desire": 6014,
      "charged": 6015,
      "scientific": 6016,
      "explanation": 6017,
      "mediterranean": 6018,
      "dar": 6019,
      "##aff": 6020,
      "ther": 6021,
      "##thy": 6022,
      "leon": 6023,
      "##ipe": 6024,
      "causes": 6025,
      "portr": 6026,
      "towers": 6027,
      "copies": 6028,
      "ordinary": 6029,
      "coc": 6030,
      "wages": 6031,
      "toxic": 6032,
      "ships": 6033,
      "##ologists": 6034,
      "responses": 6035,
      "situated": 6036,
      "altar": 6037,
      "400": 6038,
      "shaped": 6039,
      "conce": 6040,
      "##orted": 6041,
      "somehow": 6042,
      "persons": 6043,
      "classic": 6044,
      "arrive": 6045,
      "handsome": 6046,
      "byzantine": 6047,
      "faster": 6048,
      "##ano": 6049,
      "##imate": 6050,
      "meal": 6051,
      "aci": 6052,
      "##ache": 6053,
      "financing": 6054,
      "split": 6055,
      "ticket": 6056,
      "alfred": 6057,
      "gop": 6058,
      "tan": 6059,
      "tip": 6060,
      "disaster": 6061,
      "privile": 6062,
      "researchers": 6063,
      "12th": 6064,
      "michel": 6065,
      "hawai": 6066,
      "00": 6067,
      "32": 6068,
      "bio": 6069,
      "gains": 6070,
      "hud": 6071,
      "pir": 6072,
      "##semb": 6073,
      "repr": 6074,
      "disney": 6075,
      "##ographic": 6076,
      "kl": 6077,
      "nur": 6078,
      "##acks": 6079,
      "souven": 6080,
      "charges": 6081,
      "opposed": 6082,
      "generations": 6083,
      "greuze": 6084,
      "crowded": 6085,
      "africa": 6086,
      "pitch": 6087,
      "##ream": 6088,
      "##estr": 6089,
      "awards": 6090,
      "##know": 6091,
      "adequate": 6092,
      "migr": 6093,
      "tone": 6094,
      "integrity": 6095,
      "fing": 6096,
      "##fit": 6097,
      "##ading": 6098,
      "abortion": 6099,
      "smoking": 6100,
      "removed": 6101,
      "supplement": 6102,
      "switch": 6103,
      "sanct": 6104,
      "150": 6105,
      "survived": 6106,
      "consequences": 6107,
      "erect": 6108,
      "file": 6109,
      "##ker": 6110,
      "inhab": 6111,
      "##urers": 6112,
      "fresco": 6113,
      "canal": 6114,
      "crimin": 6115,
      "countrys": 6116,
      "tennis": 6117,
      "answered": 6118,
      "sandy": 6119,
      "climate": 6120,
      "tobacco": 6121,
      "ain": 6122,
      "avenue": 6123,
      "sought": 6124,
      "##ki": 6125,
      "##itures": 6126,
      "ham": 6127,
      "acts": 6128,
      "authent": 6129,
      "properly": 6130,
      "bedroom": 6131,
      "characteristics": 6132,
      "boilerm": 6133,
      "recipients": 6134,
      "##rit": 6135,
      "##lla": 6136,
      "sum": 6137,
      "noise": 6138,
      "##ecess": 6139,
      "consol": 6140,
      "resulting": 6141,
      "suffered": 6142,
      "struggle": 6143,
      "website": 6144,
      "philosoph": 6145,
      "ottoman": 6146,
      "souvenir": 6147,
      "countryside": 6148,
      "cios": 6149,
      "pit": 6150,
      "thin": 6151,
      "dear": 6152,
      "renov": 6153,
      "##annon": 6154,
      "##burg": 6155,
      "components": 6156,
      "recycling": 6157,
      "wise": 6158,
      "##oir": 6159,
      "##ora": 6160,
      "marks": 6161,
      "puts": 6162,
      "degrees": 6163,
      "concerning": 6164,
      "roles": 6165,
      "plastic": 6166,
      "acknow": 6167,
      "participation": 6168,
      "encouraged": 6169,
      "conclusion": 6170,
      "agricultural": 6171,
      "cum": 6172,
      "lined": 6173,
      "##ato": 6174,
      "prud": 6175,
      "hung": 6176,
      "capture": 6177,
      "strugg": 6178,
      "hired": 6179,
      "pace": 6180,
      "torn": 6181,
      "##ante": 6182,
      "##ensions": 6183,
      "asset": 6184,
      "species": 6185,
      "statistics": 6186,
      "division": 6187,
      "suspect": 6188,
      "conclusions": 6189,
      "patterns": 6190,
      "announced": 6191,
      "dismiss": 6192,
      "map": 6193,
      "##esque": 6194,
      "withd": 6195,
      "spin": 6196,
      "operation": 6197,
      "##rupted": 6198,
      "physicians": 6199,
      "situations": 6200,
      "channel": 6201,
      "wound": 6202,
      "prohib": 6203,
      "##istical": 6204,
      "retired": 6205,
      "addresses": 6206,
      "installation": 6207,
      "kitchen": 6208,
      "pair": 6209,
      "sits": 6210,
      "##ician": 6211,
      "##illes": 6212,
      "trips": 6213,
      "brick": 6214,
      "##iana": 6215,
      "remar": 6216,
      "instru": 6217,
      "allowing": 6218,
      "explo": 6219,
      "infr": 6220,
      "boulevard": 6221,
      "cnn": 6222,
      "##rich": 6223,
      "tail": 6224,
      "yours": 6225,
      "assumption": 6226,
      "blame": 6227,
      "invasion": 6228,
      "economists": 6229,
      "prompt": 6230,
      "managing": 6231,
      "venice": 6232,
      "chairman": 6233,
      "##ansas": 6234,
      "annually": 6235,
      "##whel": 6236,
      "falls": 6237,
      "latin": 6238,
      "triump": 6239,
      "inland": 6240,
      "stad": 6241,
      "mah": 6242,
      "recall": 6243,
      "palazz": 6244,
      "cream": 6245,
      "demands": 6246,
      "relationships": 6247,
      "danger": 6248,
      "introduced": 6249,
      "satisfact": 6250,
      "volunteer": 6251,
      "gpra": 6252,
      "instruments": 6253,
      "rice": 6254,
      "##rant": 6255,
      "##oque": 6256,
      "disclos": 6257,
      "electron": 6258,
      "existence": 6259,
      "eleph": 6260,
      "requested": 6261,
      "embr": 6262,
      "establishing": 6263,
      "dutch": 6264,
      "vietnam": 6265,
      "basketball": 6266,
      "##yle": 6267,
      "##bi": 6268,
      "##zy": 6269,
      "aggress": 6270,
      "191": 6271,
      "accused": 6272,
      "prescr": 6273,
      "elabor": 6274,
      "eleven": 6275,
      "archaeological": 6276,
      "occasionally": 6277,
      "stab": 6278,
      "imposing": 6279,
      "##aved": 6280,
      "blank": 6281,
      "employers": 6282,
      "blacks": 6283,
      "appearance": 6284,
      "principal": 6285,
      "photo": 6286,
      "colonial": 6287,
      "ter": 6288,
      "##oly": 6289,
      "trained": 6290,
      "boards": 6291,
      "egg": 6292,
      "pollut": 6293,
      "authentic": 6294,
      "lind": 6295,
      "roc": 6296,
      "auditing": 6297,
      "ruled": 6298,
      "traveling": 6299,
      "inspired": 6300,
      "analyz": 6301,
      "enthus": 6302,
      "##ka": 6303,
      "##ller": 6304,
      "##iguration": 6305,
      "##imination": 6306,
      "##ucture": 6307,
      "smo": 6308,
      "flight": 6309,
      "stepped": 6310,
      "periods": 6311,
      "nepal": 6312,
      "cinem": 6313,
      "dol": 6314,
      "jord": 6315,
      "forum": 6316,
      "yellow": 6317,
      "recru": 6318,
      "divided": 6319,
      "error": 6320,
      "expenditures": 6321,
      "##ania": 6322,
      "##ingly": 6323,
      "chamber": 6324,
      "##quar": 6325,
      "myster": 6326,
      "grab": 6327,
      "taxpay": 6328,
      "killing": 6329,
      "description": 6330,
      "teachers": 6331,
      "vulner": 6332,
      "tuesday": 6333,
      "infrastr": 6334,
      "rig": 6335,
      "##ima": 6336,
      "receiving": 6337,
      "describe": 6338,
      "experiences": 6339,
      "muslims": 6340,
      "diversity": 6341,
      "cair": 6342,
      "dancing": 6343,
      "##omed": 6344,
      "##urally": 6345,
      "neck": 6346,
      "phr": 6347,
      "elected": 6348,
      "extended": 6349,
      "compensation": 6350,
      "bat": 6351,
      "tool": 6352,
      "##aders": 6353,
      "##bey": 6354,
      "traum": 6355,
      "treaty": 6356,
      "examine": 6357,
      "committees": 6358,
      "defeat": 6359,
      "bos": 6360,
      "##gar": 6361,
      "impe": 6362,
      "flag": 6363,
      "raj": 6364,
      "cheer": 6365,
      "achieving": 6366,
      "fault": 6367,
      "installed": 6368,
      "quietly": 6369,
      "vegetables": 6370,
      "complicated": 6371,
      "vic": 6372,
      "ongoing": 6373,
      "nove": 6374,
      "monarch": 6375,
      "involves": 6376,
      "images": 6377,
      "apartments": 6378,
      "opinions": 6379,
      "bags": 6380,
      "enhance": 6381,
      "monitoring": 6382,
      "dip": 6383,
      "rode": 6384,
      "##eing": 6385,
      "weigh": 6386,
      "compare": 6387,
      "capable": 6388,
      "starts": 6389,
      "transl": 6390,
      "buddha": 6391,
      "release": 6392,
      "engagement": 6393,
      "african": 6394,
      "##aa": 6395,
      "##ighter": 6396,
      "conscious": 6397,
      "performing": 6398,
      "representative": 6399,
      "discovery": 6400,
      "declined": 6401,
      "gig": 6402,
      "gagas": 6403,
      "rot": 6404,
      "vital": 6405,
      "trop": 6406,
      "grave": 6407,
      "partner": 6408,
      "strike": 6409,
      "caf": 6410,
      "##ception": 6411,
      "limestone": 6412,
      "contribute": 6413,
      "breakfast": 6414,
      "hospitals": 6415,
      "captured": 6416,
      "stadium": 6417,
      "##ully": 6418,
      "##etr": 6419,
      "priest": 6420,
      "exemp": 6421,
      "evil": 6422,
      "taxi": 6423,
      "musical": 6424,
      "festivals": 6425,
      "sleeping": 6426,
      "pattern": 6427,
      "kosov": 6428,
      "criminals": 6429,
      "600": 6430,
      "##adays": 6431,
      "overwhel": 6432,
      "nowadays": 6433,
      "resulted": 6434,
      "##aimed": 6435,
      "wednes": 6436,
      "enemies": 6437,
      "vehicle": 6438,
      "jewelry": 6439,
      "##gia": 6440,
      "##bre": 6441,
      "height": 6442,
      "represents": 6443,
      "machines": 6444,
      "permit": 6445,
      "joy": 6446,
      "wage": 6447,
      "##uits": 6448,
      "##la": 6449,
      "downtown": 6450,
      "baroque": 6451,
      "sunset": 6452,
      "obser": 6453,
      "premature": 6454,
      "cabin": 6455,
      "controlled": 6456,
      "gaz": 6457,
      "hes": 6458,
      "##kins": 6459,
      "performances": 6460,
      "nonf": 6461,
      "answers": 6462,
      "holiday": 6463,
      "sophistic": 6464,
      "36": 6465,
      "reserve": 6466,
      "designs": 6467,
      "continuing": 6468,
      "puert": 6469,
      "inquir": 6470,
      "islamic": 6471,
      "##erce": 6472,
      "stairs": 6473,
      "exists": 6474,
      "everyday": 6475,
      "passing": 6476,
      "objects": 6477,
      "widely": 6478,
      "alternatives": 6479,
      "ethnic": 6480,
      "wet": 6481,
      "thurs": 6482,
      "isol": 6483,
      "##owed": 6484,
      "heaven": 6485,
      "unl": 6486,
      "courses": 6487,
      "curious": 6488,
      "lively": 6489,
      "colorful": 6490,
      "examination": 6491,
      "cruise": 6492,
      "professionals": 6493,
      "cigaret": 6494,
      "cuis": 6495,
      "bread": 6496,
      "dil": 6497,
      "pine": 6498,
      "vs": 6499,
      "##gate": 6500,
      "gosh": 6501,
      "repair": 6502,
      "drag": 6503,
      "buchan": 6504,
      "explains": 6505,
      "preferred": 6506,
      "amendment": 6507,
      "inexp": 6508,
      "stark": 6509,
      "shout": 6510,
      "##ifies": 6511,
      "advanced": 6512,
      "burned": 6513,
      "attestation": 6514,
      "jose": 6515,
      "sau": 6516,
      "##iot": 6517,
      "projections": 6518,
      "##lining": 6519,
      "pocket": 6520,
      "cycle": 6521,
      "pul": 6522,
      "anth": 6523,
      "weekends": 6524,
      "securities": 6525,
      "romantic": 6526,
      "identity": 6527,
      "prince": 6528,
      "enemy": 6529,
      "yield": 6530,
      "guadel": 6531,
      "boom": 6532,
      "profits": 6533,
      "crowds": 6534,
      "upstairs": 6535,
      "unemployment": 6536,
      "cairo": 6537,
      "thro": 6538,
      "##chal": 6539,
      "expans": 6540,
      "driver": 6541,
      "##roll": 6542,
      "weekly": 6543,
      "jordan": 6544,
      "fena": 6545,
      "##riend": 6546,
      "paperwork": 6547,
      "##apped": 6548,
      "drawing": 6549,
      "declared": 6550,
      "##coming": 6551,
      "##tic": 6552,
      "##his": 6553,
      "##kin": 6554,
      "##irm": 6555,
      "drove": 6556,
      "nowhere": 6557,
      "regions": 6558,
      "charl": 6559,
      "barri": 6560,
      "employer": 6561,
      "swung": 6562,
      "dealing": 6563,
      "universal": 6564,
      "guadeloupe": 6565,
      "##ij": 6566,
      "##tan": 6567,
      "##keep": 6568,
      "instances": 6569,
      "farmers": 6570,
      "consumers": 6571,
      "subsequent": 6572,
      "astronom": 6573,
      "theatre": 6574,
      "buchanan": 6575,
      "lev": 6576,
      "190": 6577,
      "lav": 6578,
      "morris": 6579,
      "oppon": 6580,
      "architectural": 6581,
      "ibm": 6582,
      "pour": 6583,
      "rene": 6584,
      "tin": 6585,
      "##pping": 6586,
      "directed": 6587,
      "dorcas": 6588,
      "conservatives": 6589,
      "mixed": 6590,
      "bowl": 6591,
      "cowb": 6592,
      "karf": 6593,
      "sights": 6594,
      "##oons": 6595,
      "tech": 6596,
      "visible": 6597,
      "implications": 6598,
      "ax": 6599,
      "##ester": 6600,
      "##vered": 6601,
      "##opes": 6602,
      "sew": 6603,
      "commerce": 6604,
      "waited": 6605,
      "pottery": 6606,
      "referred": 6607,
      "contribution": 6608,
      "treasures": 6609,
      "deficit": 6610,
      "alexander": 6611,
      "enormous": 6612,
      "##itage": 6613,
      "##ighth": 6614,
      "##enda": 6615,
      "mini": 6616,
      "metric": 6617,
      "lessons": 6618,
      "northwest": 6619,
      "accordance": 6620,
      "solic": 6621,
      "accessible": 6622,
      "corps": 6623,
      "educational": 6624,
      "israeli": 6625,
      "constantly": 6626,
      "proposals": 6627,
      "chicken": 6628,
      "ast": 6629,
      "jur": 6630,
      "##ull": 6631,
      "##ouses": 6632,
      "quiz": 6633,
      "blind": 6634,
      "plano": 6635,
      "missing": 6636,
      "returns": 6637,
      "reforms": 6638,
      "indiana": 6639,
      "surplus": 6640,
      "litigation": 6641,
      "bour": 6642,
      "sna": 6643,
      "##yard": 6644,
      "shirt": 6645,
      "pope": 6646,
      "headed": 6647,
      "##idding": 6648,
      "vehicles": 6649,
      "forgotten": 6650,
      "##stone": 6651,
      "aggreg": 6652,
      "struck": 6653,
      "cents": 6654,
      "delay": 6655,
      "landsc": 6656,
      "statut": 6657,
      "integrated": 6658,
      "interpretation": 6659,
      "november": 6660,
      "pp": 6661,
      "canada": 6662,
      "unw": 6663,
      "uncon": 6664,
      "ads": 6665,
      "viewed": 6666,
      "impression": 6667,
      "infrastructure": 6668,
      "dun": 6669,
      "nit": 6670,
      "nerv": 6671,
      "pin": 6672,
      "##fl": 6673,
      "##oration": 6674,
      "chosen": 6675,
      "manual": 6676,
      "nov": 6677,
      "remote": 6678,
      "palais": 6679,
      "southwest": 6680,
      "burning": 6681,
      "pleased": 6682,
      "denied": 6683,
      "linked": 6684,
      "mandatory": 6685,
      "ridiculous": 6686,
      "45": 6687,
      "diverse": 6688,
      "nuc": 6689,
      "##inian": 6690,
      "##gean": 6691,
      "flav": 6692,
      "##seless": 6693,
      "requiring": 6694,
      "simpl": 6695,
      "feelings": 6696,
      "##awa": 6697,
      "protoc": 6698,
      "magazines": 6699,
      "obtained": 6700,
      "lewis": 6701,
      "concluded": 6702,
      "converted": 6703,
      "convenient": 6704,
      "smooth": 6705,
      "nucle": 6706,
      "55": 6707,
      "##iors": 6708,
      "##usted": 6709,
      "abbey": 6710,
      "homeland": 6711,
      "fingers": 6712,
      "wednesday": 6713,
      "rival": 6714,
      "##ko": 6715,
      "##atoes": 6716,
      "ang": 6717,
      "seed": 6718,
      "plot": 6719,
      "monop": 6720,
      "highlight": 6721,
      "supports": 6722,
      "statistical": 6723,
      "exclud": 6724,
      "promise": 6725,
      "cousin": 6726,
      "groc": 6727,
      "operate": 6728,
      "terrace": 6729,
      "recognition": 6730,
      "neighbors": 6731,
      "cant": 6732,
      "rational": 6733,
      "##comm": 6734,
      "##oral": 6735,
      "stops": 6736,
      "frag": 6737,
      "tran": 6738,
      "unh": 6739,
      "corresp": 6740,
      "agreements": 6741,
      "considerable": 6742,
      "casual": 6743,
      "oriented": 6744,
      "kentucky": 6745,
      "correspond": 6746,
      "dict": 6747,
      "hamm": 6748,
      "##ques": 6749,
      "topics": 6750,
      "passion": 6751,
      "##attle": 6752,
      "closely": 6753,
      "adjustment": 6754,
      "analyst": 6755,
      "editorial": 6756,
      "dynasty": 6757,
      "bench": 6758,
      "wow": 6759,
      "##tle": 6760,
      "##gy": 6761,
      "##anes": 6762,
      "##urd": 6763,
      "nose": 6764,
      "bro": 6765,
      "locations": 6766,
      "1990s": 6767,
      "epis": 6768,
      "distingu": 6769,
      "maintained": 6770,
      "dressed": 6771,
      "carrier": 6772,
      "wheel": 6773,
      "aegean": 6774,
      "statutory": 6775,
      "aven": 6776,
      "bible": 6777,
      "pushed": 6778,
      "prize": 6779,
      "ate": 6780,
      "##acious": 6781,
      "##ibe": 6782,
      "##ipts": 6783,
      "heritage": 6784,
      "##ubs": 6785,
      "funchal": 6786,
      "seconds": 6787,
      "encoun": 6788,
      "ineff": 6789,
      "rams": 6790,
      "##erity": 6791,
      "##aine": 6792,
      "loves": 6793,
      "acting": 6794,
      "##rogen": 6795,
      "blow": 6796,
      "acceptable": 6797,
      "consolid": 6798,
      "vine": 6799,
      "##iration": 6800,
      "chamb": 6801,
      "trick": 6802,
      "myth": 6803,
      "drunk": 6804,
      "visitor": 6805,
      "christians": 6806,
      "swords": 6807,
      "jackson": 6808,
      "immigrants": 6809,
      "naz": 6810,
      "##uge": 6811,
      "##uting": 6812,
      "wash": 6813,
      "seas": 6814,
      "##abled": 6815,
      "##active": 6816,
      "##agn": 6817,
      "ceo": 6818,
      "coastal": 6819,
      "ignore": 6820,
      "95": 6821,
      "dir": 6822,
      "hou": 6823,
      "##ien": 6824,
      "##rep": 6825,
      "blocks": 6826,
      "handling": 6827,
      "189": 6828,
      "figured": 6829,
      "traveled": 6830,
      "evaluate": 6831,
      "##under": 6832,
      "hoped": 6833,
      "ninet": 6834,
      "##inate": 6835,
      "##cher": 6836,
      "##ocking": 6837,
      "crown": 6838,
      "##raft": 6839,
      "personally": 6840,
      "walks": 6841,
      "recorded": 6842,
      "corporations": 6843,
      "rod": 6844,
      "##oves": 6845,
      "##oma": 6846,
      "frustr": 6847,
      "riders": 6848,
      "mirr": 6849,
      "gathered": 6850,
      "license": 6851,
      "surface": 6852,
      "rivers": 6853,
      "##night": 6854,
      "##wa": 6855,
      "orch": 6856,
      "##agues": 6857,
      "186": 6858,
      "187": 6859,
      "beautifully": 6860,
      "malay": 6861,
      "gained": 6862,
      "##ya": 6863,
      "truck": 6864,
      "lean": 6865,
      "craw": 6866,
      "##bean": 6867,
      "popularity": 6868,
      "entering": 6869,
      "involvement": 6870,
      "memorial": 6871,
      "hersheim": 6872,
      "hersheimmer": 6873,
      "tape": 6874,
      "wolf": 6875,
      "##llo": 6876,
      "##illing": 6877,
      "liqu": 6878,
      "exotic": 6879,
      "unn": 6880,
      "sail": 6881,
      "housed": 6882,
      "authorities": 6883,
      "destruction": 6884,
      "substance": 6885,
      "purchased": 6886,
      "platform": 6887,
      "earthquake": 6888,
      "mun": 6889,
      "##itated": 6890,
      "rely": 6891,
      "##the": 6892,
      "assemb": 6893,
      "shil": 6894,
      "discour": 6895,
      "edward": 6896,
      "northeast": 6897,
      "unlikely": 6898,
      "laughed": 6899,
      "##stream": 6900,
      "##ifice": 6901,
      "lock": 6902,
      "statute": 6903,
      "optim": 6904,
      "collabor": 6905,
      "ninety": 6906,
      "merchant": 6907,
      "antonio": 6908,
      "borr": 6909,
      "ly": 6910,
      "pizz": 6911,
      "##uine": 6912,
      "##onald": 6913,
      "external": 6914,
      "grade": 6915,
      "guests": 6916,
      "locked": 6917,
      "##hips": 6918,
      "duke": 6919,
      "component": 6920,
      "deficits": 6921,
      "cater": 6922,
      "dat": 6923,
      "##lied": 6924,
      "##anda": 6925,
      "lands": 6926,
      "salary": 6927,
      "murd": 6928,
      "christianity": 6929,
      "hanging": 6930,
      "spiritual": 6931,
      "carpet": 6932,
      "dame": 6933,
      "fert": 6934,
      "gif": 6935,
      "##rah": 6936,
      "##asp": 6937,
      "##une": 6938,
      "strang": 6939,
      "designated": 6940,
      "##lessly": 6941,
      "breaking": 6942,
      "methodology": 6943,
      "hillary": 6944,
      "addressing": 6945,
      "similarly": 6946,
      "advocates": 6947,
      "luxury": 6948,
      "tu": 6949,
      "tables": 6950,
      "##orca": 6951,
      "##acc": 6952,
      "##troll": 6953,
      "##agers": 6954,
      "##aws": 6955,
      "determining": 6956,
      "austral": 6957,
      "false": 6958,
      "pounds": 6959,
      "divorce": 6960,
      "erected": 6961,
      "impeach": 6962,
      "houston": 6963,
      "pays": 6964,
      "appe": 6965,
      "airport": 6966,
      "passage": 6967,
      "filed": 6968,
      "fallen": 6969,
      "granted": 6970,
      "dull": 6971,
      "unfair": 6972,
      "injured": 6973,
      "trails": 6974,
      "##lor": 6975,
      "##bul": 6976,
      "##iano": 6977,
      "planet": 6978,
      "comprom": 6979,
      "innovative": 6980,
      "boutiques": 6981,
      "kirby": 6982,
      "caribbean": 6983,
      "dirty": 6984,
      "fiction": 6985,
      "##days": 6986,
      "guides": 6987,
      "mons": 6988,
      "entit": 6989,
      "employed": 6990,
      "transactions": 6991,
      "badly": 6992,
      "nato": 6993,
      "nonpro": 6994,
      "##inois": 6995,
      "qualified": 6996,
      "cete": 6997,
      "striking": 6998,
      "frescoes": 6999,
      "800": 7000,
      "cos": 7001,
      "jazz": 7002,
      "till": 7003,
      "haz": 7004,
      "shannon": 7005,
      "reserv": 7006,
      "theme": 7007,
      "steven": 7008,
      "initially": 7009,
      "victim": 7010,
      "drawings": 7011,
      "shiloh": 7012,
      "jr": 7013,
      "ow": 7014,
      "rit": 7015,
      "pla": 7016,
      "##iptions": 7017,
      "annoy": 7018,
      "villa": 7019,
      "pilgrims": 7020,
      "bern": 7021,
      "finger": 7022,
      "##rig": 7023,
      "##kers": 7024,
      "##alf": 7025,
      "##amental": 7026,
      "sheep": 7027,
      "crose": 7028,
      "crash": 7029,
      "newly": 7030,
      "##ubb": 7031,
      "stry": 7032,
      "parent": 7033,
      "adding": 7034,
      "argued": 7035,
      "illinois": 7036,
      "relaxed": 7037,
      "scenarios": 7038,
      "lam": 7039,
      "##gged": 7040,
      "##essions": 7041,
      "##uns": 7042,
      "secure": 7043,
      "swing": 7044,
      "grande": 7045,
      "mexican": 7046,
      "martinique": 7047,
      "virtually": 7048,
      "album": 7049,
      "basilica": 7050,
      "elaborate": 7051,
      "ram": 7052,
      "##field": 7053,
      "##bar": 7054,
      "inher": 7055,
      "##omach": 7056,
      "shell": 7057,
      "imposed": 7058,
      "captain": 7059,
      "##iox": 7060,
      "objective": 7061,
      "confirmed": 7062,
      "controvers": 7063,
      "strychn": 7064,
      "cot": 7065,
      "cel": 7066,
      "diox": 7067,
      "lin": 7068,
      "##ria": 7069,
      "##fall": 7070,
      "threw": 7071,
      "unified": 7072,
      "##aki": 7073,
      "studying": 7074,
      "handled": 7075,
      "retail": 7076,
      "covering": 7077,
      "iran": 7078,
      "shrines": 7079,
      "settings": 7080,
      "indicated": 7081,
      "discounts": 7082,
      "rejected": 7083,
      "fright": 7084,
      "loy": 7085,
      "subscr": 7086,
      "humans": 7087,
      "beneath": 7088,
      "authorized": 7089,
      "inflation": 7090,
      "exception": 7091,
      "mobile": 7092,
      "thursday": 7093,
      "chambers": 7094,
      "diving": 7095,
      "na": 7096,
      "##isk": 7097,
      "beer": 7098,
      "##oli": 7099,
      "shock": 7100,
      "##osition": 7101,
      "noble": 7102,
      "offset": 7103,
      "drivers": 7104,
      "pools": 7105,
      "flour": 7106,
      "palaces": 7107,
      "coastline": 7108,
      "strychnine": 7109,
      "fcc": 7110,
      "wt": 7111,
      "zero": 7112,
      "##organ": 7113,
      "sequ": 7114,
      "orth": 7115,
      "trends": 7116,
      "monte": 7117,
      "talent": 7118,
      "summar": 7119,
      "ensuring": 7120,
      "voted": 7121,
      "broadcast": 7122,
      "minority": 7123,
      "gentlem": 7124,
      "nurse": 7125,
      "palazzo": 7126,
      "kosovo": 7127,
      "density": 7128,
      "##tes": 7129,
      "##aust": 7130,
      "##any": 7131,
      "##rete": 7132,
      "##isters": 7133,
      "hav": 7134,
      "sees": 7135,
      "##ava": 7136,
      "presents": 7137,
      "soul": 7138,
      "pund": 7139,
      "multi": 7140,
      "recommendation": 7141,
      "demonstration": 7142,
      "convinced": 7143,
      "portrait": 7144,
      "##enz": 7145,
      "##che": 7146,
      "cha": 7147,
      "decent": 7148,
      "subur": 7149,
      "dealers": 7150,
      "influenced": 7151,
      "hypoth": 7152,
      "instrument": 7153,
      "maximum": 7154,
      "whisp": 7155,
      "##inity": 7156,
      "proof": 7157,
      "##iva": 7158,
      "##ipa": 7159,
      "incident": 7160,
      "parad": 7161,
      "remove": 7162,
      "provision": 7163,
      "topham": 7164,
      "apolog": 7165,
      "volunt": 7166,
      "hitler": 7167,
      "juan": 7168,
      "seventy": 7169,
      "roughly": 7170,
      "rebuilt": 7171,
      "sons": 7172,
      "##uls": 7173,
      "supplies": 7174,
      "administer": 7175,
      "errors": 7176,
      "venetian": 7177,
      "dioxide": 7178,
      "habit": 7179,
      "##aux": 7180,
      "schem": 7181,
      "plane": 7182,
      "fundamental": 7183,
      "nights": 7184,
      "equival": 7185,
      "maintaining": 7186,
      "guarantee": 7187,
      "academic": 7188,
      "reprod": 7189,
      "cyc": 7190,
      "dying": 7191,
      "gap": 7192,
      "oak": 7193,
      "##inos": 7194,
      "##ills": 7195,
      "##acle": 7196,
      "spear": 7197,
      "recre": 7198,
      "throne": 7199,
      "para": 7200,
      "informed": 7201,
      "letting": 7202,
      "defeated": 7203,
      "songs": 7204,
      "praise": 7205,
      "explorer": 7206,
      "innocent": 7207,
      "outdoor": 7208,
      "wol": 7209,
      "##war": 7210,
      "##bour": 7211,
      "chees": 7212,
      "suic": 7213,
      "creative": 7214,
      "trauma": 7215,
      "ramses": 7216,
      "ls": 7217,
      "mit": 7218,
      "useless": 7219,
      "##xual": 7220,
      "##isons": 7221,
      "##idays": 7222,
      "deals": 7223,
      "outs": 7224,
      "undert": 7225,
      "excav": 7226,
      "routine": 7227,
      "injury": 7228,
      "carriers": 7229,
      "delightful": 7230,
      "dies": 7231,
      "mwe": 7232,
      "rab": 7233,
      "##odox": 7234,
      "alab": 7235,
      "##00s": 7236,
      "assurance": 7237,
      "speaker": 7238,
      "superior": 7239,
      "indicate": 7240,
      "ultimate": 7241,
      "portugal": 7242,
      "veterans": 7243,
      "##lined": 7244,
      "##zen": 7245,
      "stor": 7246,
      "hast": 7247,
      "solve": 7248,
      "illness": 7249,
      "1980s": 7250,
      "damaged": 7251,
      "impressed": 7252,
      "responded": 7253,
      "nervous": 7254,
      "attempts": 7255,
      "instruct": 7256,
      "lis": 7257,
      "assert": 7258,
      "accountable": 7259,
      "monthly": 7260,
      "appropriations": 7261,
      "hiking": 7262,
      "confirm": 7263,
      "ritual": 7264,
      "##eas": 7265,
      "trials": 7266,
      "##eling": 7267,
      "unre": 7268,
      "resem": 7269,
      "indig": 7270,
      "warning": 7271,
      "surg": 7272,
      "define": 7273,
      "clever": 7274,
      "mainland": 7275,
      "profile": 7276,
      "significance": 7277,
      "greece": 7278,
      "concentration": 7279,
      "negoti": 7280,
      "discrimination": 7281,
      "tropical": 7282,
      "controversial": 7283,
      "##vings": 7284,
      "anx": 7285,
      "donations": 7286,
      "agenda": 7287,
      "monks": 7288,
      "reluct": 7289,
      "arrested": 7290,
      "exhibition": 7291,
      "satisfaction": 7292,
      "horn": 7293,
      "lod": 7294,
      "##ym": 7295,
      "##orous": 7296,
      "alleg": 7297,
      "cans": 7298,
      "belt": 7299,
      "valuation": 7300,
      "milk": 7301,
      "travelers": 7302,
      "priorities": 7303,
      "sculpted": 7304,
      "puerto": 7305,
      "lag": 7306,
      "pump": 7307,
      "pont": 7308,
      "##sters": 7309,
      "exposed": 7310,
      "genuine": 7311,
      "talks": 7312,
      "delhi": 7313,
      "godd": 7314,
      "connected": 7315,
      "picturesque": 7316,
      "fortune": 7317,
      "ell": 7318,
      "##iro": 7319,
      "nema": 7320,
      "meanwhile": 7321,
      "edition": 7322,
      "assessing": 7323,
      "flying": 7324,
      "verd": 7325,
      "earnings": 7326,
      "renew": 7327,
      "##cy": 7328,
      "sticks": 7329,
      "##ardo": 7330,
      "paral": 7331,
      "factory": 7332,
      "deaths": 7333,
      "lifest": 7334,
      "weaknesses": 7335,
      "bost": 7336,
      "dup": 7337,
      "elev": 7338,
      "fond": 7339,
      "fancy": 7340,
      "##esis": 7341,
      "##orter": 7342,
      "reaction": 7343,
      "prepar": 7344,
      "cares": 7345,
      "ourselves": 7346,
      "retreat": 7347,
      "advertise": 7348,
      "merchants": 7349,
      "lifet": 7350,
      "resistance": 7351,
      "aic": 7352,
      "legit": 7353,
      "joke": 7354,
      "prototyp": 7355,
      "excurs": 7356,
      "demanded": 7357,
      "florence": 7358,
      "interviews": 7359,
      "premium": 7360,
      "wtp": 7361,
      "boston": 7362,
      "hiring": 7363,
      "toler": 7364,
      "##urred": 7365,
      "assigned": 7366,
      "depth": 7367,
      "1991": 7368,
      "authors": 7369,
      "identifying": 7370,
      "difficulty": 7371,
      "administrator": 7372,
      "hopes": 7373,
      "observation": 7374,
      "contemporary": 7375,
      "bauerstein": 7376,
      "facilitate": 7377,
      "boris": 7378,
      "sauce": 7379,
      "datab": 7380,
      "az": 7381,
      "##stit": 7382,
      "##oda": 7383,
      "outstanding": 7384,
      "phen": 7385,
      "globe": 7386,
      "southeast": 7387,
      "focuses": 7388,
      "subjects": 7389,
      "emphasis": 7390,
      "crucial": 7391,
      "aerob": 7392,
      "goddess": 7393,
      "bh": 7394,
      "pist": 7395,
      "zoo": 7396,
      "##orious": 7397,
      "stal": 7398,
      "notre": 7399,
      "##illa": 7400,
      "##istent": 7401,
      "##oker": 7402,
      "obsc": 7403,
      "diam": 7404,
      "immediate": 7405,
      "rust": 7406,
      "##gage": 7407,
      "##jo": 7408,
      "##otes": 7409,
      "actor": 7410,
      "accum": 7411,
      "indo": 7412,
      "relating": 7413,
      "wondered": 7414,
      "reaching": 7415,
      "suffer": 7416,
      "occasional": 7417,
      "cowboys": 7418,
      "37": 7419,
      "gest": 7420,
      "##zes": 7421,
      "##ales": 7422,
      "temporary": 7423,
      "acquired": 7424,
      "embarr": 7425,
      "rapier": 7426,
      "jeff": 7427,
      "concerts": 7428,
      "ghost": 7429,
      "inev": 7430,
      "cryst": 7431,
      "supervis": 7432,
      "cuisine": 7433,
      "aicpa": 7434,
      "mothers": 7435,
      "tort": 7436,
      "wire": 7437,
      "##pe": 7438,
      "spoken": 7439,
      "##quis": 7440,
      "perth": 7441,
      "carvings": 7442,
      "assign": 7443,
      "monitor": 7444,
      "evol": 7445,
      "transaction": 7446,
      "steve": 7447,
      "availability": 7448,
      "horror": 7449,
      "bathroom": 7450,
      "shelter": 7451,
      "embarrass": 7452,
      "hint": 7453,
      "##ala": 7454,
      "##ider": 7455,
      "refuge": 7456,
      "marketing": 7457,
      "attacked": 7458,
      "establishment": 7459,
      "institutions": 7460,
      "permitted": 7461,
      "femin": 7462,
      "etc": 7463,
      "certification": 7464,
      "pyramid": 7465,
      "##avery": 7466,
      "nitrogen": 7467,
      "nuclear": 7468,
      "auction": 7469,
      "hars": 7470,
      "mild": 7471,
      "pupp": 7472,
      "##mir": 7473,
      "##erable": 7474,
      "##ican": 7475,
      "##amics": 7476,
      "unexp": 7477,
      "agents": 7478,
      "crop": 7479,
      "colony": 7480,
      "discusses": 7481,
      "assistant": 7482,
      "checked": 7483,
      "neglect": 7484,
      "customs": 7485,
      "dozens": 7486,
      "bureaucr": 7487,
      "comedy": 7488,
      "revenues": 7489,
      "triumph": 7490,
      "fulf": 7491,
      "tas": 7492,
      "##atures": 7493,
      "##lling": 7494,
      "##char": 7495,
      "##ems": 7496,
      "simon": 7497,
      "productive": 7498,
      "confused": 7499,
      "cliffs": 7500,
      "enthusi": 7501,
      "expansion": 7502,
      "##ih": 7503,
      "##rison": 7504,
      "##40": 7505,
      "##olitan": 7506,
      "##eck": 7507,
      "marry": 7508,
      "lasted": 7509,
      "mandates": 7510,
      "journalists": 7511,
      "injuries": 7512,
      "automated": 7513,
      "expertise": 7514,
      "rapidly": 7515,
      "bic": 7516,
      "lu": 7517,
      "tie": 7518,
      "##ads": 7519,
      "##udes": 7520,
      "deserve": 7521,
      "##erman": 7522,
      "experiment": 7523,
      "patr": 7524,
      "treasure": 7525,
      "adopt": 7526,
      "wedding": 7527,
      "fabric": 7528,
      "cotton": 7529,
      "loyal": 7530,
      "cock": 7531,
      "nh": 7532,
      "stomach": 7533,
      "##opher": 7534,
      "yep": 7535,
      "alike": 7536,
      "##ucks": 7537,
      "medica": 7538,
      "economically": 7539,
      "refers": 7540,
      "greet": 7541,
      "strongly": 7542,
      "displayed": 7543,
      "launched": 7544,
      "biograph": 7545,
      "paragraph": 7546,
      "gulf": 7547,
      "mam": 7548,
      "naked": 7549,
      "ves": 7550,
      "##lights": 7551,
      "##mony": 7552,
      "abroad": 7553,
      "apple": 7554,
      "armed": 7555,
      "cultures": 7556,
      "dominated": 7557,
      "woods": 7558,
      "installations": 7559,
      "rolling": 7560,
      "derived": 7561,
      "fantastic": 7562,
      "protocols": 7563,
      "nonprofit": 7564,
      "foster": 7565,
      "##oric": 7566,
      "reign": 7567,
      "fox": 7568,
      "coron": 7569,
      "concrete": 7570,
      "transm": 7571,
      "allowance": 7572,
      "enjoys": 7573,
      "sixth": 7574,
      "device": 7575,
      "submit": 7576,
      "atlanta": 7577,
      "cataly": 7578,
      "fountain": 7579,
      "##10": 7580,
      "bears": 7581,
      "forec": 7582,
      "##licit": 7583,
      "##angelo": 7584,
      "attended": 7585,
      "simulation": 7586,
      "hardware": 7587,
      "patron": 7588,
      "boxes": 7589,
      "utter": 7590,
      "acknowled": 7591,
      "pizza": 7592,
      "medicaid": 7593,
      "wan": 7594,
      "##ault": 7595,
      "beard": 7596,
      "hamp": 7597,
      "prest": 7598,
      "chatter": 7599,
      "##eline": 7600,
      "reflected": 7601,
      "paths": 7602,
      "sympath": 7603,
      "ceremony": 7604,
      "prosecut": 7605,
      "pent": 7606,
      "##ture": 7607,
      "shade": 7608,
      "trash": 7609,
      "lobby": 7610,
      "invited": 7611,
      "personality": 7612,
      "balanced": 7613,
      "pilot": 7614,
      "monetary": 7615,
      "##oul": 7616,
      "##olate": 7617,
      "conrad": 7618,
      "outr": 7619,
      "promen": 7620,
      "wondering": 7621,
      "competitors": 7622,
      "regarded": 7623,
      "sensit": 7624,
      "pharao": 7625,
      "ornate": 7626,
      "throat": 7627,
      "cott": 7628,
      "rush": 7629,
      "##mand": 7630,
      "tok": 7631,
      "##ashing": 7632,
      "stones": 7633,
      "alley": 7634,
      "peas": 7635,
      "##avag": 7636,
      "contrary": 7637,
      "##athers": 7638,
      "restoration": 7639,
      "admission": 7640,
      "naturally": 7641,
      "poorly": 7642,
      "absence": 7643,
      "guaranteed": 7644,
      "retrofits": 7645,
      "columbus": 7646,
      "honey": 7647,
      "suits": 7648,
      "exha": 7649,
      "score": 7650,
      "pregn": 7651,
      "moor": 7652,
      "populations": 7653,
      "barr": 7654,
      "reader": 7655,
      "promised": 7656,
      "silk": 7657,
      "granite": 7658,
      "gear": 7659,
      "##lord": 7660,
      "##oning": 7661,
      "##areness": 7662,
      "##osh": 7663,
      "straw": 7664,
      "marvel": 7665,
      "palm": 7666,
      "circus": 7667,
      "banned": 7668,
      "motion": 7669,
      "holoc": 7670,
      "measurement": 7671,
      "springs": 7672,
      "orthodox": 7673,
      "ceter": 7674,
      "##ped": 7675,
      "reorgan": 7676,
      "chin": 7677,
      "##ails": 7678,
      "exploring": 7679,
      "arches": 7680,
      "encl": 7681,
      "civilization": 7682,
      "indicates": 7683,
      "camera": 7684,
      "quarterback": 7685,
      "dependent": 7686,
      "transferred": 7687,
      "constitutional": 7688,
      "surprisingly": 7689,
      "holocaust": 7690,
      "lion": 7691,
      "pushing": 7692,
      "##bound": 7693,
      "inject": 7694,
      "twin": 7695,
      "caps": 7696,
      "##ologist": 7697,
      "proph": 7698,
      "behalf": 7699,
      "compete": 7700,
      "deeply": 7701,
      "extraord": 7702,
      "reporter": 7703,
      "brilliant": 7704,
      "65": 7705,
      "pomp": 7706,
      "##oms": 7707,
      "stun": 7708,
      "stained": 7709,
      "resolution": 7710,
      "whereas": 7711,
      "legs": 7712,
      "awareness": 7713,
      "circular": 7714,
      "suffering": 7715,
      "dramatically": 7716,
      "feedback": 7717,
      "macau": 7718,
      "announce": 7719,
      "aimed": 7720,
      "eliminate": 7721,
      "mystery": 7722,
      "steady": 7723,
      "impeachment": 7724,
      "lifetime": 7725,
      "unexpected": 7726,
      "39": 7727,
      "fate": 7728,
      "##iences": 7729,
      "anger": 7730,
      "seats": 7731,
      "acres": 7732,
      "quint": 7733,
      "communist": 7734,
      "enjoyable": 7735,
      "files": 7736,
      "expecting": 7737,
      "rocky": 7738,
      "industries": 7739,
      "overseas": 7740,
      "depression": 7741,
      "masterpiece": 7742,
      "phrase": 7743,
      "nineteen": 7744,
      "nipa": 7745,
      "pap": 7746,
      "pitt": 7747,
      "pension": 7748,
      "##aire": 7749,
      "##mo": 7750,
      "conj": 7751,
      "lips": 7752,
      "arth": 7753,
      "intake": 7754,
      "poly": 7755,
      "visa": 7756,
      "soccer": 7757,
      "affirm": 7758,
      "supposedly": 7759,
      "volcanic": 7760,
      "staircase": 7761,
      "prudie": 7762,
      "wave": 7763,
      "##vre": 7764,
      "##istry": 7765,
      "recycle": 7766,
      "boost": 7767,
      "fled": 7768,
      "metrop": 7769,
      "listened": 7770,
      "antiques": 7771,
      "fashioned": 7772,
      "touched": 7773,
      "princes": 7774,
      "racial": 7775,
      "agriculture": 7776,
      "42": 7777,
      "hip": 7778,
      "ic": 7779,
      "nich": 7780,
      "riv": 7781,
      "infer": 7782,
      "butter": 7783,
      "##apse": 7784,
      "##eled": 7785,
      "ohio": 7786,
      "minded": 7787,
      "1989": 7788,
      "jungle": 7789,
      "quarters": 7790,
      "jumped": 7791,
      "scheduled": 7792,
      "warriors": 7793,
      "michelangelo": 7794,
      "aerobics": 7795,
      "harsh": 7796,
      "pav": 7797,
      "##lom": 7798,
      "##bl": 7799,
      "timely": 7800,
      "##aches": 7801,
      "traditionally": 7802,
      "drinks": 7803,
      "fashionable": 7804,
      "1960s": 7805,
      "incentive": 7806,
      "sophisticated": 7807,
      "bike": 7808,
      "baza": 7809,
      "cage": 7810,
      "##hor": 7811,
      "istan": 7812,
      "##irable": 7813,
      "##imental": 7814,
      "procl": 7815,
      "grin": 7816,
      "brothers": 7817,
      "workforce": 7818,
      "mines": 7819,
      "refres": 7820,
      "couples": 7821,
      "##onym": 7822,
      "romanesque": 7823,
      "crossed": 7824,
      "adjusted": 7825,
      "bombing": 7826,
      "inspection": 7827,
      "victorian": 7828,
      "philosophy": 7829,
      "hub": 7830,
      "ry": 7831,
      "rides": 7832,
      "##iable": 7833,
      "##bits": 7834,
      "##ongh": 7835,
      "fro": 7836,
      "unin": 7837,
      "##ager": 7838,
      "serb": 7839,
      "buc": 7840,
      "commem": 7841,
      "solutions": 7842,
      "panor": 7843,
      "threatened": 7844,
      "gateway": 7845,
      "occupied": 7846,
      "academy": 7847,
      "osaka": 7848,
      "institutional": 7849,
      "01": 7850,
      "##olis": 7851,
      "##istan": 7852,
      "usa": 7853,
      "ruined": 7854,
      "engaged": 7855,
      "##elled": 7856,
      "wake": 7857,
      "prominent": 7858,
      "integration": 7859,
      "##ylv": 7860,
      "bargain": 7861,
      "intelligence": 7862,
      "jacob": 7863,
      "withdraw": 7864,
      "700": 7865,
      "dot": 7866,
      "vig": 7867,
      "##fish": 7868,
      "preced": 7869,
      "crete": 7870,
      "generate": 7871,
      "patri": 7872,
      "casino": 7873,
      "subsidy": 7874,
      "disclosure": 7875,
      "suicide": 7876,
      "##mandu": 7877,
      "dirt": 7878,
      "tied": 7879,
      "##bc": 7880,
      "theaters": 7881,
      "stall": 7882,
      "shield": 7883,
      "capita": 7884,
      "enterpr": 7885,
      "engagements": 7886,
      "revealed": 7887,
      "cem": 7888,
      "betr": 7889,
      "scout": 7890,
      "mood": 7891,
      "slavery": 7892,
      "networks": 7893,
      "troub": 7894,
      "sweep": 7895,
      "versa": 7896,
      "peaks": 7897,
      "hawaii": 7898,
      "bree": 7899,
      "hatch": 7900,
      "vend": 7901,
      "##isan": 7902,
      "##ieur": 7903,
      "spo": 7904,
      "descend": 7905,
      "arrest": 7906,
      "colleagues": 7907,
      "suggestions": 7908,
      "penns": 7909,
      "credibility": 7910,
      "1980": 7911,
      "introduction": 7912,
      "prayer": 7913,
      "kathmandu": 7914,
      "joseph": 7915,
      "unnecess": 7916,
      "pennsylv": 7917,
      "99": 7918,
      "aqu": 7919,
      "rico": 7920,
      "ties": 7921,
      "##ga": 7922,
      "##vas": 7923,
      "##cho": 7924,
      "comply": 7925,
      "producing": 7926,
      "publicly": 7927,
      "##ugged": 7928,
      "campus": 7929,
      "terminal": 7930,
      "districts": 7931,
      "qualitative": 7932,
      "prosperity": 7933,
      "reconstr": 7934,
      "bonds": 7935,
      "inquiry": 7936,
      "hc": 7937,
      "##hem": 7938,
      "##igan": 7939,
      "comptroll": 7940,
      "wanting": 7941,
      "carbon": 7942,
      "evident": 7943,
      "classified": 7944,
      "trem": 7945,
      "discussions": 7946,
      "argent": 7947,
      "hungry": 7948,
      "celebrate": 7949,
      "bottle": 7950,
      "opposition": 7951,
      "advocacy": 7952,
      "tribes": 7953,
      "graduate": 7954,
      "islam": 7955,
      "eager": 7956,
      "hcfa": 7957,
      "fet": 7958,
      "tact": 7959,
      "wines": 7960,
      "##aics": 7961,
      "##ederal": 7962,
      "##omo": 7963,
      "shiva": 7964,
      "gov": 7965,
      "proc": 7966,
      "worn": 7967,
      "editors": 7968,
      "headquar": 7969,
      "2005": 7970,
      "transpar": 7971,
      "turks": 7972,
      "membership": 7973,
      "holidays": 7974,
      "utility": 7975,
      "neighborhoods": 7976,
      "succeeded": 7977,
      "strictly": 7978,
      "produces": 7979,
      "monopoly": 7980,
      "tut": 7981,
      "tack": 7982,
      "##mother": 7983,
      "##idable": 7984,
      "##oped": 7985,
      "neut": 7986,
      "exquis": 7987,
      "##uscan": 7988,
      "##aping": 7989,
      "brut": 7990,
      "loose": 7991,
      "helms": 7992,
      "texan": 7993,
      "assessments": 7994,
      "hurry": 7995,
      "breaks": 7996,
      "targets": 7997,
      "francisco": 7998,
      "analysts": 7999,
      "sending": 8000,
      "##fare": 8001,
      "##inction": 8002,
      "libert": 8003,
      "##lands": 8004,
      "deliber": 8005,
      "beneficial": 8006,
      "varied": 8007,
      "ruling": 8008,
      "seaf": 8009,
      "planted": 8010,
      "battles": 8011,
      "reflects": 8012,
      "demonstrated": 8013,
      "clinical": 8014,
      "updated": 8015,
      "pacific": 8016,
      "alleged": 8017,
      "pennsylvania": 8018,
      "cree": 8019,
      "gand": 8020,
      "kiss": 8021,
      "sate": 8022,
      "##hand": 8023,
      "##orters": 8024,
      "##itarian": 8025,
      "choc": 8026,
      "traged": 8027,
      "soil": 8028,
      "cancer": 8029,
      "aged": 8030,
      "persu": 8031,
      "currency": 8032,
      "arranged": 8033,
      "winner": 8034,
      "120": 8035,
      "modeling": 8036,
      "devast": 8037,
      "hearings": 8038,
      "evaluations": 8039,
      "prisoner": 8040,
      "beliefs": 8041,
      "precisely": 8042,
      "appeals": 8043,
      "59": 8044,
      "cited": 8045,
      "oly": 8046,
      "exit": 8047,
      "abc": 8048,
      "leaf": 8049,
      "##umin": 8050,
      "interrupted": 8051,
      "invaded": 8052,
      "joe": 8053,
      "moderate": 8054,
      "instinct": 8055,
      "revised": 8056,
      "rulers": 8057,
      "fleet": 8058,
      "soldier": 8059,
      "germans": 8060,
      "essentially": 8061,
      "tracks": 8062,
      "adventure": 8063,
      "incorporated": 8064,
      "bart": 8065,
      "rating": 8066,
      "##cul": 8067,
      "whip": 8068,
      "knife": 8069,
      "##endous": 8070,
      "##osexual": 8071,
      "188": 8072,
      "engineers": 8073,
      "losses": 8074,
      "scientists": 8075,
      "boilermakers": 8076,
      "havana": 8077,
      "phenom": 8078,
      "48": 8079,
      "wick": 8080,
      "##uel": 8081,
      "clou": 8082,
      "publications": 8083,
      "porto": 8084,
      "##ippers": 8085,
      "renowned": 8086,
      "scrut": 8087,
      "##look": 8088,
      "attempted": 8089,
      "mandate": 8090,
      "meaningful": 8091,
      "2020": 8092,
      "inhabit": 8093,
      "istanbul": 8094,
      "olymp": 8095,
      "97": 8096,
      "ak": 8097,
      "bib": 8098,
      "dc": 8099,
      "dud": 8100,
      "ferr": 8101,
      "##ader": 8102,
      "##ouri": 8103,
      "moreover": 8104,
      "thrown": 8105,
      "costly": 8106,
      "sinai": 8107,
      "arrival": 8108,
      "promul": 8109,
      "lights": 8110,
      "ancest": 8111,
      "contractor": 8112,
      "campaigns": 8113,
      "rider": 8114,
      "procedure": 8115,
      "restrict": 8116,
      "naples": 8117,
      "saddam": 8118,
      "diplom": 8119,
      "cheese": 8120,
      "mud": 8121,
      "##craft": 8122,
      "##down": 8123,
      "##mond": 8124,
      "##rets": 8125,
      "spots": 8126,
      "explicit": 8127,
      "buck": 8128,
      "shoulders": 8129,
      "colored": 8130,
      "owns": 8131,
      "payroll": 8132,
      "profitable": 8133,
      "generated": 8134,
      "##engers": 8135,
      "presentation": 8136,
      "recording": 8137,
      "##iciencies": 8138,
      "princess": 8139,
      "gentle": 8140,
      "quantitative": 8141,
      "convince": 8142,
      "skept": 8143,
      "overwhelming": 8144,
      "monsieur": 8145,
      "lifestyle": 8146,
      "lists": 8147,
      "pork": 8148,
      "zone": 8149,
      "forests": 8150,
      "sailing": 8151,
      "impose": 8152,
      "barnes": 8153,
      "passes": 8154,
      "lowest": 8155,
      "sounded": 8156,
      "referral": 8157,
      "references": 8158,
      "norman": 8159,
      "photos": 8160,
      "challenging": 8161,
      "demonstrate": 8162,
      "appointed": 8163,
      "satisfied": 8164,
      "kle": 8165,
      "wool": 8166,
      "##vic": 8167,
      "prol": 8168,
      "unr": 8169,
      "cloud": 8170,
      "crops": 8171,
      "intention": 8172,
      "underground": 8173,
      "polish": 8174,
      "directions": 8175,
      "acceptance": 8176,
      "mosaics": 8177,
      "affects": 8178,
      "precious": 8179,
      "garb": 8180,
      "boiler": 8181,
      "athlet": 8182,
      "sacrifice": 8183,
      "pirates": 8184,
      "hiding": 8185,
      "lau": 8186,
      "vba": 8187,
      "##iner": 8188,
      "##urning": 8189,
      "asks": 8190,
      "notion": 8191,
      "alter": 8192,
      "universe": 8193,
      "hook": 8194,
      "charm": 8195,
      "antique": 8196,
      "balear": 8197,
      "distributed": 8198,
      "repeat": 8199,
      "crystal": 8200,
      "comptroller": 8201,
      "satell": 8202,
      "gsa": 8203,
      "##makers": 8204,
      "fred": 8205,
      "tries": 8206,
      "meals": 8207,
      "commod": 8208,
      "passengers": 8209,
      "engineer": 8210,
      "mansion": 8211,
      "aggregate": 8212,
      "headquarters": 8213,
      "49": 8214,
      "47": 8215,
      "dense": 8216,
      "hates": 8217,
      "##pir": 8218,
      "relic": 8219,
      "notable": 8220,
      "chances": 8221,
      "trump": 8222,
      "partly": 8223,
      "actors": 8224,
      "homeless": 8225,
      "180": 8226,
      "receives": 8227,
      "representing": 8228,
      "stronger": 8229,
      "checks": 8230,
      "11th": 8231,
      "formerly": 8232,
      "bankrupt": 8233,
      "evaluating": 8234,
      "jean": 8235,
      "decreased": 8236,
      "bias": 8237,
      "amendments": 8238,
      "harvard": 8239,
      "disappointed": 8240,
      "chatterbox": 8241,
      "43": 8242,
      "dumb": 8243,
      "dwell": 8244,
      "tapes": 8245,
      "##gian": 8246,
      "##oe": 8247,
      "##arm": 8248,
      "brid": 8249,
      "feas": 8250,
      "marine": 8251,
      "wrest": 8252,
      "warned": 8253,
      "causing": 8254,
      "medium": 8255,
      "balcon": 8256,
      "floors": 8257,
      "expanding": 8258,
      "bullet": 8259,
      "sponsored": 8260,
      "cy": 8261,
      "census": 8262,
      "dump": 8263,
      "fake": 8264,
      "sic": 8265,
      "tends": 8266,
      "xiv": 8267,
      "##ni": 8268,
      "##yards": 8269,
      "stan": 8270,
      "org": 8271,
      "outlook": 8272,
      "brows": 8273,
      "moors": 8274,
      "buses": 8275,
      "slave": 8276,
      "horiz": 8277,
      "stephen": 8278,
      "circle": 8279,
      "assuming": 8280,
      "ceremon": 8281,
      "uncertainty": 8282,
      "skiing": 8283,
      "##pit": 8284,
      "deer": 8285,
      "ark": 8286,
      "compound": 8287,
      "braz": 8288,
      "flash": 8289,
      "warn": 8290,
      "grey": 8291,
      "questioned": 8292,
      "worthy": 8293,
      "creatures": 8294,
      "suspected": 8295,
      "dreams": 8296,
      "conventional": 8297,
      "conquered": 8298,
      "ratio": 8299,
      "bustling": 8300,
      "sanctuary": 8301,
      "paradise": 8302,
      "sensitivity": 8303,
      "nar": 8304,
      "##ching": 8305,
      "##abeth": 8306,
      "teeth": 8307,
      "##izabeth": 8308,
      "##ounced": 8309,
      "replic": 8310,
      "screw": 8311,
      "accent": 8312,
      "elizabeth": 8313,
      "attached": 8314,
      "email": 8315,
      "ceramics": 8316,
      "pale": 8317,
      "execution": 8318,
      "paused": 8319,
      "geograph": 8320,
      "failing": 8321,
      "arguments": 8322,
      "commonly": 8323,
      "lacking": 8324,
      "flyer": 8325,
      "advisory": 8326,
      "intelligent": 8327,
      "privilege": 8328,
      "souvenirs": 8329,
      "hastings": 8330,
      "ease": 8331,
      "fame": 8332,
      "gab": 8333,
      "wished": 8334,
      "##pread": 8335,
      "exter": 8336,
      "##aco": 8337,
      "marsh": 8338,
      "##ressed": 8339,
      "tale": 8340,
      "technological": 8341,
      "heading": 8342,
      "traditions": 8343,
      "puzz": 8344,
      "davis": 8345,
      "imagination": 8346,
      "1970s": 8347,
      "proceedings": 8348,
      "synag": 8349,
      "hyd": 8350,
      "barriers": 8351,
      "44": 8352,
      "punch": 8353,
      "rib": 8354,
      "ted": 8355,
      "##vin": 8356,
      "##esth": 8357,
      "##alo": 8358,
      "yelled": 8359,
      "abund": 8360,
      "arist": 8361,
      "themes": 8362,
      "lovers": 8363,
      "disg": 8364,
      "string": 8365,
      "farming": 8366,
      "lesson": 8367,
      "posted": 8368,
      "receipt": 8369,
      "measuring": 8370,
      "polls": 8371,
      "historically": 8372,
      "madonna": 8373,
      "featured": 8374,
      "collaps": 8375,
      "collapse": 8376,
      "territories": 8377,
      "pillars": 8378,
      "gorge": 8379,
      "catalyst": 8380,
      "bac": 8381,
      "dances": 8382,
      "##row": 8383,
      "##rals": 8384,
      "overcome": 8385,
      "planets": 8386,
      "museo": 8387,
      "missouri": 8388,
      "attracted": 8389,
      "skilled": 8390,
      "limitations": 8391,
      "atlantic": 8392,
      "tapest": 8393,
      "grocery": 8394,
      "surgery": 8395,
      "prestig": 8396,
      "commemor": 8397,
      "ging": 8398,
      "nu": 8399,
      "yach": 8400,
      "##bing": 8401,
      "##aying": 8402,
      "##add": 8403,
      "dean": 8404,
      "##mental": 8405,
      "brave": 8406,
      "##uces": 8407,
      "##ermen": 8408,
      "##idespread": 8409,
      "classification": 8410,
      "steal": 8411,
      "jersey": 8412,
      "babies": 8413,
      "printed": 8414,
      "fatal": 8415,
      "dishes": 8416,
      "corruption": 8417,
      "zeal": 8418,
      "##lete": 8419,
      "shirts": 8420,
      "##ags": 8421,
      "consists": 8422,
      "warrant": 8423,
      "contest": 8424,
      "format": 8425,
      "lesser": 8426,
      "reviewing": 8427,
      "##shire": 8428,
      "concentrations": 8429,
      "chemicals": 8430,
      "arthur": 8431,
      "98": 8432,
      "eve": 8433,
      "fier": 8434,
      "nick": 8435,
      "tong": 8436,
      "##ito": 8437,
      "physically": 8438,
      "substit": 8439,
      "luxor": 8440,
      "mcd": 8441,
      "symptom": 8442,
      "moorish": 8443,
      "bom": 8444,
      "copp": 8445,
      "gle": 8446,
      "ros": 8447,
      "sigh": 8448,
      "widespread": 8449,
      "##falls": 8450,
      "##icate": 8451,
      "##leans": 8452,
      "##idency": 8453,
      "orleans": 8454,
      "bloom": 8455,
      "legacy": 8456,
      "yorker": 8457,
      "eggs": 8458,
      "protecting": 8459,
      "purchases": 8460,
      "depicting": 8461,
      "fantas": 8462,
      "incredible": 8463,
      "sorts": 8464,
      "##anas": 8465,
      "##anches": 8466,
      "shocked": 8467,
      "##iev": 8468,
      "supporters": 8469,
      "rugged": 8470,
      "populated": 8471,
      "summit": 8472,
      "argues": 8473,
      "administrators": 8474,
      "industrialist": 8475,
      "awarded": 8476,
      "delicious": 8477,
      "mathem": 8478,
      "##rome": 8479,
      "theories": 8480,
      "##arse": 8481,
      "outer": 8482,
      "aging": 8483,
      "cobb": 8484,
      "smallest": 8485,
      "follows": 8486,
      "armor": 8487,
      "fishermen": 8488,
      "pulling": 8489,
      "certified": 8490,
      "kilomet": 8491,
      "therap": 8492,
      "aggressive": 8493,
      "inexpensive": 8494,
      "unhapp": 8495,
      "voluntary": 8496,
      "kash": 8497,
      "nons": 8498,
      "wis": 8499,
      "##fr": 8500,
      "inch": 8501,
      "staring": 8502,
      "##itty": 8503,
      "backed": 8504,
      "configuration": 8505,
      "steam": 8506,
      "missile": 8507,
      "burial": 8508,
      "associations": 8509,
      "focusing": 8510,
      "camer": 8511,
      "hosts": 8512,
      "cruel": 8513,
      "picass": 8514,
      "vault": 8515,
      "nye": 8516,
      "cooper": 8517,
      "bapt": 8518,
      "##liss": 8519,
      "##isy": 8520,
      "stocks": 8521,
      "suitable": 8522,
      "worsh": 8523,
      "intense": 8524,
      "boots": 8525,
      "moves": 8526,
      "moham": 8527,
      "flu": 8528,
      "ending": 8529,
      "formula": 8530,
      "mailer": 8531,
      "##liers": 8532,
      "irre": 8533,
      "girlf": 8534,
      "potentially": 8535,
      "educated": 8536,
      "cloak": 8537,
      "evolutionary": 8538,
      "pollutants": 8539,
      "analyzed": 8540,
      "hazard": 8541,
      "extraordinary": 8542,
      "inhabitants": 8543,
      "pants": 8544,
      "##orse": 8545,
      "##orke": 8546,
      "stalls": 8547,
      "##urer": 8548,
      "##olta": 8549,
      "cance": 8550,
      "elastic": 8551,
      "insight": 8552,
      "judicial": 8553,
      "snorke": 8554,
      "legislature": 8555,
      "threats": 8556,
      "relaxing": 8557,
      "luxur": 8558,
      "mysterious": 8559,
      "paralle": 8560,
      "promenade": 8561,
      "38": 8562,
      "bid": 8563,
      "nas": 8564,
      "session": 8565,
      "##laimed": 8566,
      "##fers": 8567,
      "shame": 8568,
      "##apore": 8569,
      "spare": 8570,
      "##uman": 8571,
      "grim": 8572,
      "reply": 8573,
      "postage": 8574,
      "refuse": 8575,
      "reasonably": 8576,
      "discussing": 8577,
      "identical": 8578,
      "votes": 8579,
      "combat": 8580,
      "prisoners": 8581,
      "applies": 8582,
      "automob": 8583,
      "shooting": 8584,
      "eliminated": 8585,
      "disappeared": 8586,
      "cabinet": 8587,
      "aristocr": 8588,
      "gingrich": 8589,
      "bast": 8590,
      "dick": 8591,
      "##lah": 8592,
      "##child": 8593,
      "drives": 8594,
      "locally": 8595,
      "worldwide": 8596,
      "menu": 8597,
      "oklah": 8598,
      "absurd": 8599,
      "influences": 8600,
      "utah": 8601,
      "literary": 8602,
      "railroad": 8603,
      "inspector": 8604,
      "ratings": 8605,
      "allocation": 8606,
      "emotional": 8607,
      "forbes": 8608,
      "kicked": 8609,
      "shouted": 8610,
      "equivalent": 8611,
      "affirmative": 8612,
      "kashmir": 8613,
      "picasso": 8614,
      "races": 8615,
      "##hou": 8616,
      "##enberg": 8617,
      "toy": 8618,
      "reass": 8619,
      "##amin": 8620,
      "della": 8621,
      "guest": 8622,
      "modified": 8623,
      "##ugawa": 8624,
      "greed": 8625,
      "murm": 8626,
      "ladies": 8627,
      "complain": 8628,
      "navy": 8629,
      "lifted": 8630,
      "pierre": 8631,
      "shifted": 8632,
      "solely": 8633,
      "borrowing": 8634,
      "gifts": 8635,
      "fy": 8636,
      "pas": 8637,
      "ward": 8638,
      "##oen": 8639,
      "ingr": 8640,
      "exped": 8641,
      "bald": 8642,
      "250": 8643,
      "hello": 8644,
      "mansions": 8645,
      "anticipated": 8646,
      "taxpayers": 8647,
      "vulnerable": 8648,
      "tranqu": 8649,
      "##imm": 8650,
      "##tha": 8651,
      "##theless": 8652,
      "shog": 8653,
      "fried": 8654,
      "envelop": 8655,
      "nevertheless": 8656,
      "condem": 8657,
      "##otto": 8658,
      "investigations": 8659,
      "gathering": 8660,
      "guarantees": 8661,
      "photographs": 8662,
      "exclusive": 8663,
      "storage": 8664,
      "database": 8665,
      "mohammed": 8666,
      "borrow": 8667,
      "mum": 8668,
      "merg": 8669,
      "sq": 8670,
      "sed": 8671,
      "##itis": 8672,
      "bearing": 8673,
      "trains": 8674,
      "tripp": 8675,
      "##apher": 8676,
      "grate": 8677,
      "que": 8678,
      "highlights": 8679,
      "extend": 8680,
      "bitter": 8681,
      "competing": 8682,
      "approached": 8683,
      "merger": 8684,
      "encouraging": 8685,
      "consistently": 8686,
      "citizen": 8687,
      "sampling": 8688,
      "malls": 8689,
      "monumental": 8690,
      "porch": 8691,
      "worksharing": 8692,
      "settlements": 8693,
      "astronomer": 8694,
      "seaside": 8695,
      "tokugawa": 8696,
      "exquisite": 8697,
      "cale": 8698,
      "fbi": 8699,
      "ku": 8700,
      "inapp": 8701,
      "shorter": 8702,
      "quote": 8703,
      "underlying": 8704,
      "regret": 8705,
      "childhood": 8706,
      "lets": 8707,
      "easter": 8708,
      "humor": 8709,
      "##ieties": 8710,
      "anne": 8711,
      "calend": 8712,
      "salaries": 8713,
      "stein": 8714,
      "volumes": 8715,
      "singapore": 8716,
      "sunny": 8717,
      "hillside": 8718,
      "hopefully": 8719,
      "contributed": 8720,
      "conducting": 8721,
      "santo": 8722,
      "casinos": 8723,
      "duties": 8724,
      "achievement": 8725,
      "essay": 8726,
      "pursu": 8727,
      "replacement": 8728,
      "retrofit": 8729,
      "gauve": 8730,
      "priests": 8731,
      "alabama": 8732,
      "vivid": 8733,
      "##och": 8734,
      "##wart": 8735,
      "react": 8736,
      "knock": 8737,
      "##umber": 8738,
      "peer": 8739,
      "indirect": 8740,
      "waterfront": 8741,
      "advised": 8742,
      "equipped": 8743,
      "packed": 8744,
      "nonex": 8745,
      "attempting": 8746,
      "mortgage": 8747,
      "validity": 8748,
      "nonfederal": 8749,
      "episode": 8750,
      "unnecessary": 8751,
      "cfo": 8752,
      "diet": 8753,
      "lan": 8754,
      "##iat": 8755,
      "##eem": 8756,
      "##atient": 8757,
      "inches": 8758,
      "pron": 8759,
      "##ila": 8760,
      "unt": 8761,
      "##achus": 8762,
      "artific": 8763,
      "hobby": 8764,
      "senor": 8765,
      "approve": 8766,
      "##liest": 8767,
      "178": 8768,
      "eighteen": 8769,
      "beds": 8770,
      "panels": 8771,
      "slept": 8772,
      "manufacturers": 8773,
      "evaluated": 8774,
      "casa": 8775,
      "tasks": 8776,
      "hond": 8777,
      "nave": 8778,
      "rushed": 8779,
      "##gio": 8780,
      "##ador": 8781,
      "##ortions": 8782,
      "allies": 8783,
      "spite": 8784,
      "##elle": 8785,
      "##osevic": 8786,
      "drama": 8787,
      "studio": 8788,
      "governmental": 8789,
      "valle": 8790,
      "technique": 8791,
      "##retion": 8792,
      "failures": 8793,
      "determination": 8794,
      "preparing": 8795,
      "cleaning": 8796,
      "respondents": 8797,
      "applying": 8798,
      "linda": 8799,
      "vineyards": 8800,
      "cbo": 8801,
      "mol": 8802,
      "rhod": 8803,
      "defending": 8804,
      "caes": 8805,
      "glance": 8806,
      "musc": 8807,
      "182": 8808,
      "trek": 8809,
      "operational": 8810,
      "missions": 8811,
      "sixteen": 8812,
      "screens": 8813,
      "emerged": 8814,
      "flexible": 8815,
      "calculated": 8816,
      "conquer": 8817,
      "publishing": 8818,
      "electronics": 8819,
      "scheme": 8820,
      "diamond": 8821,
      "clouds": 8822,
      "fen": 8823,
      "ms": 8824,
      "##lu": 8825,
      "##erie": 8826,
      "stiff": 8827,
      "##acent": 8828,
      "abrah": 8829,
      "##arten": 8830,
      "hispan": 8831,
      "usps": 8832,
      "workplace": 8833,
      "incidents": 8834,
      "coat": 8835,
      "invaders": 8836,
      "adds": 8837,
      "humid": 8838,
      "milosevic": 8839,
      "##fund": 8840,
      "existed": 8841,
      "emerging": 8842,
      "junk": 8843,
      "connections": 8844,
      "convention": 8845,
      "climbing": 8846,
      "olive": 8847,
      "mechanisms": 8848,
      "temperature": 8849,
      "exclusively": 8850,
      "tragedy": 8851,
      "dagger": 8852,
      "hike": 8853,
      "kam": 8854,
      "##len": 8855,
      "##66": 8856,
      "##itudes": 8857,
      "##etto": 8858,
      "chart": 8859,
      "enacted": 8860,
      "scots": 8861,
      "goodness": 8862,
      "parking": 8863,
      "surge": 8864,
      "returning": 8865,
      "milan": 8866,
      "winding": 8867,
      "shortly": 8868,
      "diagn": 8869,
      "holes": 8870,
      "bottles": 8871,
      "shares": 8872,
      "cuban": 8873,
      "cafes": 8874,
      "entitled": 8875,
      "procure": 8876,
      "chocolate": 8877,
      "gabr": 8878,
      "crew": 8879,
      "##lyn": 8880,
      "neo": 8881,
      "##oded": 8882,
      "tai": 8883,
      "costumes": 8884,
      "slaughter": 8885,
      "senator": 8886,
      "landed": 8887,
      "painter": 8888,
      "politically": 8889,
      "describing": 8890,
      "massac": 8891,
      "plantation": 8892,
      "wildlife": 8893,
      "permits": 8894,
      "tastes": 8895,
      "assumes": 8896,
      "alexand": 8897,
      "fertile": 8898,
      "sik": 8899,
      "##har": 8900,
      "stays": 8901,
      "scores": 8902,
      "persian": 8903,
      "visual": 8904,
      "officially": 8905,
      "budgetary": 8906,
      "armies": 8907,
      "occurs": 8908,
      "accordingly": 8909,
      "celebrities": 8910,
      "literally": 8911,
      "substantially": 8912,
      "registered": 8913,
      "masters": 8914,
      "champions": 8915,
      "schedules": 8916,
      "accompanied": 8917,
      "duplic": 8918,
      "fierce": 8919,
      "ger": 8920,
      "si": 8921,
      "##orrect": 8922,
      "##rey": 8923,
      "##arn": 8924,
      "rebell": 8925,
      "##inking": 8926,
      "##asses": 8927,
      "presidents": 8928,
      "economist": 8929,
      "audio": 8930,
      "excite": 8931,
      "devices": 8932,
      "flee": 8933,
      "settlers": 8934,
      "egyptians": 8935,
      "bayliss": 8936,
      "matching": 8937,
      "apparent": 8938,
      "reveal": 8939,
      "emotion": 8940,
      "mirror": 8941,
      "unhappy": 8942,
      "900": 8943,
      "jet": 8944,
      "ric": 8945,
      "sie": 8946,
      "##gments": 8947,
      "##hin": 8948,
      "##acles": 8949,
      "##osaur": 8950,
      "spokes": 8951,
      "declining": 8952,
      "discl": 8953,
      "corrid": 8954,
      "collecting": 8955,
      "basement": 8956,
      "acquire": 8957,
      "affordable": 8958,
      "variable": 8959,
      "discipline": 8960,
      "cattle": 8961,
      "faint": 8962,
      "lor": 8963,
      "##rical": 8964,
      "##esford": 8965,
      "toss": 8966,
      "##owa": 8967,
      "hect": 8968,
      "adap": 8969,
      "##izer": 8970,
      "prev": 8971,
      "surve": 8972,
      "differently": 8973,
      "##aughters": 8974,
      "traders": 8975,
      "sells": 8976,
      "historians": 8977,
      "mistakes": 8978,
      "melaka": 8979,
      "pursue": 8980,
      "criticism": 8981,
      "observations": 8982,
      "beresford": 8983,
      "sustain": 8984,
      "neutral": 8985,
      "abraham": 8986,
      "fern": 8987,
      "yan": 8988,
      "##rics": 8989,
      "##lical": 8990,
      "##olo": 8991,
      "##ulative": 8992,
      "leis": 8993,
      "incomp": 8994,
      "##ensed": 8995,
      "bases": 8996,
      "contents": 8997,
      "curve": 8998,
      "signature": 8999,
      "concert": 9000,
      "sectors": 9001,
      "moments": 9002,
      "fails": 9003,
      "circuit": 9004,
      "massachus": 9005,
      "agrees": 9006,
      "racing": 9007,
      "legendary": 9008,
      "elephant": 9009,
      "34": 9010,
      "62": 9011,
      "kh": 9012,
      "lung": 9013,
      "##cus": 9014,
      "##oan": 9015,
      "##omfort": 9016,
      "##etts": 9017,
      "stim": 9018,
      "##antages": 9019,
      "##eman": 9020,
      "timing": 9021,
      "##ishes": 9022,
      "export": 9023,
      "##into": 9024,
      "fires": 9025,
      "imported": 9026,
      "happily": 9027,
      "barry": 9028,
      "glory": 9029,
      "burst": 9030,
      "filing": 9031,
      "shrugged": 9032,
      "foreigners": 9033,
      "greeks": 9034,
      "concepts": 9035,
      "obligation": 9036,
      "murdered": 9037,
      "preparation": 9038,
      "gabriel": 9039,
      "bang": 9040,
      "tang": 9041,
      "wins": 9042,
      "##ua": 9043,
      "##70": 9044,
      "attain": 9045,
      "abd": 9046,
      "##occ": 9047,
      "closing": 9048,
      "crypt": 9049,
      "amig": 9050,
      "scouts": 9051,
      "preserve": 9052,
      "slopes": 9053,
      "restore": 9054,
      "tourn": 9055,
      "generous": 9056,
      "dealt": 9057,
      "suggestion": 9058,
      "richards": 9059,
      "predicted": 9060,
      "tomatoes": 9061,
      "searching": 9062,
      "hindus": 9063,
      "provider": 9064,
      "incredibly": 9065,
      "poetry": 9066,
      "recruit": 9067,
      "outrage": 9068,
      "pavil": 9069,
      "versailles": 9070,
      "relics": 9071,
      "exterior": 9072,
      "dal": 9073,
      "lane": 9074,
      "pets": 9075,
      "silly": 9076,
      "##father": 9077,
      "##za": 9078,
      "beef": 9079,
      "stir": 9080,
      "stol": 9081,
      "anch": 9082,
      "spends": 9083,
      "pear": 9084,
      "heroes": 9085,
      "bump": 9086,
      "reck": 9087,
      "completion": 9088,
      "mainstream": 9089,
      "singer": 9090,
      "banking": 9091,
[...]
